{"rast": 4148, "ĠValerie": 46656, "isierung": 32531, "ĠRi": 33668, "55": 13622, "Id": 42739, "ĠÑģÐ¾ÑģÑĤÐ°Ð²": 41772, "Ġlever": 12451, "Ġrepresentatives": 18628, "ned": 9232, "Ġanyways": 13448, "AD": 6112, "Ġempath": 27155, "ESCO": 47024, "ĠêµŃë¯¼": 37336, "Ġsynagogue": 49169, "Ġ": 220, "Missy": 47840, "Ġê³Ħ": 10603, "ĠvidÃ©os": 25417, "umb": 2860, "rÃ¼": 31759, "æ¦": 22989, "Ġtreadmill": 46374, "gee": 31577, "Ġlearn": 1466, "çļĩ": 41393, "Ġphilanthropy": 47180, "Ġëĭ¤ìĿĮ": 13526, "ÑĮÐ¾Ð³Ð¾": 40977, "gs": 21559, "ĠBrill": 30132, "Ġdrained": 37018, "ZA": 39431, "ĠCoin": 39054, "ãģķãģĦ": 19557, "åľ°æĸ¹": 30146, "ĠEnlight": 46037, "ĠWenn": 7899, "Ġê·¸ëĭ¤ìĿĮ": 36918, "å®Įåħ¨": 37100, "ê°Ĳ": 13664, "ì²Ń": 11686, "Ġquickly": 2661, "gas": 10549, "ĠØ¨ÙĬÙĨ": 49374, "Ġrepairing": 46158, "æĪĳçŁ¥éģĵ": 33838, "Ġschwierig": 37845, "Ġscraping": 43738, "Ġ70": 5285, "áº¥u": 44732, "ciamo": 42052, "Ġretaining": 34936, "Ġprotr": 45468, "è¿Ļä¹Ī": 31889, "Ġsens": 2923, "winning": 32960, "imento": 10030, "Ġpresenting": 15578, "arez": 39948, "ĠíķĺëĭĪê¹Į": 47490, "Ġvisiting": 11700, "Ġmust": 1633, "Ġengineering": 7043, "asant": 10633, "Ãªu": 28310, "Ġlegislation": 11329, "ĠAmerika": 42345, "<|0.30|>": 50379, "Ġcomple": 44424, "Ġbond": 6086, "Ġëªħ": 18284, "Ġinterested": 3102, "ĠCarter": 21622, "Ġtus": 20647, "Ġclient": 6423, "Ġgereki": 45038, "Ġkami": 34502, "Ġrelieve": 30450, "Ġpubl": 11227, "ĠLazar": 49273, "Ġwhites": 21909, "Ġintegrated": 10919, "æĦŁè¬Ŀ": 40143, "ĠØ¢": 19753, "Ġnuevas": 42817, "zar": 26236, "ĠCF": 21792, "Ġgraphical": 35942, "Ġpack": 2844, "ĠDubai": 29100, "cz": 3689, "jiang": 41098, "Ġgiven": 2212, "Ġweet": 28991, "ĠmoÅ¼emy": 26500, "ĠAbgeord": 40730, "Ġhiking": 23784, "ĠTechnology": 15037, "Ġfavored": 44420, "łĩê²Į": 4591, "Ġrefrain": 46177, "ì½": 15385, "Ġæľī": 21461, "Ġcaused": 7008, "ĠPositive": 46326, "Ġuna": 2002, "Ġhistorian": 25139, "ÃŃculo": 34365, "Ġrabb": 28179, "ĠThrough": 8927, "lect": 1809, "Ġcases": 3331, "................": 45409, "ĠStories": 31797, "Ġ78": 26369, "Ġì¹ľ": 15801, "Ð½Ð¾Ð¼Ñĥ": 20109, "Ġvisions": 30746, "ĠLion": 21704, "Ġmujer": 32032, "ĠGG": 42240, "Î½Î±": 11658, "Ġzmian": 43591, "ĠØ§ÙĦÙĥ": 33251, "acha": 27442, "ĠbÃ¶yle": 11018, "Ġprotector": 34986, "ĠFT": 46675, "Ġpig": 8120, "<|16.10|>": 51169, "Ġentirely": 7696, "Ġtots": 31661, "Ġwithhold": 48867, "ĠPred": 32969, "Ġlyn": 46137, "Ġsangre": 45878, "Ġoso": 19116, "ĠClay": 21392, "Ġfall": 2100, "Ġgreen": 3092, "Ġpuede": 8919, "Uh": 27727, "right": 1938, "Ġgrabbing": 23771, "Ġentwic": 28449, "Ġpassou": 44740, "ĠRaymond": 42813, "Ġwerd": 37258, "Ġperspectives": 16766, "Ġimproper": 40651, "Ġstar": 3543, "ĠStud": 4541, "ĠìĻľëĥĲíķĺë©´": 49338, "ĠExplorer": 31895, "Ġbl": 888, "Ġavait": 11853, "ĠImm": 17322, "´ëį°": 16775, "Ġchocolate": 6215, "iov": 20675, "lave": 27995, "ĠPlayers": 35808, "Ġcivilization": 18036, "Ġlaut": 44330, "Ġobtaining": 36749, "ÑĸÐ¹": 16471, "ĠElliott": 46170, "ĠÐ½ÑĢÐ°Ð²Ð¸ÑĤÑģÑı": 33652, "<|29.02|>": 51815, "IZ": 24374, "cycl": 34080, "ĠCreate": 20248, "orsch": 27457, "ĠÃ¼berzeug": 48598, "iod": 2695, "<|14.68|>": 51098, "Ġviolently": 46728, "ĠCircuit": 36939, "Ġnutzen": 36905, "Ġtrajectory": 21512, "igner": 36596, "raw": 5131, "ÑĤÐ¾ÑĢÐ¾Ð²": 45961, "Ġviolated": 33239, "Ġwatts": 31247, "ĠTrainer": 48494, "Ġreceptor": 32264, "ĠAIDS": 27929, "Ġses": 5385, "ĠRaum": 31359, "Ġabide": 39663, "UA": 35227, "Ġseguir": 18584, "binary": 48621, "ÑĢÐ°Ð²ÑģÑĤÐ²ÑĥÐ¹ÑĤÐµ": 36359, "ĠIntell": 18762, "ĠMaurice": 49041, "×ĸ": 20316, "Ġsatellite": 16016, "ĠNOT": 12854, "phoria": 50107, "Ġdistint": 31489, "ĠTest": 9279, "bury": 22536, "Ġeens": 31246, "Ġ×Ļ×Ľ×ķ×ľ": 37608, "Ġurban": 9681, "Ġfeeder": 48778, "Ġpreset": 32081, "ai": 1301, "ĠSilver": 15861, "Ġtour": 3512, "Ġorganized": 9983, "Ġfeito": 31243, "Ġent": 948, "Ġreceipt": 33882, "ĠÐ¿ÑĢÐ¾Ð¸Ñģ": 21482, "Ġfederal": 6019, "Ġcs": 28277, "Ġdisrespect": 27058, "ãģ¾ãģł": 47185, "kward": 10618, "Ġshotgun": 24734, "ÑİÑģÑĮ": 24551, "ĠrÃ©gion": 42669, "ĠShen": 22636, "GI": 26252, "zeich": 32338, "Ġgeneralized": 44498, "Ġdisturb": 18071, "emie": 32163, "Ġchange": 1319, "camera": 31135, "iffer": 12612, "Ġindent": 44494, "84": 25494, "ĠdÃ©p": 27998, "ĠÐºÐ¾Ð»Ð¸ÑĩÐµ": 25816, "weder": 49070, "lear": 5797, "Ġover": 670, "Ġsouvenir": 44361, "åĵ¦": 14659, "lik": 13462, "<|24.86|>": 51607, "Ġlantern": 34031, "ĠLords": 41870, "Ġticks": 42475, "Ġshouldn": 4659, "<|24.98|>": 51613, "ĠÐ¾Ð±ÑıÐ·Ð°ÑĤÐµÐ»ÑĮÐ½Ð¾": 35515, "Ġbanda": 38727, "vial": 22640, "¹Ħ": 9790, "ĠÐ´Ð¸": 28255, "gado": 30135, "ĠQiao": 48046, "Ġtranqu": 17640, "Get": 18133, "Ð¾Ð±ÑīÐµ": 12605, "instr": 50024, "æľĽ": 22694, "ìĥĿ": 10175, "Ġobtained": 14879, "Ġcapitalism": 19704, "Ġverd": 6387, "ĠQ": 1249, "ĠJOE": 44114, "Ġ63": 25082, "upid": 6127, "Ġlandmark": 26962, "ile": 794, "Ġplatform": 3663, "Ð²Ð¸Ð½": 36823, "press": 11637, "ĠNiet": 36583, "Ġfra": 6600, "ĠÏĥÎ¿Ïħ": 43455, "Ð¼Ð°Ð½": 35968, "ê¹Į": 3294, "Ġacres": 19852, "ĠSounds": 14576, "Ġapart": 4936, "ĠSchon": 46049, "Ġconfirmation": 21871, "ĠÑģÑĤÐ°Ð»Ð°": 44503, "Ġparalysis": 49507, "Ġä¾Ĩ": 33742, "Ġthermal": 15070, "cor": 19558, "Ġpurchase": 8110, "osa": 6447, "ĠDuygusal": 50090, "Ġretali": 37924, "ĠUC": 14079, "ĠÐ½ÐµÑģ": 30825, "Ġassert": 19810, "ĠÐ»ÑİÐ´": 8836, "Box": 34980, "ua": 4398, "Ġproblematic": 19011, "ĠÑĤÑĢÐ¸": 22068, "ĠTemple": 17642, "aho": 25825, "ĠEconomic": 25776, "<|4.14|>": 50571, ".,": 7933, "heres": 19464, "æĪĳè·Łä½łè¬Ľ": 49106, "Ġpourquoi": 19934, "ĠScriptures": 46522, "Ġvalle": 40699, "ĠzwiÄħz": 27741, "Ġrepent": 19994, "ĠWheel": 31392, "ĠktÃ³rej": 36023, "mid": 25394, "ĠWhoa": 7521, "umin": 7112, "ĠdifÃŃ": 16774, "ìĭľëĬĶ": 18147, "Ġsinus": 41503, "Ġexpressions": 15277, "orous": 16099, "Ġproc": 9510, "Ð½Ð¸ÑĤÐµ": 38066, "reated": 26559, "Ġbilling": 35618, "Ġmaterial": 2527, "ĠMcCarthy": 44085, "Ġextended": 10913, "ĠRough": 42791, "inta": 16071, "ĠmÃ¡quina": 49360, "ĠHeavy": 26473, "ĠAbigail": 47174, "Ġdobry": 35884, "Ġaxe": 30195, "Ġbiss": 10627, "ortun": 1584, "ĠdemiÅŁ": 46334, "Ã¼d": 47731, "Ġperseverance": 39674, "aments": 28401, "á»ĥ": 9571, "-'": 49137, "<|19.54|>": 51341, "ĠGenesis": 20587, "Ġbehavi": 15475, "Ġrere": 46453, "ĠìĨ": 4794, "ī": 231, "<|23.62|>": 51545, "Ġundertake": 37010, "ĠPaige": 45177, "ĠboÅŁ": 37636, "Ġcounters": 39338, "Ã¤mÃ¤": 20962, "ĠEdu": 31900, "ĠSAM": 9617, "ĠÄĳÆ°á»£c": 15832, "yt": 4328, "unts": 21253, "arÃŃa": 21178, "ĠDean": 13324, "Ġdefects": 32655, "ĠDemon": 29683, "acula": 41422, "ĠVerb": 27034, "Ġdissemin": 34585, "Ġappropriate": 6854, "alous": 11553, "ĠGrass": 39891, "Ġrelativity": 45675, "ĠÐĹÐ´ÐµÑģÑĮ": 23367, "vid": 6833, "ĠBhar": 49104, "åĤ": 11518, "¶Ħë": 31480, "les": 904, "Ġspaces": 7673, "Ġmercado": 24775, "Ġding": 21211, "Ġmaximal": 49336, "<|16.18|>": 51173, "ĠFrench": 5522, "Ø§Ø®": 47283, "<|7.22|>": 50725, "uv": 9350, "Ġbizim": 23439, "Ä±r": 3702, "Ġmetall": 20866, "ÅĽnie": 12221, "Ġchew": 21200, "Ġà®İ": 12814, "orum": 36543, "ardan": 24087, "ittee": 5375, "Ġrallies": 48169, "ĠIntelligence": 27274, "akap": 49904, "cave": 50126, "Ġgrief": 18998, "ificial": 10371, "Ġsample": 6889, "Ġanc": 9789, "Ġecon": 23692, "screams": 29443, "atever": 7969, "æģ": 11845, "Ġcritique": 25673, "Ġbrac": 17848, "¯": 107, "ĠìĻĢ": 12500, "Ġshipping": 14122, "birds": 31473, "ications": 24847, "Ġidentifies": 34597, "Ġotras": 20244, "Ġhyg": 24470, "ĠgÃ¥r": 19831, "Ġbacterial": 35632, "ãĤĤãģ®": 44726, "ìķĮ": 48234, "Ġcommits": 48311, "ëĭ¬ë": 38209, "ĠÑĩÐ°Ñģ": 13562, "é¼": 41111, "ĠTroy": 32898, "Ġescapes": 43769, "Ġ;)": 41540, "ĠLINKE": 32445, "Ġsurn": 39270, "Ġ67": 23879, "Ð°ÐµÑĤÑģÑı": 6970, "berries": 15290, "Ġwip": 15887, "Ġtruth": 3494, "lardan": 41188, "Ġbitch": 11960, "Ġwarrant": 16354, "Ġlogging": 27991, "ĠFreiheit": 47825, "ĠHobby": 49705, "ĠPinterest": 37986, "Ġaccomplishments": 25943, "Ġfork": 17716, "Ġirrigation": 31753, "Ġembroider": 29833, "ĠNelson": 23857, "Ġboiling": 16208, "istan": 7559, "Ġlaughter": 13092, "ue": 622, "Ġ×Ķ×¡": 32559, "hma": 22061, "å¼ı": 27584, "³ĳ": 44504, "Ġsoir": 27105, "²Ħë": 24410, "ìĻĢ": 7590, "ĠMcMahon": 48187, "ĠRails": 48526, "99": 8494, "ĠGeorg": 10114, "æĪĳèªª": 34206, "æĮģ": 17694, "ìĹĪìĬµëĭĪëĭ¤": 24148, "Ġburied": 14101, "Ġíĺķ": 12459, "imaan": 40338, "ansa": 38734, "Ġhina": 41844, "ÑģÐºÐ¾Ð¹": 17360, "<|13.46|>": 51037, "nant": 25928, "Ġtheme": 6314, "ÑĥÐº": 10282, "Ġexaggerated": 36196, "Ã¡veis": 42530, "boarding": 43925, "ĠMother": 8931, "Ġqualitative": 31312, "ĠSurf": 43124, "Ġvoiced": 42246, "xi": 27579, "ĠNurse": 48945, "ĠÐºÐ¾Ð½ÑĤÑĢ": 33271, "Ġexcav": 34351, "cake": 13994, "ados": 4181, "ìĪ": 5500, "Ġãģ§": 21376, "vy": 11869, "ĠRichards": 33021, "Ġspoilers": 32237, "Ġprevented": 27314, "Ġwr": 928, "Ġdropped": 8119, "Ġsava": 44908, "ĠTik": 15613, "ouses": 18562, "kannt": 29680, "ĠKristen": 35107, "è½": 17819, "Ġngo": 45843, "ĠHAS": 38461, "ĠComplete": 34687, "Ġavant": 13439, "ĠBot": 25486, "Ġgenre": 11022, "ĠÑħ": 3490, "Ġsprout": 43728, "åĪ°": 4511, "Ġdelightful": 35194, "Ġscold": 26437, "Ġcollar": 20672, "æ²Ĵ": 4913, "Ġteas": 11488, "æľª": 29954, "Ġaceite": 48913, "cedented": 21170, "ĠìĺģìĥģìĿĦ": 42942, "Ġconservation": 16185, "Ġasta": 43405, "Ġgiving": 2902, "Ġcentury": 4901, "89": 21115, "ĠìĺĨ": 29095, "ä»ĸèªª": 31592, "Ġdemonstrations": 34714, "infl": 27850, "<|13.44|>": 51036, "ĠVed": 26084, "©ng": 21077, "Ġolds": 41972, "Ñī": 2000, "Ġboobs": 40439, "ĠAid": 39916, "ĠInvestig": 42030, "Ġdominate": 28246, "Ġstimulating": 43671, "Ġspecs": 27911, "<|22.66|>": 51497, "ìĤ¬ê°Ģ": 34435, "ĠRichardson": 48492, "Îº": 4915, "ìķĻ": 48808, "ĠGuang": 35815, "ĠÐ±Ñĥ": 21646, "ĠmÃ©": 13191, "Ġtobacco": 22994, "Ġsib": 35505, "Ġbesten": 30930, "ĠÐ·Ð´ÐµÑģÑĮ": 9087, "Ġgli": 17161, "ĠYou": 509, "Ġsmelled": 40453, "enan": 45008, "ĠThen": 1396, "Ġweiter": 8988, "ĠìĿ´ë¦Ħ": 28581, "lez": 20336, "ottle": 19659, "Beifall": 14551, "Ġlebih": 20451, "Ġbreve": 48517, "Ġkeinen": 20624, "ĠDC": 9114, "ĠvÃ¶llig": 35670, "ĠìķĦ": 2216, "Ġfirearms": 38398, "obia": 24613, "Ġimmersed": 35416, "Ä±sÄ±": 28495, "first": 29581, "Ġveg": 24366, "¶": 114, "Ġexplanations": 28708, "Whoa": 43074, "imar": 49396, "Ġdengan": 13877, "Ġsuscri": 40405, "ĠiÅŁ": 8690, "Ã¼man": 48585, "Ġont": 6592, "Ġunch": 33686, "ä»ĸçļĦ": 31309, "Ġterug": 35020, "Ġspaced": 43766, "Edu": 16559, "Ã¨le": 29844, "umer": 15583, "ĠBerry": 34084, "ìĸ¸": 31155, "wick": 16038, "Ġpestic": 28904, "Ġdishwasher": 38009, "Ġshove": 35648, "pis": 40516, "Ġpow": 3388, "Ġconsiderably": 31308, "ĠaÄŁ": 21294, "Ġmascara": 26016, "Ġseason": 3196, "Ġtrades": 21287, "íķ´ì£¼": 25424, "ĠÐ»ÑİÐ±Ð»Ñİ": 44683, "omme": 15117, "Ġmagnificent": 23690, "Ġtensor": 40863, "Ġmemo": 35900, "Ġsubmerged": 46985, "Ġzebra": 47060, "uri": 9744, "Ġsubjects": 13066, "<|8.16|>": 50772, "Ġalluded": 33919, "Ġotros": 16422, "ĠÐķÑģÑĤÑĮ": 30547, "ĠÐµÑģÑĤÐµ": 43775, "hini": 45600, "ĠÐ·Ð°Ñģ": 27819, "Ġsuo": 34197, "Ġunivers": 5950, "ursday": 10125, "åª½": 24812, "Ġexpressing": 22171, "Ã¸re": 35435, "ĠÅŁekilde": 23537, "Pad": 50112, "Ġheels": 19502, "ĠMaggie": 29107, "Ġwidow": 37207, "ĠYA": 40771, "y": 88, "ĠOne": 1485, "Ġad": 614, "Ġjudge": 6995, "pot": 17698, "Ġelements": 4959, "ĠFreeze": 48096, "oty": 6737, "Ġëĭ¤ìĭľ": 15463, "ety": 2210, "utlich": 21678, "ĠErgebnis": 46229, "dessus": 42401, "ĠìĦ¸ìĥģ": 37990, "Ġunconditional": 47916, "fia": 22054, "Ġswallowed": 41769, "uju": 45652, "ĠBelle": 31905, "Ġreste": 20694, "<|nocaptions|>": 50362, "hic": 32582, "Ġrecuper": 25692, "Ġhumbled": 46199, "Ġapplic": 2580, "ĠãĤĦ": 43938, "something": 31681, "Ġvir": 4107, "ç¯ĢçĽ®": 42567, "Ã¡o": 45202, "Ġcentimeters": 23300, "Ġsebel": 46122, "ĠCristo": 36524, "udible": 5582, "ĠMilwaukee": 35321, "Ġsaving": 6816, "éĢĻæĺ¯": 16600, "<|11.70|>": 50949, "Ġschme": 46459, "Ġdiamonds": 22612, "Ġtulee": 40038, "lude": 32334, "ĠController": 44969, "Ġconstitutional": 20176, "Ġarchitectural": 26621, "Ġdamp": 19498, "Ġnature": 3687, "ĠGinger": 34637, "emor": 26357, "Ġfak": 33647, "ĠBett": 45083, "Ġaffair": 22987, "ĠmÃ£o": 31639, "Ġ×Ķ×©": 22537, "Ġcolumn": 7738, "ÑĥÐ½Ðº": 26533, "Ġenjoyed": 4626, "ceu": 31271, "ìłģìľ¼ë¡ľ": 15078, "Ġå°±": 32609, "ĠArm": 11893, "Ġadvertis": 18427, "16": 6866, "ÃŃcul": 15304, "ç¬¬ä¸ī": 35878, "Ġfique": 35497, "Ġflew": 15728, "Ð°Ð´": 2601, "ĠPsaki": 50037, "pped": 3320, "Ġnutrient": 32694, "Ġrail": 8765, "ĠìŀĪìĸ´ìĦľ": 27937, "Ġscoot": 21375, "Ġlive": 1621, "Ġnauc": 49103, "ieurs": 17743, "<|5.42|>": 50635, "ĠÅŁu": 17235, "Ġguardians": 40525, "ĠBrit": 4760, "ĠPrint": 34439, "ĠìĿĮìĭĿ": 34203, "Ġblossoms": 47789, "ĠmÃ¨re": 35935, "Ġastero": 24711, "Ġverf": 40660, "Ġconsonant": 43647, "Ġorbiting": 48985, "à¤¤": 36158, "amily": 30282, "velope": 19278, "why": 22628, "ecd": 26565, "Ġnutr": 12289, "ĠÑģÐ»Ð¾Ð²Ð¾": 43272, "éĨ«": 48351, "Ġbana": 16832, "Ġspotted": 21010, "Ġdil": 11504, "ĠÐ¥": 9456, "Ġniveau": 19144, "ĠRouge": 47607, "ĠHealth": 5912, "ĠFilip": 28241, "Ð¿ÐµÑĢÐ²": 44488, "³µ": 32635, "Ġblew": 19075, "rr": 16115, "Ä±nd": 6208, "Ġreal": 957, "Ġsout": 29350, "Ġtud": 32602, "Ġvisit": 3441, "Ġdiagnost": 43215, "ĠGOD": 26831, "ĠReason": 39693, "GB": 8769, "ĠIran": 8283, "lichkeit": 41096, "Ġirgend": 11093, "Ġworksheet": 49890, "å±": 9636, "Ġanticipating": 40568, "Ġhug": 8777, "Ġbench": 10638, "Ġpuisqu": 43459, "Ġarose": 37192, "hall": 43864, "Äģh": 32121, "Ġcarga": 41964, "ĹĲ": 8926, "Ġmush": 11559, "balls": 19194, "Ġexploit": 25924, "Ġjaws": 44942, "Ġserver": 7154, "Ã¼nk": 14402, "Ġbh": 41221, "ÄħÄĩ": 36374, "Ġtast": 2700, "Ġparental": 41113, "Ã¨me": 8433, "Ġextract": 8947, "rell": 19771, "ĠFinding": 31947, "Ġinfluenced": 15269, "Ġë²Īì§¸": 25055, "ĠJoan": 25748, "ĠÑģÐ¾Ð±Ð¸ÑĢ": 41534, "Ġrest": 1472, "ĠÐ²Ð¾Ð»": 22211, "Ġdaring": 43128, "ĠLoop": 45660, "ãģį": 7016, "rito": 17492, "Ġná»¯a": 35047, "Ġdumping": 42224, "Ġrewind": 41458, "Ġ96": 24124, "Ġinterpret": 7302, "ĠNick": 9449, "Ġbesl": 47118, "ĠDavis": 15658, "Ġinf": 1536, "Ġfallen": 11547, "ĠMOO": 49197, "Ġconcluded": 22960, "Ġprofessor": 8304, "ĠGef": 17873, "odel": 41147, "Ġpraw": 22508, "chied": 11805, "thinking": 39873, "Ġabort": 38117, "Ġinsign": 34261, "ĠtÃ©rmin": 45198, "inn": 7729, "uencia": 47377, "Ġoptim": 5028, "ĠMatte": 47544, "áº¿u": 30568, "Ġresp": 1597, "Ġnylon": 43503, "<|23.40|>": 51534, "wo": 6120, "Ġrelativ": 21960, "Ġsqueezed": 39470, "Ġdedicate": 30718, "ussian": 21948, "Ġtexto": 35503, "four": 23251, "Greg": 48254, "ĠÐ¾ÑĤÐ¼ÐµÑĤ": 47318, "Ġãħ": 40978, "Ġabbrevi": 35839, "Ġkahkaha": 37357, "anda": 5575, "Ġpacks": 19403, "ĠLanding": 49458, "jar": 10150, "ople": 548, "ĠEuros": 46662, "Ġpolic": 6285, "ĠÑģÑĤÐµÐ½": 48357, "Ġself": 2698, "integr": 31131, "ìĹŃ": 18015, "igrade": 41278, "Ġparty": 3595, "Ġbod": 16737, "rag": 3731, "Ġjingle": 49495, "ĠTang": 22063, "Ġcame": 1361, "Ġbegged": 47653, "ĠHundreds": 45785, "awn": 11251, "Ġestava": 15662, "ĠVera": 46982, "Ġdijo": 27024, "Ġdiskut": 36760, "Ġrecreate": 25833, "Ġbus": 1255, "Ġpsychiatric": 40123, "Ġ1944": 35133, "ĠViá»ĩt": 32936, "Ġamendments": 27009, "ĠQuarter": 43794, "Vi": 41093, "Ġcontag": 28525, "<|1.86|>": 50457, "<|5.82|>": 50655, "ĠatravÃ©s": 39941, "iry": 12781, "Ġ\"": 503, "Î´Î±": 40409, "Ġdissip": 29544, "à¯ĩ": 10478, "meden": 43883, "Ġìħĭ": 34371, "ĠChrome": 15327, "íļĮ": 15048, "orable": 15249, "iven": 5709, "conomic": 31646, "Ġdigit": 14293, "Ġvap": 29393, "ĠíĸĪ": 8154, "Ġmillennials": 45543, "ª¨": 16838, "inch": 12415, "Ġpolarization": 37736, "ao": 25548, "Ġneck": 6189, "aimer": 43378, "Ġmiel": 41392, "ÑĥÐ²Ð°ÑĤÐ¸": 36303, "Ġformatting": 39366, "Ġrun": 1190, "illah": 32703, "ĠPur": 14682, "Ġlanguage": 2856, "Ġgossip": 31788, "ĠÐ¶Ð´": 27020, "Ġclos": 2611, "Ġrap": 5099, "Ġmeasurement": 13160, "ossen": 22573, "Ġstickers": 21019, "itte": 9786, "ĠWick": 47702, "ĠMah": 10104, "Ġproposed": 10348, "ĠFace": 4047, "ìĿ´": 1129, "resso": 29652, "Ġmonk": 27698, "Ġcas": 3058, "ems": 9097, "<|18.46|>": 51287, "Ġmaken": 24703, "hl": 22950, "uler": 26318, "Ġlot": 688, "Ġunacceptable": 31812, "ARE": 28186, "song": 38762, "ĠTitanic": 42183, "Ġpaint": 4225, "Ġtransaction": 14425, "Ġcelery": 37643, "Ġhan": 7276, "Ø©": 3660, "Ġrecruiting": 25987, "Ã¤tzlich": 33373, "Ġï·": 28081, ",âĢĭ": 40271, "ĠìĦľìļ¸": 31039, "<|3.82|>": 50555, "<|3.10|>": 50519, "<|8.98|>": 50813, "Ġcaffeine": 31261, "ĠÐ³Ð¾ÑĤÐ¾Ð²": 17137, "DIE": 17521, "Ġchewing": 31444, "Ġtwenties": 49398, "ĠKl": 16053, "Ġsuccessful": 4406, "ĠTerre": 47870, "uct": 11130, "Ġå¿«": 42598, "Ġinternet": 4705, "ĠÐ°Ð»": 39336, "rÃ¡": 30218, "Ġì§Īë¬¸": 39217, "ãģĴ": 26012, "live": 45273, "One": 15426, "Ġgroove": 26910, "Ġku": 17807, "ĠÐºÐ»Ð°ÑģÑģ": 26197, "ĠCrowd": 40110, "ĠOczywiÅĽcie": 42980, "ĠÄ°ns": 45379, "ĠYak": 31484, "Ġbumpy": 49400, "Ġhello": 7751, "Ġholiday": 9960, "Ġ×Ĵ×Ŀ": 26611, "Ph": 24382, "DD": 20818, "Ġimm": 3397, "ĠSuper": 4548, "ĠFlying": 34287, "Ø«": 12984, "Ð¾Ð·Ð¸": 50226, "Ġadopt": 6878, "Ġkicking": 19137, "æ©": 13671, "Ġvictims": 11448, "polit": 27461, "Ġindustrial": 9987, "Ġmicrobi": 33234, "Ġdevastated": 34880, "Ð¸Ð²Ð°ÐµÑĤÑģÑı": 39864, "Ġconception": 30698, "Ġrational": 15090, "Ġfarms": 20366, "ĠSnow": 14827, "Ġoutdated": 36313, "ĠÐ¿ÑĥÑĤ": 37581, "Ġthey": 436, "<|7.42|>": 50735, "Ġcurd": 47443, "Ð¾Ð±Ñī": 32977, "Ġsucks": 15846, "ãĥ©": 11353, "ĠVor": 12231, "Ġpage": 3028, "Ġwoods": 15296, "te": 975, "Ġcriter": 9912, "ãģĦãģ¤": 40162, "Ġdin": 3791, "ĠÑģÐ²Ð¸Ð´": 43666, "ĠRUS": 43719, "ĠAvatar": 44748, "imdi": 10308, "ĠgÃ©n": 14575, "Ġoccasionally": 16895, "Ġgin": 36604, "ĠsiÃ¨cle": 40830, "Ġgir": 14703, "Ġgallery": 18378, "acjÄĻ": 29924, "avier": 25384, "ĠNigeria": 28828, "Ð»Ð¾Ð²": 21650, "Ġnosotros": 13863, "Ø¯ÙĬ": 16254, "grÃ©": 36341, "ĠCollabor": 44483, "ĠAriana": 43296, "altet": 39931, "Ġcrafting": 29048, "fund": 21874, "Ġruh": 36614, "ĠKry": 37747, "ouve": 8162, "ìŁģ": 42095, "Ġfounding": 22223, "Ġattendees": 34826, "Ġknew": 2586, "Ġletzte": 35236, "Ġpole": 13208, "0": 15, "Ġrelatives": 18201, "¶Ħ": 6072, "ĠíĴ": 21442, "Ġprofitability": 46249, "æĹ": 4479, "<|6.48|>": 50688, "Ġic": 4376, "Ġnit": 10900, "Ġshown": 4898, "Ġauto": 8399, "Ġbrands": 11324, "Ġtriumph": 29156, "ĠXian": 47581, "How": 6462, "viamente": 23347, "ĠTri": 10931, "Ġsmoking": 14055, "íĥģ": 30182, "æĭ¬": 40322, "Ð°Ð¹Ð½": 32920, "ĠÐ¾Ð±ÑĢÐ°ÑĤ": 29851, "Ġrivals": 33303, "Ġdaughters": 17070, "Ġtexts": 15765, "Ġschem": 22627, "Ġlack": 5011, "Ġpraise": 13286, "ĠSchn": 45748, "ĠLeute": 13495, "Ġtwist": 8203, "Ġmoder": 10494, "Ġseals": 32031, "ĠApplause": 19281, "ÏĦÎ±Î½": 26263, "Ġcontradict": 28900, "Ġreop": 28994, "ĠvoilÃł": 14624, "track": 19466, "Ġdentro": 10856, "Ġpalabras": 35240, "Ġtremend": 8706, "ĠÎºÎ¬": 26751, "iance": 6276, "Ġexecutive": 10140, "Ġphotographed": 45067, "ĠDang": 29580, "Ġmonastery": 37821, "Ġeggs": 6466, "ruck": 8161, "speaks": 31016, "Ġretrie": 19817, "ĠViele": 36022, "ĠOption": 29284, "Ġdopo": 35196, "ĠÐº": 981, "Ġstalk": 21789, "asia": 25251, "ÐĲ": 5594, "cely": 42879, "Ġfaktiskt": 35988, "Ġhelpful": 4961, "ĠMove": 10475, "Ġconcurrent": 37702, "Ġsavory": 33944, "ĠConsult": 40057, "Ġescol": 25603, "ĠBever": 39236, "brance": 39829, "Ġsaja": 32617, "Ġ×ľ×Ĺ": 42485, "Ġv": 371, "ĠInv": 31124, "Ġstriving": 36582, "ä½ľ": 11914, "!!]": 46990, "!!)": 33826, "<|12.20|>": 50974, "Ġbunu": 18155, "ĠNH": 31118, "à¥": 8703, "ĠMaybe": 2704, "Ġworden": 14054, "ramento": 34706, "leb": 28512, "ă": 191, "yk": 46127, "Ġtips": 6082, "prisingly": 34408, "ĠAPP": 22513, "ãģ£ãģ±": 37696, "ĠEL": 14426, "Ġud": 11727, "ãģ¾ãĤĬ": 41446, "Ġruthless": 47096, "Ġeffectively": 8659, "ĠJAC": 48904, "ê°ĢëĬĶ": 28391, "Ġmote": 49071, "ĠUtah": 20226, "Ġfreel": 27931, "ĠOur": 2621, "Ġintox": 40809, "Ġimplications": 16602, "Ġgusta": 20576, "Ø²": 11622, "Ġverso": 49786, "ĠSte": 3592, "ennes": 42886, "Ġconfined": 31745, "Ġilluminated": 48577, "ĠSeattle": 15721, "Ġparasites": 45289, "ĠìĿ´ìĸ": 40186, "ISS": 30090, "Ġpoker": 36863, "Ġape": 44315, "Ġrules": 4474, "ĠBrittany": 41067, "Ġ?!": 31363, "ä½łä»¬": 29806, "71": 29985, "ĠSubst": 42090, "Ġseverity": 35179, "ĠMercury": 31780, "Ãªmement": 37540, "izen": 23161, "Ġarbeiten": 23162, "Ġbackyard": 20036, "Ġmultit": 42338, "Ġthreatening": 20768, "ĠBarack": 31705, "ĠDav": 3724, "ĠtrÃ¨s": 5732, "ĠMinnie": 47654, "sequently": 46027, "nes": 4081, "Ġsettled": 14819, "Ġannotation": 48654, "Ġtama": 45342, "ĠÐŃÑĤÐ¾ÑĤ": 42054, "ĠpoczÄħtku": 43959, "Ġpaj": 33819, "ãģĵ": 3503, "<|25.84|>": 51656, "ĠCy": 10295, "ĠNon": 8774, "OOM": 26345, "ĠÑĤÐ¾Ð³Ð¾": 11283, "ĠAub": 36927, "Ġfakt": 21310, "ĠiÅŁi": 45377, "Ġdisse": 17581, "è«": 11067, "parents": 19901, "íķł": 7999, "Æ¡i": 21537, "Ġexplosive": 24630, "industrie": 50046, "<|8.34|>": 50781, "ä¸Ģèµ·": 29567, "Ġtwisting": 34491, "Ġminutos": 19421, "ĠÎ±ÏħÏĦ": 18679, "Ġ×Ĵ": 15413, "Ġimpl": 8484, "ophile": 49242, "ilos": 6136, "Ð¸Ð»Ð¾": 22201, "Ġ130": 19966, "Ġ1973": 33530, "Ġparad": 13480, "Ġpreventing": 19965, "Ġtexted": 42553, "identally": 36578, "Ġwelcome": 2928, "On": 11747, "ĠHaving": 10222, "ĠHasan": 46513, "Ġregime": 13120, "ÏĮÏĥ": 41292, "Ġlibraries": 15148, "ĠTalk": 8780, "ancing": 8779, "Ġradius": 15845, "Ġaggreg": 16743, "Ġinstr": 5488, "Ġnecesita": 45485, "nik": 13123, "uana": 20070, "!": 0, "ĠWill": 3099, "Ġfragment": 26424, "Ġkeeping": 5145, "<|as|>": 50350, "Ġprotagonist": 24506, "<|20.40|>": 51384, "Ġoffenders": 49079, "Ġìŀ¬": 20804, "ĠYes": 1079, "ä¾ĨåĪ°": 44321, "Ġmentoring": 30257, "Ġdramatic": 12023, "glass": 28851, "Ġtransfer": 5003, "Ġsuppl": 9386, "ĠÑĪÐ¸ÑĢ": 44583, "zej": 16920, "ĠShap": 44160, "ĠMorgan": 16724, "Ġblunt": 32246, "Ġhappiness": 8324, "Ġ×ľ×ŀ×": 31383, "ĠCompare": 48523, "Ġtrapped": 14994, "ĠCraig": 19732, "Ġpse": 25505, "Ġcheating": 18309, "Ġsitu": 2054, "Ġappropri": 5745, "<|0.12|>": 50370, "olla": 27160, "Ġnetwork": 3209, "porte": 44614, "Ġbarg": 22351, "ëł¹": 33055, "Ġjail": 10511, "ĠMoving": 14242, "ĠItalia": 41355, "Evet": 43482, "Ġwholesale": 43982, "Ġrappers": 45025, "Ã©cole": 42415, "Ġcoronavirus": 13043, "iec": 35733, "legen": 22936, "ĠGoku": 29138, "Ġgrim": 36010, "ĠStack": 37649, "ĠwiÄĻks": 29968, "ĠìŀĪë": 23549, "Ġpreach": 21552, "Ġbandwidth": 23647, "Ġláº¡i": 23017, "Ġparlament": 46024, "Ġheav": 3577, "eman": 15023, "Ġearthly": 46262, "Ġexperiencing": 11139, "ĠRoman": 8566, "net": 7129, "Ġeager": 18259, "cause": 523, "ÑĥÐºÐ°": 38394, "Ġvacuum": 14224, "Ġvendor": 24321, "Ã©k": 44879, "ĠJung": 12739, "Ġgjorde": 47670, "ĠbÄĻd": 8218, "Ġhigh": 1090, "ball": 3129, "Ġcontinued": 7014, "æł¹": 31337, "Ġì¤": 4855, "Ġwhite": 2418, "Ãłs": 32620, "Ġoccupy": 30645, "Ġvale": 15474, "<|29.68|>": 51848, "Ġ-[": 14635, "Ġparse": 48377, "<|21.60|>": 51444, "Ġemployee": 10738, "<|5.80|>": 50654, "ł¨": 26627, "Ġyogurt": 20997, "å¤§": 3582, "ĠWik": 23377, "ĠKlar": 44893, "Ġgesch": 13511, "Ġcriticized": 28011, "ogram": 12820, "Ġimmin": 40728, "inal": 2071, "ong": 556, "Ġvoid": 22009, "Ġlayouts": 46100, "Ġpantalla": 44449, "ĠMonroe": 43900, "}": 92, "Ġtreaties": 48552, "Ġbooty": 34793, "Ġgaan": 14118, "ĠTut": 18392, "olit": 33704, "Ġtahun": 34656, "Ġlevel": 1496, "Ġsozusagen": 33762, "Ġquote": 6513, "sc": 4417, "ĠsantÃ©": 30068, "ĠSerge": 18885, "Ġhospitality": 31207, "Ġreportedly": 23989, "ĸ´": 25982, "wl": 39192, "ĠhÃ¤": 24054, "ĠÅŀ": 7918, "Ġassuming": 11926, "Ġrigor": 42191, "ĠÑĤÑĢÐµÑĤÑĮ": 45305, "ussen": 29202, "ĠZeus": 35003, "agen": 4698, "Ġinclu": 25520, "Ġpresente": 28709, "ĠVe": 9706, "Ġchallenge": 3430, "ĠÑģÐ¾Ð·": 14729, "ĠÃ©normÃ©ment": 41595, "AM": 2865, "ĠRamadan": 39848, "FF": 6345, "<|12.60|>": 50994, "Ġdement": 29950, "manas": 36226, "Ġ+": 4667, "Ġindeed": 6451, "ĠChall": 14398, "Ġtrig": 35386, "eff": 30774, "okee": 49319, "Ġlumin": 32476, "Ġafraid": 4638, "Ġ69": 28267, "ĠÐĽ": 7853, "CHEERING": 41294, "~~": 5990, "ĠBox": 15112, "Ġinfantry": 30887, "arkan": 45173, "HO": 22585, "Ġunfolding": 44586, "ĠMinne": 37829, "Ġdesign": 1715, "Ġabdomen": 36494, "<|25.42|>": 51635, "ãĥ«": 9405, "è¦ĭãģ¦": 33363, "Ġfert": 10700, "æī¾": 25085, "ĠVive": 44288, "Ġceiling": 13655, "ĠDad": 5639, "Ġmodeled": 37140, "<|12.90|>": 51009, "ĠCreative": 26598, "Ġ-...": 41975, "ÑĢÐ°Ñģ": 17184, "è¿ĺæľī": 35091, "<|4.90|>": 50609, "Ġassignments": 22546, "ĠLif": 31946, "ĠNorth": 4067, "Ġdicho": 27346, "af": 2792, "atched": 24102, "Ġclips": 13117, "ĠProduct": 22005, "sque": 44516, "Ġcoloured": 42042, "è©": 6716, "æĪĳè§īå¾Ĺ": 45681, "Ġexchange": 7742, "Ġswirl": 30310, "ars": 685, "Ġ6": 1386, "Ġê°Ģì§Ģ": 26569, "Ġpunto": 14326, "Ġacadem": 19267, "ĠUm": 3301, "eri": 16310, "Ġcontrad": 15858, "<|23.54|>": 51541, "ĠdiferenÃ§a": 38336, "Ġrecap": 20928, "Ġfishy": 41991, "ĠStewart": 25951, "Ġechoes": 47051, "Ġê±°ìķ¼": 15928, "Ġwiped": 26879, "Ġregulation": 15062, "Ġpizza": 8298, "<|30.00|>": 51864, "Ġpresup": 47640, "ĠRim": 44034, "ĠÑĢÐ°Ñģ": 7459, "ç§ĳ": 42091, "alled": 8907, "Ð°ÑİÑĤ": 6406, "rust": 22326, "<|sw|>": 50318, "Ġnhiá»ģu": 28272, "iye": 30306, "urf": 21844, "ä¸ĬéĿ¢": 49750, "Ġswe": 2484, "Ġbist": 18209, "åĥķ": 28546, "Åį": 27243, "Ġacron": 31713, "afar": 47030, "ĠWohnung": 50087, "Ġfullest": 45154, "Ġë³´ìĹ¬ë": 33820, "Ġemphasis": 16271, "ä»¥åıĬ": 40282, "Ġaltern": 5400, "Ġspells": 25053, "Ð°ÐºÐ¾Ð²": 34119, "Ã®tre": 25011, "ENS": 30174, "ĠMoss": 39591, "Ġgl": 1563, "ĠSans": 21504, "Ġtickets": 12628, "Ġevolves": 43737, "adan": 11338, "´ë": 1327, "singing": 21568, "iene": 10174, "Ġvenge": 38008, "ÏĢÎ¿Ïħ": 49434, "Ġfruits": 12148, "Ġprecipitation": 37662, "ĠSR": 20840, "<|6.08|>": 50668, "ÐµÑĩÐµÐ½Ð¸Ðµ": 44274, "Ġdegree": 4314, "Ġëª¨ëĵł": 27714, "ĠBarnes": 43903, "ĠÑģÐ¾ÑħÑĢÐ°Ð½": 41571, "Ġmanic": 48139, "Ġderen": 48300, "Æ¡": 9621, "ross": 1887, "Ġtidy": 34646, "frei": 42072, "Ġbees": 17511, "Ġsogen": 36479, "Ah": 10844, "gae": 45534, "Ġbrighten": 49007, "ĠLS": 36657, "Ġtoward": 7361, "Laughter": 11064, "bar": 5356, "Ġmoist": 8641, "rid": 8558, "Ġacad": 5558, "anks": 14592, "Ġsmartphones": 26782, "ĠStaff": 16440, "acements": 41140, "Ġniece": 39991, "Ġinjustice": 24750, "Por": 24907, "Ġthor": 11588, "esters": 38561, "oru": 32963, "Ġcaring": 15365, "Ġdisks": 41617, "Ġlaunches": 31841, "Ġamong": 3654, "Ġyht": 48342, "Ġreturning": 12678, "ĠCommercial": 47171, "Ġoriginally": 7993, "ĠIoT": 30112, "doing": 42013, "Ġedited": 23016, "É": 133, "Ãºs": 10227, "appy": 27425, "rate": 4404, "ĠButter": 22646, "<|1.36|>": 50432, "Ä±k": 4157, "wd": 43778, "clamation": 41411, "<|7.32|>": 50730, "AKI": 23225, "abled": 8909, "ĠìĤ¼": 32391, "ãĤ´": 39780, "Ġperhaps": 4317, "Ġsizes": 11602, "AUL": 22624, "ĠMarco": 26535, "Ġconfused": 9019, "Ġimmigration": 13554, "Ġcrispy": 17509, "ton": 1756, "zens": 16515, "Ġmaze": 33032, "300": 12566, "Ġudah": 25231, "íķ´ìļĶ": 15788, "Ġcompetent": 29998, "Ġnotch": 26109, "Ġcompliant": 36248, "Ġavail": 2327, "ĠAi": 16993, "sta": 9140, "Ġsomewhere": 4079, "Ġutility": 14877, "<|0.06|>": 50367, "Ġblockchain": 17176, "Ġappreciated": 17169, "Ġexpenses": 15506, "ĠBu": 4078, "ĠHÃ¤r": 35539, "moil": 43683, "Ġfeatured": 13822, "adÄ±m": 33324, "Ġdiction": 22352, "Ġenvironmental": 8303, "Ġvolcanoes": 48221, "Ġwonder": 2441, "ff": 602, "à°": 19135, "ĠTwist": 47016, "Ġvantage": 46206, "ĠheiÃŁ": 39124, "Ġwhooshing": 44825, "Ġox": 5976, "Ä±yorlar": 35974, "<|9.86|>": 50857, "Ġinsane": 10838, "<|23.28|>": 51528, "Ġaparecer": 43336, "ãģªãĤĵãģĭ": 27646, "Ġfutures": 26071, "gn": 4568, "Ĩĵ": 28500, "iÃ§Ãµes": 38038, "Ġintentionally": 22062, "ĠÐ¿Ð¾Ð´Ð°ÑĢ": 43564, "Ġdeux": 8208, "ĠìĪ¨": 33354, "Ġfence": 15422, "ĠGothic": 47143, "Ġheart": 1917, "Ð¸Ð²Ð°ÐµÐ¼": 33395, "Ġpositioned": 24889, "<|19.44|>": 51336, "NA": 5321, "orer": 17618, "mas": 3799, "ĠEine": 17664, "ĠCur": 7907, "ĠFamil": 15672, "Ġchopped": 16497, "Ġì±ħ": 33623, "pez": 15144, "Ġreversible": 44788, "edu": 22938, "Ġpirate": 27424, "ĠRW": 42513, "Ġkat": 16536, "ĠÑģÐ¾Ñħ": 38696, "Ġwildlife": 19199, "Ġpreached": 40001, "Ġinnovate": 33444, "é¡ŀ": 40092, "ãģ¯ãģ¯": 25935, "ĠSet": 8928, "ĠAuf": 9462, "ĠÑĤÐ¾Ð»": 36038, "ĠÏĦÎ·ÏĤ": 22409, "éĤ£": 4184, "ĠElse": 45472, "cussions": 38899, "Ġpapel": 24710, "ĠHispanic": 29559, "Ġscrut": 28949, "Ð¿Ð¸Ñģ": 19730, "à¸£à¸°": 47376, "enh": 39123, "ÑĥÑģÐºÐ°": 33101, "rict": 3740, "ĠÐĴÐµÐ´ÑĮ": 42612, "ĠÐµ": 1997, "ĠSponge": 43742, "Ġaggressive": 10762, "Ġtoil": 9499, "Ġsouthern": 13456, "Ġsuccessfully": 10727, "Ġdiscussing": 10850, "Ġmujeres": 31683, "Ġkann": 4028, "Ġê²ĮìŀĦ": 23927, "itures": 41869, "Ġelect": 2185, "âĢĶâĢĶ": 35702, "Ġoptimizing": 40425, "Ġconscious": 6648, "ĠSaint": 12902, "Ġstret": 27678, "ĠLibya": 36452, "hope": 47485, "ĠÃ©norm": 27982, "Ġlitigation": 33359, "ìĬ·": 35346, "Ġsept": 23891, "Ġscream": 7291, "ĠfaÃ§o": 38091, "Ġpand": 4565, "atore": 43148, "rop": 1513, "ratic": 25198, "Ġê°ĻìĿ´": 16358, "ĠCock": 39410, "Ġtokens": 22667, "åķıé¡Į": 17197, "°ĸìĹĲ": 46902, "ĠJie": 41731, "å¸«": 16276, "cimento": 28317, "Ġincredible": 4651, "Ġvitam": 23617, "<|18.86|>": 51307, "Ġoct": 13350, "Ġst": 342, "ä½Ĩæĺ¯": 11189, "veda": 45716, "Ġconcise": 44882, "Ġbike": 5656, "Ġaspir": 20003, "zers": 41698, "Ġslightest": 41040, "cha": 4413, "Ġconflicts": 19807, "Ġpersones": 46232, "arta": 19061, "presented": 36589, "<|17.24|>": 51226, "ĠÎ±ÏĢÏĮ": 19821, "Ġbrackets": 26179, "Ġspies": 45858, "Ġejerc": 39151, "Ġsociology": 41744, "Ġsell": 3607, "Ġd": 274, "Ġimagination": 12938, "Ġneo": 41977, "Ġnak": 20332, "ëĮĢ": 14173, "Ġpara": 1690, "ĠCNN": 24859, "ĠsÃ¶yled": 35909, "Ġanticipated": 23267, "opez": 34560, "ìķĦ": 2230, "Ġsubsequent": 19962, "ÑĳÐ½": 22212, "Ġimagen": 40652, "æİ°": 29336, "ç´°": 41588, "160": 44158, "ĠÐºÑĢÑĥ": 26970, "Ġ//": 29178, "ifically": 4278, "Char": 25291, "ÐµÐ²": 3515, "Ġtel": 15284, "Ġcock": 11241, "Ġ@": 10428, "<|11.40|>": 50934, "Chr": 11644, "Ķ": 242, "Ġcareers": 16409, "Ġdebut": 13828, "Ġsitter": 47335, "Ġessentially": 4476, "ĠSort": 26149, "Ġespecialmente": 41546, "ed": 292, "elsh": 26248, "Ġspicy": 9127, "Ġhott": 30749, "Ġ104": 47757, "ĠDX": 48817, "Ġmoss": 36193, "Ġenable": 9528, "Ġarmas": 44611, "Ġthickness": 14855, "hrlich": 34188, "xton": 44798, "Ġprompts": 41095, "ÑĢÑı": 22533, "ĠGard": 12882, "é»ĳ": 32141, "ĠEs": 2313, "Ġblocks": 8474, "ĠmikÃ¤": 48482, "ĠgroÃŁen": 23076, "went": 34798, "beiten": 16779, "ĠKwang": 46561, "Ġë¶Ī": 16285, "Ġeconomy": 5010, "legt": 22745, "ÐµÑĢ": 1135, "ŀĳ": 9143, "Ġmusicians": 16916, "Ġawarded": 19100, "<|14.34|>": 51081, "IAM": 30202, "Ġì§ľ": 35609, "Ġmassive": 5994, "Ġhistoric": 13236, "Ġearthquakes": 34048, "Ġeines": 18599, "Ġbunun": 31697, "Ġinsgesamt": 41438, "ĠdÃº": 39299, "Ġì°¨ë": 24537, "<|25.88|>": 51658, "ä¸įå¯¹": 41639, "Ġeste": 4065, "ĠrÃ¤tt": 38494, "Ġremembrance": 48083, "Ġ<<": 47425, "ĠÐ²Ð»Ð¸": 45689, "åľ": 2523, "Ġbeginnen": 40326, "Ġuk": 26769, "ĠOuais": 25475, "Ġposted": 9437, "<|11.38|>": 50933, "Ġfirm": 6174, "Ġprevents": 22367, "prof": 29175, "ĠGarcia": 33738, "Ġthicken": 33821, "Ġdiscover": 4411, "Ġpersonagem": 49502, "bane": 28116, "Ġobjetivo": 29809, "End": 36952, "ĠÐ·Ð°ÐºÐ¾Ð½Ñĩ": 39641, "<|20.36|>": 51382, "<|18.00|>": 51264, "<|15.54|>": 51141, "Ġaccommodation": 27363, "íĥ": 6867, "Ġbore": 26002, "ĠÙĪÙĦ": 35525, "Ġmeetings": 8410, "ĠCities": 36672, "Ġresign": 27471, "Ġë°°": 14155, "Ġãģ¯": 20785, "Ġflatter": 41247, "Ġcharm": 18904, "cipl": 19246, "ĠEins": 22790, "dist": 42649, "Ġbastard": 23569, "ĠHarry": 9378, "Ġspheres": 41225, "Ġut": 2839, "ãĤ·ãĥ«ãĤ¯": 31238, "zyst": 36049, "Ġrocking": 30929, "Ġburada": 19167, "âģ": 43516, "Ġintuitive": 21769, "q": 80, "gal": 9800, "ĠFlowers": 48194, "ĠScorp": 38814, "ĠTrail": 30080, "zeÅĦ": 49689, "Ġcerc": 36099, "Ġpushing": 7380, "Ġgotta": 3428, "Ġfilters": 15995, "Ġ×Ķ×ł": 35743, "Ġfino": 42560, "rench": 4442, "ĠÑģÑĤÑĢ": 18425, "áº¥n": 43975, "Ġchart": 6927, "Ġliver": 15019, "Ġex": 454, "Ġexperimenting": 29070, "Ġtuned": 10870, "ìĽĲìĿ´": 43262, "Ġweaker": 24286, "Ġphotography": 13865, "ÑĥÐµÑĤÑģÑı": 37479, "Ġalma": 32634, "Ġvolunt": 17911, "Ġaumentar": 43504, "ÐµÐºÑģÑĤ": 34879, "ĠìĿ´ìķ¼ê¸°ë¥¼": 48974, "Ġì¢ĭìķĦìļĶ": 22482, "Ġsquid": 28015, "Ġcalend": 37022, "ĠUniverse": 18307, "Ġmening": 46890, "Ġvibration": 20006, "Ġking": 4867, "ocy": 31078, "Ġceremonies": 36176, "ĠCOMM": 36041, "Ġexecute": 14483, "ĠÐ±Ð¾Ð¹": 41029, "Ġskies": 25861, "Ġpassions": 30640, "Ġfilt": 29148, "Ġmicrof": 42763, "Ġghost": 8359, "Ġgenerating": 17746, "ĠÐ¡Ð¾": 40156, "Ð¼Ð¾ÑĤÑĢÐ¸": 44443, "ĠVerse": 31640, "cza": 41524, "Ġoctopus": 27962, "Ã¶d": 29747, "Ġmoments": 6065, "lord": 22839, "ĠMaxwell": 39594, "ĠÐ¿ÐµÑĢÐµÐ¶": 46450, "Ã¼cht": 36458, "bringen": 39455, "Ġcertainly": 3297, "ÑıÐ²": 12998, "Ġfitness": 15303, "ĠRash": 46298, "Ġhoje": 13458, "é»¨": 33175, "Ġnewspapers": 20781, "Ġano": 19816, "Ġsitio": 40621, "ĠBull": 14131, "Ġparticles": 10007, "ows": 1509, "Ð°ÑĢÐ¸": 16370, "Ġtrailer": 11724, "jeong": 45942, "etchup": 26399, "eds": 5147, "<|3.98|>": 50563, "Ġairflow": 45291, "ĠMr": 2221, "ĠBRI": 27466, "ĠØ£ÙĪ": 34051, "useum": 5816, "ĠÑıÐºÑĸ": 35110, "Ġestud": 13542, "ES": 2358, "oman": 4277, "éĺ": 10034, "onie": 32242, "ĠÑģÐ°Ð¼Ð¾Ð¹": 49560, "Ġconvicted": 26942, "ox": 5230, "iÅŁ": 9496, "ĠPrior": 24032, "Ġcaramel": 22793, "ĠTitans": 45574, "ĠÐ¿Ð¾Ð¹Ð´": 41207, "Ġpartisan": 37721, "Ġcoach": 6560, "ĠÐŁÐ¾ÐºÐ°": 38401, "Ġrapidly": 12910, "Ġval": 1323, "anner": 9805, "ĠWAR": 48331, "Ġprem": 5624, "Ð»ÑıÑĤÑĮ": 38955, "åĸĿ": 26784, "<|26.22|>": 51675, "Ġcharitable": 44609, "Ġoily": 27693, "Ġscheint": 47906, "ĠÐºÐ»Ð¸": 33504, "Ġchicks": 42214, "pielt": 43929, "Ġbeige": 40274, "<|25.86|>": 51657, "łë¥¼": 39988, "bli": 32117, "Ġdegradation": 40519, "Ġshakes": 37891, "Ġë³¸": 19387, "Ġìĵ°": 17373, "Ġconsultant": 24676, "Ġcomputer": 3820, "Ġcheesecake": 41348, "ìķ½": 19970, "Ġmasa": 29216, "Ġlethal": 34562, "Ġmund": 23175, "Ġunter": 8662, "Ġcartoon": 18569, "Ar": 10683, "Ġsistem": 45758, "ë¥": 33106, "ĠÑĢÐµÑĪ": 14025, "ĠLima": 50217, "ĠEating": 29234, "Sorry": 29761, "avana": 29867, "Ġtempted": 29941, "ĠÃ¶l": 31854, "ĠdiffÃ©rent": 19384, "Miss": 47205, "Ġaccounts": 9402, "Ġhus": 4788, "Ġvagy": 32970, "heit": 8480, "Ġsweets": 28680, "90": 7771, "ëĭ¤": 1235, "lene": 21323, "Ġbreaks": 9857, "Ġ2013": 9012, "Ġveloc": 7806, "Ġafin": 34709, "<|23.78|>": 51553, "Ġdistrict": 6566, "ĠUnterstÃ¼tzung": 47216, "ĠfrÃ¥": 13237, "à¸Ħ": 8163, "ĠÐ¿ÑĢÐµÑģÑĤÑĥÐ¿": 48991, "ĠTeen": 33297, "Ġsuffer": 9753, "Ġhighly": 5405, "ĠUE": 42260, "Ġcitiz": 5655, "Ġchegar": 25512, "Ġpid": 44540, "Ġstellt": 38582, "groaning": 46723, "Ġcontributors": 45627, "Ġfiery": 43897, "Ġaz": 7883, "attering": 14849, "ĠFew": 33468, "Ġwoll": 8181, "ÏħÏĦ": 15009, "ĠÐ¼Ð¸ÑĢÐ°": 41454, "rael": 5416, "ĠAK": 24789, "Applause": 14650, "auer": 18120, "Ñį": 7570, "Ġfrequ": 4459, "á»ĵi": 15695, "ĠEu": 2186, "ĠWei": 21174, "<|5.14|>": 50621, "Ġstages": 10232, "Ġjugar": 37692, "Ġintimate": 20215, "ĠREAL": 48619, "Ġfrustrating": 16522, "ĠEmploy": 26878, "ĠWheels": 49372, "Ġreplacing": 19139, "Ġarb": 25613, "IRE": 30263, "tÄ±": 28163, "Ġinverted": 38969, "KEN": 40136, "Ġ32": 8858, "Å¾e": 29913, "Ġ...\"": 39463, "Ġapprent": 21435, "jay": 46451, "Ġradio": 6477, "ÑģÑĤÑĮ": 3167, "ĠPAT": 31485, "Ġlet": 718, "Ġlicense": 10476, "Ġtraged": 16019, "Ġnein": 40041, "Ġcontrolling": 14905, "Ġconnot": 46371, "Ġreactive": 28897, "Ġvectors": 18875, "Ġgere": 18635, "<|21.66|>": 51447, "Ġinstitutions": 8142, "<|13.32|>": 51030, "<|9.38|>": 50833, "ĠPRES": 30247, "Unis": 39489, "emaal": 28368, "Ġgarn": 25067, "ĠEsp": 24978, "Ġglacier": 48021, "ĠÐ´ÐµÐ²": 20572, "Ġdevil": 13297, "Ġdog": 3000, "ĠAdapt": 49643, "ĠMartine": 37195, "ĠLinks": 37156, "Ġpropag": 12425, "imet": 26123, "Ġglimp": 25727, "ĠSerbia": 39461, "Ð°ÑĢÐ¸Ñī": 43028, "mass": 47386, "Kap": 35372, "ĠGab": 11995, "ilateral": 37751, "ĠServices": 12124, "Query": 35550, "Ġweak": 5336, "owned": 14683, "ĠOw": 12773, "zed": 11312, "Ġperformed": 10332, "ĠCapt": 9480, "Ġdries": 33997, "Ġkoy": 22674, "Ġriots": 43802, "ĠGad": 37171, "Ġglaze": 39390, "ĠHoo": 26796, "Ġdisability": 11090, "Ġagile": 30072, "eton": 26342, "<|15.02|>": 51115, "Ġsteroids": 45717, "ĠSamsung": 13173, "ĠDel": 5831, "Å¼ej": 38493, "ç¤º": 25696, "uate": 10107, "Al": 9171, "Ġhosted": 19204, "ĠShelby": 37517, "ĠMarx": 21703, "Ġhelicop": 16061, "ìĬ¤íĬ¸": 29271, "Ġê³³": 25177, "ĠSchl": 16420, "ĠÑĢÐ°ÑģÑģ": 23345, "Ġnatur": 26389, "Ġ911": 26901, "Ġendured": 39017, "ountain": 22838, "<|0.68|>": 50398, "Ġpenis": 28282, "ĠolduÄŁ": 15049, "ĠPremier": 25194, "ĠÃºltimos": 33013, "ë³´ëĭ¤": 28804, "ĠOst": 34140, "inis": 25555, "Ġbour": 32373, "ĠCanadians": 30053, "ĠBachelor": 23193, "èµ": 5266, "Ġpossibly": 6264, "Ð¾": 354, "³¼ê²ĮìļĶ": 30060, "Ġstating": 26688, "^": 61, "ĠDanke": 26508, "ĠVil": 35653, "irable": 21493, "Ġinstantaneous": 45596, "ĠPicas": 48198, "ħ¸": 37524, "Ġsmokes": 49592, "Ĩĵê³ł": 47441, "ĠÎĵÎ¹Î±": 48575, "Ġnacional": 29836, "×ľ": 3072, "110": 43435, "Ġumbre": 20158, "code": 22332, "resh": 3644, "Ġsquirrel": 28565, "ĠRhodes": 45973, "Ġê·¸ëŁ¬": 14019, "<|25.54|>": 51641, "è½ī": 32739, "Ġshimmer": 35088, "ãģĤãģ®": 24910, "ĠCash": 27016, "Ġschw": 17932, "ĠDelhi": 26680, "osta": 8638, "ĠAI": 7318, "Ġede": 25959, "ĠHi": 2421, "Ġcui": 22929, "Ġcrucified": 46846, "ĠÐºÐ°Ð¿": 31507, "<|7.94|>": 50761, "Ġgives": 2709, "Ġinfo": 13614, "ĠÐ¾Ð´Ð½Ð¾Ð¹": 29281, "Ġthousand": 4714, "Ġmound": 49034, "ãĥ³": 4824, "ĠÐ²Ð¸Ðº": 49233, "Ġrepaired": 36551, "ĠThinking": 24460, "ç®Ĺ": 19497, "Ġtaps": 42536, "Ġhou": 36621, "Ġminimalist": 50192, "mil": 28674, "Ġdiarr": 37565, "ãĥ¤": 34969, "æ´²": 48706, "Ġcapacit": 38961, "ĠRÃ©publique": 46646, "Ġpromoted": 21162, "Ġegal": 31528, "ĠoczywiÅĽcie": 23862, "Ġê°Ļ": 4385, "Ġzeigt": 29250, "Ġforever": 5680, "Ġstaircase": 35359, "ĠUkrainian": 24682, "Ġhighlighted": 17173, "Ġclan": 25887, "ding": 3584, "ĠAnglo": 49570, "Ġbegins": 7338, "ĠMicha": 31698, "Ð²Ð¾Ð´": 17533, "Ġlover": 18009, "jek": 27023, "Ġdecorated": 28422, "ĠMitchell": 27582, "Ġovernight": 13935, "Ġconcerning": 18087, "Call": 46113, "Ġsubmarine": 33995, "Ġ550": 42514, "plo": 21132, "if": 351, "Ġacord": 38077, "Ġbuses": 20519, "Ġhousekeeping": 48033, "ĠJustin": 11320, "ĠRac": 42033, "Ġdisco": 3622, "ĠÃĸ": 9158, "Ġlisteners": 23274, "Ġsalary": 15360, "ĠÙħØ³": 47524, "ĠKranken": 39950, "Ġfaster": 4663, "ĠÑĢ": 1475, "Ġbillion": 5218, "sa": 5790, "Ġsnapshot": 30163, "Ġstressful": 19108, "Ġroles": 9604, "ĠÐµÑīÑĳ": 13993, "Ġtiers": 40563, "Ġlavor": 29241, "ĠLead": 31025, "Ġbottoms": 43413, "ĠSchritt": 33062, "Ġzor": 22304, "ĠÐ¼Ð½Ð¾Ð³Ð¾": 13347, "ĠWednesday": 10579, "ìħĶ": 19072, "Ġrhythmic": 46967, "ĠLuo": 35155, "ĠTagen": 41721, "zne": 43077, "Ġê°Ĳ": 10892, "ãģĦãģį": 39886, "ĠHunter": 18704, "irit": 2911, "Ġhorizontal": 12750, "Ġintimidating": 29714, "ÑıÐ»": 16065, "ĠÑģÑĨÐµÐ½": 40436, "ĠMagazine": 27618, "Ġpressured": 45306, "Ġslow": 2964, "scene": 47798, "Ġdelivered": 10144, "ĠSca": 47082, "Ġìļ°ë¦¬ë": 36118, "Ġimply": 33616, "Ġintriguing": 32503, "000": 1360, "thirds": 38507, "ises": 3598, "ÅĤum": 49166, "ĠBuffalo": 33855, "chieden": 40433, "Ġrefere": 33048, "ĠÐ³ÑĢ": 11726, "ĠØ°": 29910, "ĠInteresting": 14711, "ardo": 12850, "ĠÐ¼Ñĸ": 23895, "ĠVac": 44442, "Ġgla": 8771, "Ġinadequate": 42107, "Ġsamurai": 48144, "ĠRegional": 30341, "ĠFortunately": 20652, "Ġê°ĳ": 23108, "Ġnostro": 35779, "Ġdeepen": 45806, "Ġbild": 22105, "íŀĪ": 5905, "achi": 21791, "ramatic": 13949, "ĠÙ¾": 21453, "Ð¸ÑģÑĮ": 10363, "Ġnote": 3637, "Ġafar": 41795, "cie": 4260, "Ġincidents": 21139, "Ã©ral": 20596, "uft": 25005, "Ġcollaborate": 18338, "Take": 25891, "Ġmemorized": 46677, "ĠMEM": 40524, "ĠJub": 43560, "Ġpicture": 3036, "Ġpopular": 3743, "<|22.34|>": 51481, "Ġbrushes": 23260, "ĠdrauÃŁen": 44602, "Ġintegr": 3572, "Ġlinkage": 49118, "Ġmaintenance": 11258, "ishes": 16423, "<|13.98|>": 51063, "Ġeher": 24332, "ĠKiss": 24297, "ĠFen": 30993, "è£¡": 11066, "poon": 11282, "Ġhallway": 23903, "uly": 3540, "Ġtod": 4352, "ĠÐ¿Ð¾ÑįÑĤÐ¾Ð¼Ñĥ": 19698, "Ġpurposes": 9932, "ĠOprah": 43804, "Ġê·¸ëŀĺ": 7080, "ĠEstamos": 34563, "ÐĹÐ«": 24582, "vis": 4938, "ĠKan": 11120, "Ġoverall": 4787, "ĠÐ¿Ð¾ÐºÐ°": 17770, "ĠRidge": 32313, "ĠØ§ÙĦÙĬ": 45595, "ĠClo": 31901, "Ġhairstyle": 32770, "Ġlike": 411, "Ġaside": 7359, "ĠJohannes": 48455, "ĠJump": 18697, "ĠDivine": 26098, "ãĥĲãĤ¤": 42282, "èĲ½": 30848, "ĠwÅĤaÅĽci": 40112, "<|20.24|>": 51376, "Ġraised": 6005, "å¥³": 17015, "§Ģ": 11061, "!..": 44311, "Ġpardon": 22440, "Ġordinary": 10547, "Ġsubjective": 25972, "à¸ī": 45987, "ĠìŀĪì£ł": 34070, "Ġíĥľ": 28808, "Ġunos": 17780, "ĠÃ¶nemli": 35154, "Ġmouths": 33171, "avour": 6817, "Ġaquela": 25996, "Ġfauc": 49567, "Ġìº": 25230, "Ð°Ðº": 1272, "ĠGeld": 16535, "ĠVincent": 28003, "imeter": 9685, "ÑĥÑģÐ¾Ð²": 48346, "ienda": 30498, "ĠMIKE": 25208, "Ġdie": 978, "Ġguideline": 41653, "ĠìĹ¬ëŁ¬ë¶Ħ": 14707, "Ġoutfit": 11263, "ards": 2287, "íĺĢ": 23683, "Ġdiet": 6339, "ĠKaiser": 42066, "ATHAN": 49779, "ĠYep": 7010, "fol": 7082, "nty": 21772, "Ġzost": 31873, "program": 32726, "emia": 14058, "Ġentropy": 30867, "Ġtong": 9124, "à¹ĥ": 15412, "Ġswitched": 16858, "Ġexported": 42055, "Ġprocure": 26846, "ĠGem": 22894, "Ġtys": 38156, "ĠtÃ¤": 14619, "Ġdai": 38586, "Ġfries": 20733, "ĠÑģÐ¾Ð»": 36059, "Ġfet": 15136, "<|17.70|>": 51249, "kom": 20557, "Ġillustrations": 34540, "Ġìĭ¤": 19300, "Ġembed": 12240, "<|6.96|>": 50712, "isha": 16546, "ĠDear": 14383, "ĠÐºÐ°ÑĩÐµ": 28595, "91": 29925, "acker": 23599, "ĠAS": 7469, "ĠAha": 27448, "Ġcrochet": 9387, "Ġcheers": 15301, "Ġshipment": 49991, "Ġthank": 1309, "Ġpoetic": 41080, "Ġbe": 312, "Ġaccommodations": 38907, "ĠSven": 49787, "<|tt|>": 50351, "Ġfactories": 24813, "ĠÙģÙĬ": 8978, "ĠFamily": 11661, "ĠJR": 32849, "Ġquer": 7083, "ĠOrig": 13895, "Ass": 20892, "ĠsiinÃ¤": 41464, "CA": 15515, "Ġpirates": 33859, "Ġhappy": 2055, "Ġdessa": 18554, "ĠTeles": 48595, "ines": 1652, "Ġfeared": 30629, "ĠWILL": 18194, "ĠLaunch": 28119, "owo": 19941, "iss": 891, "ĠXia": 11956, "ashi": 15612, "Ġentsprech": 29967, "worker": 49402, "<|27.24|>": 51726, "Ġalright": 5845, "Ġspecialist": 17008, "hold": 4104, "Ġpicks": 16137, "Ġfounders": 25608, "<|fi|>": 50277, "CE": 4969, "ĠÃ¶ÄŁ": 24411, "ometimes": 45890, "in": 259, "Ġ1968": 29930, "×ł×Ķ": 34849, "Ġë¨¹ëĬĶ": 30616, "Ġpoking": 42684, "ĠCathy": 39799, "hm": 8587, "Ġtender": 15036, "Ġstat": 2219, "Ġreload": 25628, "Ġcorresponding": 11760, "ĠÐ²ÑģÐµ": 4640, "Ø®Ø±": 34740, "Ġwondered": 17055, "Ġunbedingt": 41211, "Ġwhack": 42877, "Ġactu": 34964, "ĠwÃ¤r": 45779, "Ġaffects": 11807, "ĠXavier": 44653, "ãĥ¼ãĤ¸": 44143, "Ġuniqu": 20763, "Ġmientras": 26010, "Ġideas": 3487, "ĠPPE": 38589, "Ġappreciation": 18909, "Ġprofessionally": 27941, "Ġgue": 13987, "aje": 11153, "Ġtutaj": 12749, "Ãºn": 9453, "Ġpocz": 26423, "zep": 46342, "Ġstrand": 14955, "ĠCole": 20394, "Ġnovelty": 44805, "ĠciÄĻ": 35484, "accept": 24870, "Ġupload": 6580, "ape": 41153, "Ġlabeled": 21335, "ĠÑģÑĢÐ°Ð·Ñĥ": 22014, "emic": 3438, "ä¸Ģé»ŀ": 19202, "Ġkilos": 30000, "ĠLen": 23009, "Ġbody": 1772, "ĠvÃ¥": 27748, "ĠATM": 46455, "Ġdiy": 34275, "łĪë": 29494, "ocused": 33176, "åħ": 2347, "Ġarbitr": 19071, "Ġvon": 2957, "Ġsembla": 49277, "Ġelimination": 29224, "Ġai": 9783, "ften": 14513, "åĲ": 2392, "rÃ©e": 37735, "ìłľ": 9767, "ĠFloren": 32637, "Ġthesis": 22288, "äºĨ": 2289, "ĠAndrew": 10110, "pered": 40004, "ĠCV": 22995, "Ġignoring": 26258, "Ġfourth": 6409, "Ġsparkling": 39967, "gments": 37148, "Ġnegro": 40008, "uku": 24164, "ĠÐ´ÐµÐ»Ð°ÑĤÑĮ": 19284, "ĠAlleg": 47486, "ĠÑĩÐµÑĢ": 12360, "Ġlesson": 6898, "Ġbueno": 11974, "Ġphysiological": 41234, "æ³¨æĦı": 40794, "ĠGeneral": 6996, "ĠÐ½Ð¸ÐºÐ°ÐºÐ¸Ñħ": 47357, "llo": 1913, "jm": 35195, "Ġunus": 10054, "reme": 5301, "ãĥĭ": 34737, "åĢĭäºº": 40104, "Ã¼n": 3412, "Ġfermentation": 43161, "Ġseats": 11069, "Ġdeemed": 27637, "it": 270, "ĠPorque": 11287, "Ġëħ¸": 29158, "Gen": 26647, "sw": 25884, "rica": 15192, "áŀ": 37756, "Ġappearances": 29174, "Ġviral": 16132, "Ġchopsticks": 39443, "ĠÐ¿Ð¾Ð»ÑĥÑĩÐ¸ÑĤÑģÑı": 49579, "ĠJourney": 37724, "Ġaccus": 11168, "ĠÐ¿ÑĢÐµÐ²": 34393, "ilant": 25824, "Ġrestless": 45451, "Ġnou": 23641, "Ġmuss": 6425, "ãĥĨ": 22985, "Ġtracker": 37516, "yson": 28194, "histoire": 29093, "ÙĥÙĪÙĨ": 30544, "92": 21821, "ĠmÃł": 13901, "Ġcreepy": 14717, "Ġcivil": 5605, "Ġcoefficients": 31994, "emb": 33748, "Ġfilthy": 40384, "à¸²à¸ĩ": 26134, "Ġinitially": 9105, "ĠHills": 25663, "vere": 5887, "Ġmeth": 23416, "ãģĦãģĨãģĵãģ¨": 39773, "Ġtenho": 14291, "ĠPois": 48274, "ĠÐ²Ð¸Ð´ÐµÐ»": 40718, "Ġlogistics": 27420, "Ġengine": 2848, "Ġchlorine": 39888, "Ġtoothbrush": 37568, "Ġmanifestation": 29550, "boxing": 45047, "Ġ{\\": 18128, "Ġprovoke": 47015, "ĠÐĴÐ¾ÑĤ": 9756, "Ġdiseases": 11044, "Ġkarma": 28396, "ĠAnnie": 26781, "?</": 27381, "Ġlinks": 6123, "nicas": 40672, "Ġê·ĢìĹ¬": 36083, "asse": 8604, "ĠSY": 32624, "âĶ": 48337, "Ġabuses": 47681, "ãģı": 6134, "Ġmale": 7133, "ĠGM": 16609, "Ġwors": 47567, ",.": 40698, "ĠHell": 12090, "brid": 11349, "abile": 33288, "Ġdejar": 24391, "ĠBelg": 19234, "ĠÐ½ÐµÐ±Ð¾Ð»ÑĮÑĪ": 32692, "ëĭ¤ê³ł": 7726, "Net": 31890, "ĠMain": 12383, "Ġdiffic": 2204, "Ġduo": 28127, "ĠJohns": 37016, "Ġê´ľì°®ìķĦ": 45058, "Ġhomeless": 12294, "zyka": 40940, "Ġwig": 24094, "aters": 16749, "ĠQuando": 18725, "Ġlump": 25551, "ĠenergÃŃa": 34315, "ĠÐĶÐ¶": 23792, "Ġ31": 10353, "Ġannoying": 11304, "anners": 25792, "ĠKardash": 37959, "ler": 1918, "cando": 29585, "etus": 40506, "alties": 26471, "WA": 21449, "Ġbehalf": 9490, "APP": 8749, "ĠMak": 16576, "ooky": 24091, "Ġintact": 23493, "ìłĢ": 11738, "Ġpresumably": 26742, "Ġinterject": 46787, "Ġlimit": 4948, "redit": 20046, "oll": 1833, "Ġelders": 22737, "<|7.38|>": 50733, "Ġparecer": 44885, "Ġeligible": 14728, "Ġupcoming": 11500, "Ġscanner": 30211, "ORTER": 39351, "Ġreacting": 25817, "etical": 27800, "ANE": 29348, "MS": 10288, "storm": 17367, "Ġhesitant": 36290, "Ġsilicon": 22848, "inst": 13911, "Ġcounts": 14893, "ĠCNC": 48714, "ĠÐ´Ð¾ÐºÑĥÐ¼": 43031, "etin": 38645, "Ġpayer": 38230, "ĠHoly": 6295, "Ġbaik": 34867, "Ġdominating": 43306, "Ellie": 42258, "Ġ(-": 49979, "Ġ2002": 17822, "ĠSport": 17549, "Ġimp": 704, "orest": 38620, "member": 38249, "pering": 20055, "Ġhorrend": 49520, "them": 47959, "Ġjurisdiction": 27285, "Ġdecentralized": 32870, "Ġcriterion": 46691, "ĠtambiÃ©n": 6407, "Ġrevolution": 8894, "verse": 4308, "SA": 8886, "ĠÐ¿ÑĢÑıÐ¼Ð¾": 28547, "ĠSong": 11862, "Ġsw": 1693, "Ġbisa": 14386, "Ã¦r": 32011, "ĠdÃ©part": 37745, "ĠCow": 21933, "Ġposture": 18502, "Ġunleash": 49814, "igg": 6249, "<|28.86|>": 51807, "ĠGre": 14986, "<|18.62|>": 51295, "Ġstoked": 49145, "Ġê°Ģìļ´ëį°": 44627, "Ġgeri": 41018, "ori": 7386, "Ġwichtiger": 48840, "Ġhall": 6500, "this": 11176, "usst": 26340, "ithm": 32674, "M": 44, "eee": 37954, "eremy": 13579, "Ġliberation": 27736, "Ġformul": 49990, "<|0.58|>": 50393, "<|8.92|>": 50810, "Ġne": 408, "ĠÐ²ÐµÑĢÑħ": 47758, "ĠEach": 6947, "ĠÐ¾Ð³ÑĢÐ¾Ð¼": 28107, "ĠLEDs": 33366, "Ġcommunication": 6101, "ĠPra": 12133, "Ġgelir": 44011, "ĠningÃºn": 30394, "Ġempire": 17506, "ĠÐ·ÑĢ": 27589, "Ġflip": 7929, "æİ°æİ°": 48166, "ĠProper": 27627, "Ġcomplexities": 48705, "Ġprinted": 13567, "çŁ": 5881, "ä¸¦": 35934, "Ġdever": 40739, "card": 22259, "wurf": 31515, "order": 4687, "Ġestuv": 49777, "Ġenhanced": 21191, "laimed": 22642, "ujourd": 32202, "ĠAgg": 41512, "ãģ¶": 23441, "<|17.92|>": 51260, "<|9.80|>": 50854, "ĠÐ´ÑĥÑħ": 35535, "ĠEld": 19705, "Ġhijos": 42590, "Ġproceedings": 37254, "å°Ī": 46072, "á»«a": 47279, "Ġeccentric": 42629, "pool": 17374, "Ġoccas": 15319, "Ġgreetings": 33667, "ìĭľê°Ħ": 31099, "outs": 7711, "Ġracial": 12131, "ĠKo": 10509, "Ġfixes": 32539, "Ġsondern": 11465, "Big": 32023, "Ġpolsk": 28757, "Ġchia": 45793, "Ġorchestral": 36244, "Ġpendulum": 44103, "æħ¢æħ¢": 41439, "Ġsowie": 35874, "ĠKollege": 28505, "Ġapparat": 36564, "ĠRomania": 36678, "Ġgeh": 13218, "Ġexterior": 20677, "ĠÑĢÐµÐ¶": 28418, "ĠMonday": 8138, "Ġnorms": 24357, "è¬Ľ": 11932, "ĠÑģÐ¸Ð»ÑĮ": 34158, "ĠnÃ©cess": 31956, "Ġfe": 579, "ãģĪ": 6474, "ħķ": 12831, "Ġdob": 27082, "Ġquit": 10366, "æ±º": 33540, "ç¶²": 26352, "<|15.42|>": 51135, "Ġsnipp": 35623, "igma": 16150, "<|2.62|>": 50495, "duino": 36262, "eniz": 40372, "Ġsauce": 4880, "Ġsupp": 1003, "Ġ×¨×§": 44918, "Ġaufge": 35031, "ĠMarie": 15130, "ey": 2030, "åį": 5322, "<|29.24|>": 51826, "ĠOMG": 23152, "ĠFehler": 48101, "ĠWeekly": 35945, "èĮ": 27395, "finden": 43270, "ĠPriest": 37052, "ĠÑģÐ°Ð¼": 5602, "gary": 36214, "gga": 33462, "ĠEnsuite": 37366, "ĠMessenger": 34226, "Ġseni": 21897, "ereye": 41333, "¼ë¡ľ": 33628, "Ġsellers": 31276, "rive": 8003, "ĠProgramm": 48244, "eez": 22544, "ĠLaughs": 33439, "èĨ": 39708, "æĭľ": 16714, "zam": 28915, "ĠÑħÐ¾ÑĩÐµÑĤÑģÑı": 48453, "ique": 1925, "ĠCob": 31395, "Ġjokes": 14439, "ĠRevel": 26211, "Ġmá»Ľi": 37328, "¶ĢíĦ°": 12130, "opes": 30545, "moi": 29292, "Ġerre": 28641, "Ġpolicing": 28799, "ĠRs": 21643, "ĠTul": 33585, "ĠÐµÑĳ": 18346, "essions": 9069, "Ġcour": 1005, "Ġtradition": 6994, "Ġoverlooked": 32269, "<|9.46|>": 50837, "ñ": 173, "Ġemoji": 31595, "Ġupgraded": 24133, "Ġfirewall": 36109, "cope": 13960, "Ġseparates": 34149, "Ġbiology": 14956, "§Ģë": 28719, "Ġespecially": 2318, "Ġinj": 5580, "Ë": 135, "Bro": 43295, "ĠINTERVIEWER": 49667, "Ġmushroom": 12094, "çĹħ": 30986, "Ġamusement": 39970, "Ġnatuur": 24414, "Ġbrethren": 47854, "Ġroutinely": 40443, "ãģł": 5362, "Ã¡": 842, "ieri": 45980, "Ġdead": 3116, "main": 49417, "Ġframe": 3920, "ĠCit": 18435, "Ġswitch": 3679, "ppers": 15226, "æħ¢": 20645, "cieÅ¼": 40082, "ank": 657, "aret": 11298, "Ã¼p": 42693, "atha": 29441, "Ġsides": 4881, "Ġdesigns": 11347, "far": 21196, "<|26.00|>": 51664, "Ġpredecessor": 34991, "ĠNept": 45560, "éı": 46241, "ĠPione": 48844, "ĠCAR": 15939, "Ġdefined": 7642, "heric": 23920, "ID": 2777, "ault": 5107, "venidos": 40668, "owment": 47966, "ĠÐ·Ð°Ð»": 32897, "Ġê´Ģëł¨": 42660, "Ġserving": 8148, "ÑģÑĥÐ´Ð°ÑĢ": 42384, "ĠØ§ÙĦØŃ": 21542, "ãĤĮãģ¦": 26638, "ĠHAR": 19819, "eenth": 46066, "Ġsurpr": 3083, "th": 392, "ĠìłĢëĬĶ": 10551, "Ġculturally": 28879, "ĠMARISHA": 12265, "AME": 31296, "elling": 11073, "Ġpipes": 21882, "Ġempower": 11071, "hew": 17418, "Ġintervals": 26651, "ĠEA": 35747, "ĠNicki": 47608, "intend": 24226, "ĠMarcus": 26574, "ĠSQL": 19200, "Ġaggress": 8939, "ĠtroisiÃ¨me": 47582, "ĠÐºÐ¾Ð½ÑĨÐµ": 38769, "ÑĥÐ¼": 5525, "Ð¾ÑĪ": 6824, "×£": 38261, "icial": 14730, "Ġnaj": 11212, "ĠDÃ¼": 41835, "igo": 7483, "Ġcoaching": 15818, "inson": 14321, "vana": 39259, "ĠGot": 5803, "Ġverdade": 15203, "IAN": 33794, "ĠIgor": 40356, "ĠÙĪØª": 34683, "Ġpud": 14166, "Ã¼ssel": 37838, "ĠÐ±Ð¾Ð»ÑĮÑĪ": 12457, "those": 49833, "olar": 15276, "Ġharmony": 19410, "Ġhappened": 2011, "ĠLiberal": 36020, "Ġstrong": 2068, "atch": 852, "<|ur|>": 50290, "ĠNeptune": 49527, "ĠKY": 41150, "Ġsoybean": 44227, "Ġtransformations": 34852, "Looking": 47711, "ĠÐ¿ÑĢÐ¾ÑĦ": 33011, "nies": 40549, "ĠLaden": 45555, "ĠSchw": 17576, "Ġgeometric": 33246, "ĠÐĴÑģÐµ": 18029, "MY": 25859, "Ġhaciendo": 20509, "Ġfail": 3061, "Ġtherm": 8810, "ĠÐ¿Ð¾Ð»Ð¾Ð²": 39884, ",,": 20387, "Ġoutline": 16387, "ĠViking": 40375, "Ġdepende": 47091, "ìľ¼ë¡ľ": 4130, "Ġwins": 10641, "inek": 48421, "Ġotra": 13623, "Ġfa": 2050, "Ġcycles": 17796, "ĠZoo": 34589, "Care": 41394, "Ã¢l": 40106, "Ġrealise": 18809, "£ł": 24037, "Ġdim": 5013, "ĠXu": 23082, "ÑĤÑĮÑģÑı": 14706, "Ġaxis": 10298, "waÅĤ": 44603, "Ġë³´ìĭ": 23531, "ĠHahah": 42656, "ĠZheng": 31408, "ĠÐ´": 1070, "ĠSole": 48073, "body": 1067, "nn": 26384, "ĠDesert": 33340, "Ġgap": 7417, "ĠkÃ¼Ã§Ã¼k": 45704, "Ġkill": 1961, "ĠXL": 37210, "ĠÐŀÐº": 48984, "umen": 16988, "åĽłä¸º": 34627, "Ġski": 14274, "ĠìĥĿê²¼": 49810, "bon": 4351, "pp": 427, "atsÃ¤chlich": 19579, "Ġignore": 11200, "ubl": 32144, "ĠdÃ¼rfen": 29493, "Ġgrape": 23978, "ĠPark": 4964, "ipher": 21240, "Ġborrowing": 35024, "Ġoral": 19338, "Ġconsciously": 32538, "Ã¨res": 13927, "mit": 3508, "ĠDouglas": 23010, "Ġdoll": 2722, "Ġgranny": 44797, "æľ": 1474, "ĠfranÃ§a": 43660, "Ġproper": 2296, "Ġcounsel": 10351, "Ġsaddle": 30459, "Ġlayers": 7914, "ĠSimply": 19596, "Ã¤che": 32664, "ĠOthers": 20277, "10": 3279, "ĠdziaÅĤa": 37903, "Ä±lmÄ±ÅŁ": 48871, "ĠCube": 33003, "ĠAns": 14590, "Ġmatter": 1871, "ĠannÃ©e": 30488, "Ġwt": 23105, "Ġbags": 10405, "<|0.88|>": 50408, "Ġëı¼ìļĶ": 21565, "Ġdanger": 4330, "genommen": 29270, "Ġfale": 26772, "ĠpeÅĤ": 43205, "<|10.42|>": 50885, "<|27.72|>": 51750, "Ġsolve": 5039, "Ġlogs": 20820, "ĠÛĮÛģ": 35324, "IGHT": 21926, "ĠLicht": 32917, "Ġsentences": 16579, "Ġsorted": 25462, "ahlt": 44950, "ĠBCE": 49369, "ĠÑĤÑĢÐµÐ±": 31525, "èĺ": 31882, "Ġautomatic": 12509, "Ġpredators": 29194, "<|11.72|>": 50950, "ĠMoÅ¼e": 43774, "ĠAbdullah": 45625, "Ġslab": 38616, "yw": 27112, "ĠacompaÃ±": 43142, "Ġcateg": 4847, "ĠmatiÃ¨re": 46600, "Ġìĸ´ëĸ»ê²Į": 12952, "Ġcomments": 3053, "ĠNico": 15115, "ĠZus": 18742, "Ġkinds": 3685, "veer": 49143, "ĠÐ´Ð½Ñı": 36115, "hythm": 34494, "roid": 6490, "uration": 8167, "Ġremake": 28582, "Ġì²ĺìĿĮ": 18736, "ä¸įéĮ¯": 30967, "ÑģÑĤÑĢ": 5530, "Ġsuivre": 43404, "REE": 44542, "Ġalmond": 29506, "áº§u": 23582, "Ġheps": 38341, "Ġconect": 30458, "à¯ĭ": 18169, "leton": 14806, "ĠKaz": 16264, "ĠNazi": 23592, "osters": 40427, "ĠFau": 48820, "ĠMarÃŃa": 48472, "ĠCDC": 17133, "Ġcheated": 28079, "ropri": 5072, "gesetz": 33506, "ienza": 42331, "Ã¼nd": 9541, "Ġmembership": 16560, "ĠUnter": 12065, "Allah": 26022, "Ġchoosing": 10875, "Ġbung": 50045, "ĠThursday": 10383, "ÑĭÐ²Ð°ÐµÑĤ": 29277, "aland": 12789, "opher": 16754, "nov": 4185, "Ġhooked": 20410, "Ġglor": 26623, "Ġdescendants": 31693, "Ġmethyl": 48441, "Ġdiarrhea": 41282, "itas": 14182, "ĠIncredible": 35261, "zech": 19439, "ilit": 34050, "Ġcomport": 25883, "Ġsc": 795, "Ġversus": 5717, "Ġmarriage": 7194, "ÅĤoÅĽÄĩ": 44742, "ĠBÃ¼": 37186, "idity": 17711, "ĠPortland": 25020, "ĠFirma": 50206, "aÄŁÄ±": 42247, "ĠLucky": 26639, "ĠRapha": 49690, "×ķ×ĳ": 16097, "Ð½Ðµ": 4677, "ĠBrus": 32894, "74": 34026, "ĠNGO": 31456, "ĠolmasÄ±": 47528, "Ġrecipients": 32440, "Ġjump": 3012, "Ġflank": 36318, "åıªæľī": 35244, "ĠÐ±ÑĢÐ¾Ñģ": 47718, "ĠFamilien": 36451, "Ġtemporal": 30881, "Ġhover": 20076, "Ġbehaviors": 15501, "Ġnaked": 15791, "ĠEgyptian": 24257, "Ġbaptized": 34006, "<|13.30|>": 51029, "ĠSometimes": 4803, "Ġparcel": 34082, "ryn": 32532, "ĠÏĦÎ¹": 25962, "Ġsweep": 22169, "Ġë¬¼ë¡ł": 41251, "Ġgute": 21476, "<|11.12|>": 50920, "ĠrÃ©g": 17563, "Ġcocoa": 30634, "Ġowned": 11684, "ĠWhitney": 39466, "Ġpreparedness": 48445, "Ġthá»ĥ": 24491, "<|1.04|>": 50416, "ĠAst": 12884, "Ġcriteria": 11101, "ĠÐ²Ð°Ð¶": 19491, "ĠTibetan": 44963, "ĠGrey": 24854, "ĠHeraus": 36795, "Ġëĵ": 10758, "ĠSes": 29827, "Î": 138, "Ġrebuild": 16877, "ĠGoog": 45005, "Ġduration": 16365, "month": 23534, "isode": 14172, "ĠìĿ´ê±°ë¥¼": 46208, "Ġattitudes": 25853, "Ġplaythrough": 48752, "Ġpower": 1347, "Ġpayment": 10224, "è¯ī": 43570, "Ð°Ð½Ð¸Ð¸": 16426, "TS": 7327, "ĠÍ": 28451, "Ġkonkret": 36500, "ìĿĮ": 5654, "Ġworthless": 34857, "ÑģÐºÐ¸": 47399, "ĠíķĻ": 24504, "Ġcaptures": 27986, "ĠCycl": 49173, "Ġaja": 26579, "Ġclub": 6482, "-": 12, "ĠspÃ¤ter": 24196, "Ġsetup": 8657, "Ġmas": 2300, "Ġintimidated": 40234, "Ġtransferring": 31437, "Ġeyeliner": 30788, "Ġwiel": 20570, "Ġglobally": 18958, "ĠEis": 43174, "Ġë°ĶëĢ": 43841, "Ġmaybe": 1310, "rip": 8400, "ĠíĽĦë": 23104, "Ġton": 2952, "Ġë°ľë": 20414, "Ġsmarter": 20294, "Ġpalate": 48247, "<|18.64|>": 51296, "Ġapron": 46742, "ĠEyes": 28925, "Ġaconteceu": 34028, "ĠMagic": 16154, "Ġswelling": 33127, "Ġnotices": 32978, "Ġgang": 10145, "ĠConstruction": 40017, "Ġapprox": 28080, "atile": 17445, "Ġvisibility": 19883, "Ġsticky": 14470, "Ġìŀ¥": 12280, "Ġarter": 30455, "ĠGast": 31988, "Ġinvolvement": 17447, "á»ĩc": 36566, "ĠMICH": 41276, "ĠYoung": 8160, "Ġenables": 17077, "generation": 30372, "ĠFEMA": 31519, "û": 183, "<|13.66|>": 51047, "ë¡ľ": 12888, "Ġplural": 25377, "Ġëĭ¬": 21166, "Ġcomplic": 16060, "bla": 36138, "Ġrepresenta": 49823, "ych": 16384, "ĠPopular": 37637, "ĠAboriginal": 36577, "Ġblanc": 34437, "Ġpopularity": 19301, "ĠÐ²Ð¾Ð·": 8918, "ĠÐ¿Ð¾ÑħÐ¾Ð¶": 38862, "Ġcommitments": 26230, "ixÃŃ": 33226, "host": 6037, "Ġjeans": 18880, "ĠChristie": 46111, "Ġmaison": 28511, "Ġcá»§a": 11990, "aroo": 47937, "ãģ¾ãģĤ": 32763, "Ġclubs": 15428, "selling": 30427, "Ġrough": 5903, "ĠPA": 17718, "ĠCanada": 6309, "rÃŃ": 40577, "ĠModi": 47621, "...]": 13161, "iren": 18833, "Ġgen": 1049, "Ġstaan": 38055, "Ġcaval": 32805, "Ġìļ°ë¦¬ê°Ģ": 22408, "Ġpetites": 34063, "Ġreferred": 10839, "ĠcÃ¡ch": 45762, "Ġquelque": 14448, "Ġdepart": 9110, "ĠVoiceover": 46117, "ĠWR": 44175, "Ġauf": 2501, "come": 1102, "Ġconsist": 4603, "ĠMeat": 30502, "ĠElmo": 38722, "ĠAhmed": 39189, "È": 132, "Ġdetained": 41452, "ĠLuiza": 45208, "ĠAustrian": 41507, "committee": 47235, "ĠÐ½": 757, "ĠCostco": 43453, "Ġblinking": 45879, "ĠGran": 23554, "ĠSECRET": 47627, "ĠRobin": 16533, "ction": 882, "Ġsyntax": 28431, "Ġìĭ¸": 33949, "Ġcode": 3089, "ĠbÃ¼tÃ¼n": 27977, "Ġoutdoors": 20980, "'.": 5004, "Ġcitizens": 7180, "ĠAlg": 35014, "Ġasymm": 37277, "ÄŁl": 14142, "Ġì¢ĭìķĦíķĺ": 40344, "vard": 11303, "<|14.74|>": 51101, "zen": 2904, "Ġvarying": 22984, "Ġëĸ¡": 45197, "Ġsorgen": 47972, "ĠQing": 20089, "ters": 1559, "Ġvibrating": 47748, "<|1.74|>": 50451, "dollar": 40485, ">": 29, "Ġfools": 38625, "Ġëĸł": 43687, "Ġammonia": 46833, "Ġtrout": 43978, "ende": 5445, "ÑģÑĤÑĥÐ¿": 14474, "Ġmembrane": 19651, "=#": 49872, "ĠRic": 21215, "ĠErm": 45794, "Ġafore": 48927, "ÄĽ": 9648, "strong": 28063, "ĠÎ±Îº": 40822, "ism": 1434, "cribed": 18732, "Ġaccuse": 43610, "Japanese": 48354, "Ġraces": 15484, "Ġmarriages": 39760, "æĭī": 29717, "unde": 13271, "ĠÐ¼ÐµÑģÑĤ": 16470, "ĠÑĢÑĥÐ±": 27371, "riment": 30591, "sych": 4202, "Ġdates": 11691, "Ġunnecessary": 19350, "Ġposting": 15978, "Ġhearts": 8852, "Ġswollen": 37559, "Ġdiversion": 49422, "Ġcomigo": 35696, "ĠRece": 41962, "Ġê³łë¯¼": 41936, "ĠLegal": 33577, "Ġpoorer": 49740, "Åºniej": 33405, "<|5.94|>": 50661, "edom": 5086, "Ġ-->": 14350, "Ġrealms": 42824, "mel": 10909, "ĠpÃºblic": 15392, "Ġbubb": 13045, "ĠÐ¿Ð¾Ñģ": 5810, "Ġstimuli": 47752, "Ġpractices": 7525, "ĠUT": 35514, "ĠÅ¼e": 3561, "andra": 18401, "Ĳë": 2998, "ĠBunny": 38803, "Ġgreeted": 38441, "Ġsido": 14444, "ĠLatinos": 48413, "<|27.30|>": 51729, "icios": 26817, "ĠGest": 39909, "Ġcontinuer": 35660, "iscern": 42074, "Ġasks": 8962, "ĠPolitik": 29847, "Ġexplosives": 46421, "Ġcircumstances": 9121, "ĠCam": 6886, "Ġconsuming": 19867, "ĠÑīÐ¾Ð±": 42899, "<|3.66|>": 50547, "ĠÐ´ÑĥÐ¶Ðµ": 39919, "ĠgrÃ¡fic": 34613, "Ġpulp": 37489, "æ¥Ń": 27119, "Ġwherein": 43531, "uranÃ§a": 44214, "ÑĸÑı": 34299, "Ġjuegos": 43411, "eye": 25488, "ĠAch": 15847, "Ġtrousers": 41463, "Ġinjuries": 14799, "Ġmotivating": 41066, "oine": 44454, "ÑĤÑı": 35151, "Ġë¸Įë": 21886, "ĠÃĩa": 11527, "ä¸ĥ": 29920, "ensch": 26590, "ĠÑĢÐ¾Ðº": 31833, "Ġelephants": 33015, "uelle": 23635, "Ġlashes": 25552, "Ġgrupp": 47477, "Ġhiá»ĩn": 48079, "Ġrounding": 48237, "Ġzeros": 35193, "Ġmesela": 45814, "Ġtrabajar": 30793, "prochen": 23902, "ĠEmer": 18477, "Ġinstagram": 22102, "Ġadvising": 35598, "Ġeyebrow": 35875, "ĠUn": 1156, "Ġsync": 20271, "ankind": 40588, "ĠLloyd": 31401, "<|22.82|>": 51505, "Ġquiser": 28753, "æ¼": 14065, "Ġ1947": 40417, "ĠÐ¸ÑģÐ¿Ð¾Ð»ÑĮÐ·": 15552, "Ġì£¼ë": 16410, "Ġpunched": 37842, "Ġsafeguard": 40153, "che": 1876, "Ġhelm": 29554, "Ġmutual": 16917, "Ġperse": 20607, "irt": 2498, "Ġcomforting": 38439, "ĠÐĲÐ»ÐµÐºÑģ": 32228, "ĠÑģÑĤÐ¾ÑĢ": 16632, "Ġsunset": 20142, "ÅĤug": 34077, "ochond": 40172, "Ġarrib": 21620, "avat": 39559, "Ġdeterm": 3618, "zie": 3283, "Ġcontracted": 37629, "ĠFigure": 43225, "ase": 651, "ê°Ģ": 1453, "Ġinflamm": 16782, "ĠSehr": 32028, "Ġcliffs": 50039, "Ġyards": 18685, "<|4.58|>": 50593, "Ġprogramme": 14001, "ĠnÃ£o": 2431, "Ġunscrew": 42579, "Ġnossos": 35378, "OME": 23344, "ĠÐµÐ´": 20686, "Ġnaught": 13138, "utta": 27145, "ĠDenmark": 28065, "Ġotro": 11921, "Ð½ÐµÐ³Ð¾": 33727, "ĠÐºÐ¾ÑĤÐ¾ÑĢÑĥÑİ": 32355, "Ġfallait": 49170, "ĠdÃ³lares": 32596, "Ġscroll": 11369, "ĠMikey": 42344, "Ġtones": 19995, "ÏģÎ¿": 11904, "OSE": 40097, "ĠDale": 31329, "Form": 49855, "dullah": 42324, "Ġrealised": 21337, "ĠFeh": 35576, "avic": 41053, "ĠPenguin": 49562, "ĠvÃ¤hÃ¤n": 42702, "Ð°Ð½Ð¾": 19545, "atte": 30466, "Ġgou": 21301, "Ġpersonally": 5665, "ĠLondon": 7042, "Ġrainfall": 29382, "Ġattended": 15990, "Ġunderm": 24188, "core": 12352, "ĠTruck": 44600, "Ġcheg": 22115, "Ġexit": 11043, "Ġsprayed": 40330, "<|4.80|>": 50604, "<|21.02|>": 51415, "ĠPhiladelphia": 21205, "ÑĪÐ¸Ðµ": 35202, "uuuu": 43779, "á»ĵ": 11057, "ĠAren": 15464, "~!": 11394, "ĠIPO": 50220, "ĠThough": 10404, "Ġcous": 12304, "Ġcores": 24826, "<|27.62|>": 51745, "Ġtelev": 49492, "Ġvaluable": 8263, "ĠNok": 37400, "<|17.50|>": 51239, "Ġrat": 5937, "Ġaspect": 4171, "arespace": 45337, "Ġvalue": 2158, "Ġcrowded": 21634, "69": 30908, "ĠBened": 39753, "ĠÑĤÐ¾ÑĢ": 25594, "Ġassoci": 4180, "ĠEngine": 7659, "ĠBere": 17684, "ĠNapoleon": 31694, "ĠGree": 7229, "Ġisolate": 25660, "ĠÑģÐ²Ð¾Ðµ": 42666, "<|13.12|>": 51020, "ules": 3473, "<|tk|>": 50341, "ÑĪÐµÐµ": 46384, "INAUDIBLE": 5444, "cript": 5944, "Ġnieu": 26829, "ĠngÃły": 34481, "Ġzeit": 49367, "Ġextraordinarily": 34557, "Ġpainted": 11797, "ĠsiÃ¨": 31302, "Ġey": 9817, "zÄħd": 23876, "dated": 32164, "Ġvalidated": 40693, "Ġattic": 40766, "ĠCul": 49037, "ĠOscar": 20718, "Ġimmediately": 4258, "ĠnÃŃvel": 41747, "ĠÐ½Ð°Ð¿Ð¸Ñģ": 30442, "ãģ¾ãģĹãĤĩãģĨ": 26513, "ĠBowser": 46102, "Ġspanning": 47626, "owiÄħ": 47886, "Ġeine": 3018, "ĠÃ©l": 11810, "...'": 42327, "univers": 41421, "erecht": 48561, "great": 40753, "Ġpreparing": 10075, "Ġbeh": 1540, "ĠÎ£": 26408, "ĠpuÃ²": 26526, "è±": 19517, "ob": 996, "Ġinfluen": 9024, "uciones": 46649, "ĠTrading": 49929, "ĠRocky": 26916, "Ġmankind": 21220, "Ġturkey": 21551, "ĠmÃ¼ssen": 9013, "bread": 31051, "Pre": 42844, "ĠmÃªmes": 42588, "Ġdum": 16784, "ĠÐ¾Ð¿Ð¸ÑģÐ°Ð½Ð¸Ð¸": 48303, "ĠìĹĨìĿ´": 33353, "Ġintegers": 41674, "ÐµÑĩ": 4310, "fry": 35299, "ĠEduc": 9517, "Ġrum": 8347, "Ġbien": 3610, "sÃ¥": 19773, "ĠJac": 9538, "ensored": 50173, "Ġtiring": 35182, "zych": 28051, "Ġunwanted": 33745, "Ġbiting": 32912, "ĠAnn": 8860, "Ġnicely": 9594, "ÑģÐº": 4218, "Ġalguna": 20651, "Ġstreak": 35634, "á»ĭ": 11708, "ĠÐ¿Ð¾Ð³": 17724, "ĠHidden": 41156, "Ġdiscard": 31597, "Ġantic": 49172, "ÑģÑĤÐ²Ð¸Ðµ": 38185, "Ġsiebie": 39137, "âĺĨ": 41985, "Ġbadass": 33907, "orno": 21998, "Ġland": 2117, "Ġkrij": 27027, "ements": 6400, "otros": 11792, "Ġernst": 43412, "oshima": 47989, "<|11.64|>": 50946, "Ġaba": 46981, "Ġpero": 4768, "Ġdestro": 15311, "Ġacet": 37848, "ĠNorman": 30475, "Ð°Ð½ÑĤ": 15073, "ĠÑĤÐ¾Ð¹": 38509, "ĠJEN": 50245, "ĠTexas": 7885, "Ġpeine": 46655, "Ġmusical": 9165, "ation": 399, "ĠÐ¿": 713, "Ġbegg": 44914, "ĠKommentare": 46203, "Ġpong": 36164, "ĠDiscovery": 34129, "ÄĻdzy": 33779, "Ooh": 44648, "Ġstations": 13390, "êµ¬ìļĶ": 23111, "Ġdrip": 29376, "Ġexporting": 44686, "ĠparlÃ©": 38570, "inned": 45508, "ples": 2622, "Ġmango": 23481, "ISE": 19413, "cock": 29779, "ĠJim": 6637, "ÙĪØ¨": 37746, "Ġteles": 18273, "Ġuntil": 1826, "Î¸Î·": 40939, "Ġlou": 15185, "avi": 18442, "ê°Ħ": 5989, "oit": 27845, "Ġpesos": 33204, "ĠØ§ÙĦÙĦ": 13672, "airy": 47413, "Ġbona": 49012, "Ġsesi": 13315, "ination": 2486, "ĠStraÃŁen": 48925, "ĠComing": 12473, "Rah": 42077, "Ġadjour": 46236, "×ķ×Ŀ": 17333, "ĠHoover": 46382, "æ¬¡": 9487, "Ġcompartil": 40204, "This": 5723, "Ġconsort": 38343, "ĠGuill": 48149, "æĪĳä¹Ł": 27761, "ĠConan": 47691, "Ġfeminine": 24648, "Ġclosure": 24653, "Ġnyt": 21508, "Ġvs": 12041, "ÅĤos": 48584, "<|8.70|>": 50799, "Ġpark": 3884, "à¸ĸ": 28955, "Ġtoxic": 12786, "Ġap": 1882, "Ġler": 32068, "Ġquests": 34247, "ĠGÃ¼": 38139, "ĠPaÅĦstwo": 42239, "Ġmolar": 45712, "Ġseventeen": 39532, "<|gl|>": 50319, "æ¨Ļ": 46299, "ãģĹãĤĩãģĨ": 17609, "onde": 7259, "íĶĦë": 42334, "Ġdealing": 6260, "ĠRapt": 38115, "Ġunf": 3971, "Ġsynthesis": 30252, "Ġstack": 8630, "Ġtacos": 34776, "Ġalg": 3501, "Ġrevive": 36292, "Ġbam": 18132, "<|hu|>": 50286, "Ð¾Ð»ÑĮÐºÐ¾": 5737, "Ġconduct": 6018, "bers": 1616, "Ġharness": 19700, "Ġìłķë§Ĳ": 12793, "Ġbonuses": 33205, "Ġ2021": 7201, "ĠPhew": 46679, "Ġshorts": 19848, "¯¼ë": 41267, "Ġvaluation": 38546, "Ġbunker": 39579, "ounded": 37706, "ĠLy": 12687, "Ġeyeballs": 43758, "Ġpartis": 44634, "<|11.82|>": 50955, "quarter": 43363, "Ġstell": 30787, "ÑĪÑĤ": 43428, "Ġimages": 5267, "Ġquan": 19068, "ìĭľëĭ¤": 33582, "pop": 13872, "Ġstacked": 28867, "Ġratt": 27081, "Ġtive": 39242, "ieli": 23099, "itched": 41328, "Ġchuckles": 29151, "elson": 20471, "luent": 43518, "Ġnoticing": 21814, "ĠÐĲ": 3450, "eling": 11031, "Ġgems": 29296, "Ġê±°ê¸°": 25191, "Ġconstituents": 30847, "Ă": 190, "Ã¤nde": 26973, "ÐĿÐĲ": 23413, "Ġjournalism": 23191, "Ð¼ÐµÑĤ": 23218, "ĠFrancisco": 12279, "ĠVolvo": 43381, "Ġyoutuber": 37901, "Ġfilmmaker": 34700, "ĠNik": 13969, "Ġch": 417, "Ġpsychological": 14346, "jor": 2337, "rol": 6623, "Ġhtt": 22881, "ĠEpic": 26785, "ĠKristin": 42189, "å¿Ļ": 48839, "ĠÐ±Ð¾Ðº": 45156, "ĠiÅŁte": 19804, "Ġbulky": 42986, "ioni": 15273, "Ġwillingly": 44675, "ĠEdin": 39697, "ĠÑĢÐ°ÑģÐ¿": 26588, "Ġexpectancy": 42574, "Ġcenters": 10898, "Ġenrich": 18849, "NI": 42496, "Ġman": 587, "quele": 17012, "Ġcaptiv": 40769, "Ġveulent": 41826, "Ġbodies": 7510, "ĠItalians": 43620, "vous": 16514, "store": 21624, "lords": 37370, "Ġtemp": 18274, "Ġê·": 1510, "Ġindustries": 13284, "Ġrealt": 41133, "aras": 35867, "Ġsway": 27555, "Ġbasics": 14688, "ĠSor": 21421, "Ġwhipping": 45476, "icas": 9150, "ĠPod": 12646, "Ġsake": 9717, "Ġtipos": 37105, "ðŁĺĤ": 47951, "ĠWarsz": 48479, "dit": 17975, "Ġmuerte": 38497, "Ġëĳ": 8108, "Ġinduced": 33991, "<|15.40|>": 51134, "ĠÑı": 2552, "Ġhail": 38157, "Ġqualify": 20276, "Ġinspires": 32566, "lide": 31264, "Ġplays": 5749, "Ġrequire": 3651, "Ġflashlight": 30835, "Ġcáº§n": 47580, "Ġmaximum": 6674, "atically": 5030, "Ġej": 10012, "car": 6166, "Ġlav": 20923, "Ð»Ð¸Ñĩ": 15362, "Ġinteracts": 43582, "ĠÑħÐ¾ÑĩÑĥ": 22168, "bird": 18080, "ĠPe": 2396, "Ð°Ð½Ð°": 15253, "Ġpovo": 46388, "ÑĸÐ½": 17113, "ĠÐ°": 2559, "Ġguar": 7498, "mission": 29797, "ĠForest": 18124, "Ġ\"...": 21642, "ro": 340, "ĠBRA": 30777, "roots": 35729, "Ġcapsule": 29247, "ode": 1429, "Ġforensic": 39084, "Ġtriggering": 40406, "Ġuncles": 47662, "ĠÐ´ÐµÐ»Ð°ÑİÑĤ": 48732, "ĠPrivate": 30386, "ĠFolks": 39275, "ĠÑħÐ°ÑĢ": 38795, "ĠÃ¶ffentlich": 34603, "Ġì¡°": 7430, "isto": 9334, "Ġbiraz": 19696, "Ġportable": 21800, "Ġani": 40477, "<|5.04|>": 50616, "è·": 6563, "obs": 16537, "Ġstitch": 5635, "ĠÐ¡ÑĤ": 17483, "Ġshepherd": 40317, "Ġplayful": 30730, "ĠTag": 11204, "<|20.12|>": 51370, "ART": 15118, "reci": 3326, "ĠMilliarden": 44784, "Ġevitar": 31326, "ĠTools": 30302, "Ġíķĺë©´ìĦľ": 37466, "Ġmogelijk": 46617, "ãĥ¡": 21647, "ĠCEO": 9282, "Ġbuckets": 32191, "å®Į": 14128, "ĠÑĨÐµÐ½ÑĤÑĢ": 46536, "arla": 34148, "Ġframeworks": 29834, "Ġnap": 9296, "ĠNR": 38399, "Ġgeld": 25114, "based": 6032, "§Īë": 44636, "Ġrealizar": 36461, "ĠMol": 28278, "ppt": 42562, "ĠlÃ©g": 27122, "ĻĢ": 37404, ")": 8, "Ð½Ð¾ÑģÑĤÑĮ": 9930, "ãĤĤ": 4801, "Jan": 46356, "Ġacknowledge": 10692, "ìĥģìĿ´": 46754, "Ġbringing": 5062, "anbul": 35335, "ĠByz": 41014, "Ġchildish": 42203, "ĠId": 11506, "Ġdetal": 33185, "Ġnecessary": 4818, "anship": 27140, "ĠíĻķìĭ¤íŀĪ": 50149, "ĠGar": 7995, "ĠProgram": 8338, "Ġbases": 17949, "Ġry": 20791, "Ġalbeit": 43654, "'!": 30159, "ĠChildren": 13354, "Ġsquash": 30725, "Ġrepresenting": 13460, "<|28.30|>": 51779, "ĠCre": 9549, "ffee": 4617, "ĠHarriet": 46437, "Ġquelle": 29237, "Ġmanufacturers": 18455, "hguru": 37014, "Ġë§Ĳ": 7058, "Ġdemanded": 28276, "They": 8829, "ĠRF": 26204, "Ġê±": 4925, "Ġbathing": 38948, "Ġphen": 7279, "ktion": 9780, "Ġer": 1189, "Ġincreases": 8637, "ARK": 36402, "ĠÑĥ": 1595, "Ġhesit": 28336, "Ġbrauch": 45522, "Ġprepares": 39418, "<|6.38|>": 50683, "Ġidea": 1558, "Ð§ÑĤÐ¾": 35569, "Ġbarrels": 33138, "Ġdisinfect": 33334, "Ġshirt": 8336, "Ġdistribution": 7316, "åĮħ": 23305, "Ġhaunting": 44512, "Ġregard": 3843, "ĠGL": 16225, "Ġnothin": 47562, "ĠGoodbye": 15528, "Ġlist": 1329, "Ġpaired": 25699, "Ġdesires": 18005, "Ġvelvet": 41905, "Ġoverweight": 40523, "dogs": 42008, "ê¸°ëıĦ": 19236, "iele": 15949, "ĠNeg": 19103, "Ġstip": 37001, "Ġplaster": 34467, "Ġtrails": 23024, "<|28.66|>": 51797, "oped": 27277, "umm": 40879, "Ġexiste": 16304, "iew": 1093, "Ġnoun": 23307, "Ġfactory": 9265, "ĠEig": 40561, "ĠProtestant": 38345, "Ġdeploying": 34198, "ĠÐ¸Ð´ÐµÑĤ": 40029, "Ñĸ": 1827, "Ġcaption": 31974, "×Ļ×¦": 37528, "ĠExcuse": 11359, "Ġ('": 50254, "Ġdishon": 37127, "fan": 20361, "<|15.30|>": 51129, "ĠMar": 2039, "confidence": 47273, "Ġgrote": 39928, "ĠWord": 8725, "Ġingredients": 6952, "ĠvÃ¥r": 26477, "Ġnossas": 44041, "Ð¾Ð±ÑĢÐ°Ð·": 38613, "Ġtransported": 29373, "Ġterce": 41385, "Ġpodemos": 12234, "Ġsecurely": 38348, "Ġaddicted": 24629, "Ġetmek": 46005, "Ġwy": 4628, "ĠÐ²Ð¾Ð·Ð¼": 18077, "ĠìĮ": 35792, "Ð¹": 1644, "Ġentertaining": 20402, "wash": 38558, "Okay": 8297, "ulin": 17701, "every": 21825, "Ġtranslation": 12853, "Ġcultures": 12951, "ĠDeb": 27347, "ĠSorry": 4919, "Ġmastering": 49382, "Ġions": 27362, "ĠCabinet": 31398, "Ġseparating": 29279, "Ġtasted": 25003, "ĠÙĩ": 8032, "Ġnarratives": 28016, "ĠWang": 14499, "ÑĥÑģÑĤ": 15028, "æĺ": 1431, "ĠPoke": 12645, "abling": 20112, "Ġredesign": 39853, "ÑĤÐ°Ðº": 13721, "vÃ¤r": 48631, "ermo": 46096, "Ð¾ÑĦ": 48645, "ug": 697, "ĠEternal": 44432, "Ġdescriptions": 24406, "ÐºÐ¾Ð¹": 11565, "Ġcomunque": 45736, "ä»¥": 3588, "ĠOf": 2720, "unction": 32627, "<|19.32|>": 51330, "Ġconsegu": 12706, "Ġintrigued": 35140, "ÙĬØ±": 13546, "ÑıÑĤÐ½Ð¾": 19005, "racy": 40932, "Ġgrandchildren": 28112, "ĠÈĺ": 38127, "ĠÅŁeh": 49755, "Ġinforms": 45320, "Ġblindfold": 44846, "Ġviktigt": 46150, "Ùı": 10859, "Ġrealizing": 16734, "reno": 48207, "ĠBatter": 33066, "Ġalred": 41290, "Ġenem": 7255, "Ġtelefon": 26812, "Ġbitten": 34608, "Ġric": 21040, "Ġakl": 43380, "Sw": 38373, "æĩī": 20481, "èªª": 4622, "vl": 42977, "ivering": 48940, "ĠShannon": 28974, "oi": 4869, "Ġspirit": 3797, "Ġaesthetics": 35517, "ìłľê°Ģ": 49149, "ĠBasket": 45360, "ĠmÃ©th": 45404, "ĠMobil": 47188, "ĠIn": 682, "Ġtimelines": 45886, "<|15.26|>": 51127, "Ġev": 1073, "Ġexperienced": 6751, "<|12.64|>": 50996, "make": 38705, "Ġply": 35318, "ĠÐ´Ð²Ð¸Ð³": 30618, "Ġjackets": 34612, "Ġforgiveness": 18396, "á»ĳng": 21092, "Ġiter": 17138, "ÑĤÐ¾": 860, "Ġpneumonia": 43097, "ĠÙĦÙĥÙĨ": 44381, "Ġinfluence": 6503, "ĠMotors": 40118, "Ġflow": 3095, "Ġisto": 35835, "ĠAnth": 12727, "esty": 7819, "<|8.50|>": 50789, "<|19.58|>": 51343, "Ġcafes": 48851, "Ġfears": 15649, "ĠJeg": 17119, "yss": 31059, "ppo": 27000, "ĠDanielle": 21182, "Ġforests": 21700, "Ġji": 32606, "Ġassisting": 40368, "Ġnormalmente": 38217, "<|13.04|>": 51016, "Ġsendiri": 39536, "ĠÏĢÎ¿": 39099, "Ġeternal": 14503, "Ġsemaines": 40715, "ĠìĿ´ê²ĥëıĦ": 42118, "Ġlegacy": 11711, "Ġpupil": 44533, "ĠIntel": 19762, "ĠÑĤÐ¾ÑĩÐºÐ¸": 47880, "Ġasynchron": 42642, "ĠHolding": 40818, "<|22.50|>": 51489, "prising": 26203, "ĠTool": 15934, "Ġhace": 10032, "Ġíĺ¼": 31523, "Ġfurther": 3052, "ritis": 24580, "pieces": 47488, "Ġmete": 21245, "ĠBuddha": 16375, "Ãłnh": 24449, "Ġdiagonal": 21539, "Ġexem": 9659, "Ġreflects": 18926, "Ġregener": 26358, "Ġquestionable": 37158, "group": 17377, "ographics": 29933, "çĴ": 40063, "ĠmontÃ³n": 45259, "Ġback": 646, "Ġspel": 46486, "ĠÐ³Ð¾Ð´": 9182, "muÅŁ": 30378, "Ġbeep": 28678, "Ġphon": 30754, "Ġinstructed": 36384, "ĠÐ½Ð°ÑĩÐ¸Ð½Ð°": 21995, "When": 11645, "mis": 45634, "ĠElli": 40612, "Ġairplane": 17130, "Ġclim": 5644, "ĠProvost": 45426, "Ġdrafting": 46378, "ĠÑĤÑĢÑĥÐ´": 36853, "ãģĪãģ£": 40919, "Please": 16216, "ĠAustria": 26501, "arch": 1178, "Ġmoyens": 47040, "Ġsavings": 13454, "ez": 4371, "Ġdivers": 6111, "Ġchunky": 45392, "Ġorganisms": 22110, "enf": 26939, "Ġlimitations": 15705, "ITE": 31540, "ĠatenÃ§Ã£o": 39044, "Ġperm": 4784, "ische": 7864, "ully": 2150, "ammen": 11248, "ometry": 34730, "ĠcomeÃ§ou": 37393, "Ġcuisine": 25257, "Ġshirts": 20832, "ĠÑĦÐ¸Ð»ÑĮÐ¼Ð°": 36293, "ĠÏĦ": 3596, "ade": 762, "ĠPanch": 48792, "ç¿»": 42716, "ĠÐ¿Ð¾Ð¿": 10694, "Ġvault": 27134, "æĲ": 22220, "oming": 10539, "ĺë": 1894, "ãģĦãģı": 49394, "à¹Ģà¸¥à¸¢": 38294, "Ġrez": 48060, "Ġessa": 7208, "Ġunnecess": 16799, "Ġepisod": 39200, "tÄ±r": 20637, "ĠÑģÐ¿Ð°ÑģÐ¸Ð±Ð¾": 37536, "ĠHoje": 34104, "<|0.86|>": 50407, "Ġê±´ë": 39626, "Ġbitte": 23231, "ĠjÄħ": 35692, "beans": 40488, "reet": 4751, "tem": 18275, "Ġcalves": 43755, "Ġê·¸ëŁ¬ë": 13725, "Ġencontra": 43621, "Ġì¢ĭìĿĢ": 16460, "ĠHang": 14070, "mente": 4082, "ĠOlaf": 48961, "Ġreduces": 18081, "NO": 12861, "urgical": 46736, "ĠBren": 31200, "ĠIndividual": 37292, "ĠSkin": 26333, "really": 41613, "ĠVeget": 28092, "urs": 2156, "ìĸ´ëĤĺ": 31134, "ĠfÃ¶rs": 30864, "Ġspoken": 10759, "Ġëĵ¤ìĸ´ë": 46088, "ĠTips": 36887, "Ġyoga": 15128, "Ġdiffers": 37761, "Ðķ": 10156, "ĠdÃ©couvrir": 47756, "Ġpetits": 26487, "ĠArtem": 39210, "ĠÍ¡Â°": 40130, "Ġ7": 1614, "Ġtoast": 15354, "ĠBuenos": 38058, "ĠAngie": 48829, "Ġburaya": 33548, "Ġcurso": 31085, "Ð¾Ð¼Ðµ": 45540, "å¦ĤæŃ¤": 48487, "ÙĥÙħ": 24793, "Ġskept": 19128, "ĠponiewaÅ¼": 32426, "ÙĨØ§": 8315, "Ġrabbit": 19509, "èµ·ä¾Ĩ": 21670, "Ġwp": 32444, "ATA": 44811, "Ġmanufacturer": 18022, "Ð°ÑĤÑĮ": 2209, "ÑĢÐ¾Ð±": 17129, "Ġcombines": 29520, "Ġjut": 42079, "expensive": 27409, "Ġtabii": 31430, "ĠÐķÐ²": 34019, "ĠGym": 38635, "ĠìĤ´ìķĦ": 46978, "ĠÐŁÐ¾ÑĤ": 17993, "Ġfisherman": 48657, "Ġpupp": 17014, "Ġpermission": 11226, "ĠkardeÅŁ": 24073, "Ġchamp": 5921, "Ġtele": 4304, "ÃľNDNIS": 23222, "ĠAudio": 25706, "<|11.90|>": 50959, "ĠchÃºng": 24322, "etzt": 3524, "ĠRid": 30619, "ĠnhÆ°ng": 37504, "Ġtruthful": 44669, "ÏģÏĩ": 30332, "ĠintÃ©ressant": 34358, "Ġbenut": 38424, "Ġformula": 8513, "ç¾İ": 9175, "ĠÃ§Ä±kar": 41097, "ĠKobe": 46296, "Ġ1500": 22671, "mÄ±ÅŁ": 11370, "Ġgleichzeitig": 44242, "ĠÐ²ÑĸÐ´": 16947, "Ġcreative": 5880, "<|11.84|>": 50956, "Ġbas": 987, "encer": 16542, "Ġconsistency": 14416, "uns": 26684, "Ġhorror": 11501, "Ġexclusively": 20638, "íĽĪ": 35715, "Ġslots": 24266, "á»Ŀi": 21024, "ITCH": 43071, "df": 45953, "ĠØ¯": 11778, "Ġprototype": 19475, "Ġplaisir": 32756, "æĪĸ": 19780, "Ġfusion": 23100, "Ġrecovered": 19542, "ĠØ¹ÙĨØ¯": 43242, "Ġesperando": 46587, "ĠQUE": 46026, "ĠVerfÃ¼g": 41611, "Ġexploring": 12736, "Ġear": 1273, "Ġembarrassing": 17299, "Ġcran": 39685, "Ġphotograph": 8348, "Ġforces": 5874, "Ġhighness": 49235, "ĠOdyssey": 38385, "',": 6098, "wy": 9726, "Ġvuel": 20126, "Ġhire": 11158, "Eh": 42810, "Ġ×Ľ": 7127, "ĠdostÄĻp": 48209, "xico": 24829, "utt": 13478, "Ġoverdose": 42206, "Ġbunny": 28588, "Ġverb": 9595, "Ġpilot": 9691, "abord": 26100, "edar": 34385, "Ġ×Ķ×Ĳ": 42876, "ĠBurger": 28936, "ĠEvet": 16729, "ĠØª": 6055, "ĠÐ¿ÑĢÐµÐ·Ð¸Ð´": 49529, "åĺĽ": 20722, "Ġeasiest": 12889, "Ġinvit": 43714, "Ġë¸Ķë": 25576, "Ġdeposits": 30958, "Ġpist": 12273, "Ġdaddy": 16785, "ĠPas": 14199, "ĠÐ¦": 18545, "ĠÐ±ÑĭÐ»Ð¾": 8060, "du": 769, "heen": 42276, "Ã¤g": 50041, "ĠâĢ«": 4738, "Ġbumped": 42696, "sted": 30115, "Ġpowerful": 4005, "ĠpowiedzieÄĩ": 27886, "Ġwok": 40022, "coin": 8562, "ĠÐ¾Ð¿": 7683, "Ġprofes": 22912, "<|26.36|>": 51682, "Ġê·¸ëŁ´": 45372, "intage": 20582, "<|29.98|>": 51863, "Ġquieter": 43339, "amental": 44538, "Ġsucked": 26503, "ĠlÃł": 3684, "èª°": 20757, "Ġtechno": 36728, "Ġunhappy": 22172, "Ġneighbourhood": 30471, "Ġì°¾": 18283, "isol": 29273, "ĠAmerica": 3374, "Ġperpet": 16211, "ãģµãģµ": 44520, "à¸µ": 6033, "Ð²Ð¾Ð»": 20143, "Ġcautious": 25278, "Ġalbum": 6030, "ĠHY": 34189, "ĠìķĬìķĦ": 39860, "Ġtoolkit": 40167, "Ð¾Ðº": 2637, "Ġpaling": 49626, "Ġìµľê³ł": 36703, "ÑĥÑĢÐ°": 49305, "ĠKit": 23037, "ĠÐ»Ð°Ð´Ð½Ð¾": 44107, "Ġsolem": 43519, "ĠRabbi": 32768, "Ġpenn": 34911, "Ġconversations": 7315, "ĠPolicy": 21708, "ÐĿÐµÑĤ": 37473, "Ġåľ¨": 37286, "<|28.52|>": 51790, "ĠBun": 14661, "vern": 1659, "Ġfunnel": 24515, "<|24.30|>": 51579, "bies": 23177, "Ġwindshield": 39996, "ologists": 12256, "Ġevalu": 6133, "Ġdeterminant": 41296, "ĠØ§ÙĦÙħ": 9673, "37": 12851, "ĠëĳĲ": 11915, "Ġcollective": 12590, "Ġcoupled": 29482, "ÏģÎ±": 9903, "ĠSep": 22012, "Ġlitter": 26540, "Ġmultiplic": 17596, "ĠAA": 30680, "Ġcompliment": 16250, "ãĥ©ãĤ¤": 40230, "uh": 3232, "bling": 18262, "Ġdarker": 12741, "è¿Ļä¸ª": 15368, "ãĤº": 29061, "Ð¾Ð¼Ð¸Ð½Ð°": 40983, "ĠUnderstand": 26093, "Mel": 41510, "Ġsiento": 40340, "Ġinstructor": 18499, "Ġconcerts": 24924, "ĠTay": 10132, "Ġexpon": 12680, "ĠTub": 48258, "Ġcurved": 24991, "ĠMean": 12302, "Ġdonde": 10488, "ĠChip": 29751, "Ġcorrectly": 8944, "Ġbukan": 31794, "¼ë": 1870, "irts": 9899, "Ġcreo": 14336, "Ġsitt": 43709, "á¹": 10804, "Ġdamages": 28536, "Ġíķľ": 4815, "ARI": 39545, "Ġwatt": 31556, "ĠMostly": 29035, "igation": 21494, "ĠincreÃŃ": 46202, "Ġimpression": 9995, "!\",": 44815, "Ġdenim": 43535, "Te": 14233, "Ġsubsequ": 13924, "Ġnever": 1128, "Ð¸Ð½Ðµ": 20998, "æĬķ": 37094, "ĠWhatsApp": 30513, "?\",": 29359, "ĠìľĦíķ´": 31600, "Ġcore": 4965, "ãĤ²": 46965, "Ġfountain": 29451, "ŀľë§Į": 46034, "wirtschaft": 38877, "Ġeles": 10244, "Ġsensory": 27233, "Ġexercises": 11900, "Ġexpres": 33397, "Ġjeg": 10610, "ource": 2948, "ĠÐ³Ð¾Ð²Ð¾ÑĢÐ¸ÑĤ": 25083, "<|26.98|>": 51713, "<|6.84|>": 50706, "<|28.34|>": 51781, "<|8.26|>": 50777, "Ġteng": 10370, "į": 235, "Ġchain": 5021, "Ġãĥ": 15096, "<|15.56|>": 51142, "Ġyeni": 34320, "''": 15025, "agogue": 42207, "Ġfamily": 1605, "è·ŁæĪĳ": 47472, "Ġinterchange": 30358, "Į": 234, "Ġzip": 20730, "Ġneurological": 48185, "ĠBROWN": 37705, "opt": 5747, "èĻ": 12026, "Ġhonors": 26884, "ĠÎ®": 24841, "<|26.18|>": 51673, "Ġoccasional": 31644, "<|12.26|>": 50977, "quality": 11286, "ĠLuft": 26995, "Ġsubstit": 26441, "ĠÐ¢Ð¾": 16047, "Ð½Ð¸ÑĤÑĮ": 31087, "Ġaconte": 14888, "Ġliquid": 6553, "Ø": 148, "Ġtempo": 8972, "Ġdisc": 2983, "×ķ×¦": 21834, "Ĥ": 224, "Ġgran": 9370, "á¹£": 24242, "Ġbeeps": 27722, "phants": 30173, "ĠBak": 12063, "Ġculmin": 28583, ");": 34446, "Ġdemande": 26982, "rying": 19076, "Ġapartment": 9587, "Ġairports": 36561, "iversity": 2550, "Ġfocusing": 8416, "Ġmuse": 39138, "Ġrepair": 10535, "ë³µ": 26773, "ower": 968, "Ġexcuses": 24666, "Ġfunctions": 6828, "ĠkÃ¶nnten": 37411, "Ġonion": 10916, "iksi": 39664, "ĠìĿ½": 43302, "Ġrooting": 41572, "Ġë°ķ": 21140, "player": 19125, "Ġentails": 50133, "kor": 19339, "lectric": 38421, "anders": 41430, "Ð¾Ð²Ð°ÑĤÑĮ": 14069, "Ġmesures": 42265, "ĠÅ": 4423, "Ġfunk": 26476, "ĠLynd": 48800, "ĠCreed": 39103, "ìĿ¼ë": 22809, "ĠìĤ¬ê³ł": 40836, "Ġjab": 33475, "ĠPromised": 38478, "HY": 25501, "ìľ¼": 10307, "Ġrecursos": 30409, "Ġshareholders": 33294, "Ġagain": 797, "ÏģÎ¯": 24296, "flix": 12336, "anha": 37899, "Ġln": 44166, "ĠÐ½ÐµÑĳ": 44527, "Ġqueste": 35455, "ĠCultural": 31450, "ĠConstant": 37413, "Ġconjugate": 45064, "Ŀ¼ë": 9316, "ĠtÄĻ": 32489, "à®³": 10078, "©°": 18095, "uria": 37299, "utter": 9947, "ĠHob": 22966, "owed": 24347, "Ð°Ð½Ðµ": 32456, "El": 17356, "Ġanybody": 4472, "ĠDeutsch": 12699, "crowd": 14779, "Ġsocio": 44303, "µ": 113, "Ġech": 36803, "inqu": 37384, "ĵ¤ìĿĦ": 24968, "Ġwarned": 21284, "ĠMama": 17775, "ĠAixÃ²": 31869, "ĠTC": 34150, "ÑĤÐ¾Ð²": 8642, "×¨×Ĳ": 26412, "Ġsalted": 39783, "Ġtransplant": 20662, "ä¸įèµ·": 26451, "Ġpept": 41781, "ĠThing": 30902, "Ġcuc": 18488, "Ġmainland": 32365, "<|29.26|>": 51827, "ortic": 48816, "Ġsoutheast": 39014, "à¯": 1390, "Ġhac": 46093, "aisia": 47858, "åĸľ": 13620, "ĠpiÅŁ": 47461, "zeni": 42124, "Aud": 15591, "×ŀ×¢": 44390, "Ãłng": 26653, "Ġejemplo": 13358, "ĠìĿ¼ëĭ¨": 17304, "ĠPlayStation": 20599, "szyst": 10424, "PC": 12986, "Ġroam": 40474, "<|15.06|>": 51117, "Ġinsulted": 49063, "æķ": 7017, "olu": 39754, "ĠCommonwealth": 35295, "Ġharden": 50203, "Ġë¬": 4509, "Ġthy": 15196, "Ġcoating": 20163, "Ġlacks": 31132, "Ġevenly": 17658, "Ġburadan": 49443, "Ġìĸ´ë¨¸": 33257, "<|17.30|>": 51229, "UP": 22917, "ĠLogan": 22689, "Ġgigs": 34586, "Ġretard": 42073, "Ġwifi": 35246, "Ġmothers": 17941, "ĠSend": 17908, "Ġamber": 48304, "Ġmoons": 34139, "Ġmales": 20776, "Ġunpre": 19237, "oux": 30209, "ĠÐĶÐ»Ñı": 21324, "Ġsimult": 13899, "Ġhp": 34064, "ĠGray": 22668, "Ġderecho": 39055, "keit": 9238, "Ġmiteinander": 43127, "Ð¸Ñĩ": 3903, "ĠØ¹ÙĨ": 18871, "Ġinfra": 23654, "Ġ((": 15265, "Ġpouvait": 45913, "Ġprinting": 14699, "ìľ¡": 36265, "ĠJiang": 23458, "Ġpouv": 29663, "Ġmeditate": 29989, "Ġcompensate": 29458, "Ð¾ÑĹ": 49065, "Ġsimplicity": 25632, "Ġguess": 2041, "Ġcellphone": 42524, "Ġfairy": 19104, "Ð¸Ð¼ÐµÑĢ": 12170, "Ġíķĺë©´": 17422, "ĠSaud": 15717, "á¹Ľá¹£á¹ĩa": 35501, "ĠEX": 16385, "ĠSEO": 22964, "Ġmultic": 30608, "Ġadvice": 5192, "Ġpenalties": 35389, "ĠfÃ¼h": 18813, "igning": 9676, "Ġexcit": 13101, "Ġkennen": 28445, "ĠNic": 14776, "Ġcivilian": 23386, "Ġstroll": 42812, "Ð¿Ð¾Ð´": 40245, "wali": 40054, "Ġeiner": 6850, "ìŀĪëĬĶ": 33670, "ĠZwe": 32475, "inees": 27558, "Ġìłķë¶Ģ": 34659, "ĠHod": 45151, "eres": 9931, "Ġbewusst": 46221, "<|17.84|>": 51256, "Ġabroad": 12637, "bu": 6021, "<|27.20|>": 51724, "ĠMurphy": 28549, "ĠÂ».": 28082, "ÎµÏĦÎµ": 47440, "lvania": 17588, "Ġbranded": 38510, "aÃ§Ãµes": 17971, "ĠÐ·Ð°Ð²Ð¸Ñģ": 39673, "ê¹Įì§Ģ": 8786, "´ìĭ¬": 28569, "ĠPSAKI": 25104, "çĪ¸": 23855, "Ġsentido": 19850, "Ġuso": 22728, "ĠÐ´Ð¾Ð»Ð¶Ð½Ð¾": 40475, "Ø§Ø²": 31377, "cion": 10015, "ĠEast": 6747, "ì¿": 34680, "Ġsemble": 38328, "ĠZusch": 48333, "Ġclich": 39190, "Ġì¡": 22116, "iÄħ": 11404, "ÑıÑģ": 15293, "à¹Ħ": 8809, "ould": 429, "Ġëĵ¤ìĸ´ìĺ": 37916, "Ġexplosions": 36872, "ĠÑĢÐ°Ð½": 36463, "pread": 22141, "ÑĢÐ°Ð¼": 15837, "Ġdoubts": 22618, "ĠLAUGHTER": 46760, "ĠRiv": 47620, "ĠMayor": 13925, "Ġdeath": 2966, "Ã³mo": 20436, "ĠHen": 8651, "Ġkaik": 30381, "Ġprobabil": 31959, "ì¶°": 39929, "iosity": 40729, "ĠHBO": 37409, "ĠrÃ³Å¼ne": 47760, "ĠëķĮëıĦ": 49738, "ĠSch": 2065, "ĠBaek": 38913, "ÑĪÐ°": 47247, "ĠQuiz": 38020, "ĠÑģÐ¼Ð¾Ð¶": 47044, "rise": 18619, "ĠbÄĻdÄĻ": 39240, "ister": 1964, "Ġeducated": 15872, "ĠLeaving": 41253, "wart": 29587, "Ġstrongest": 16595, "Ġprotecting": 12316, "got": 13178, "×ķ×": 1683, "Ġabsurd": 19774, "ĠEngland": 8196, "ĠNate": 28064, "ĠLAKE": 42193, "ĠPentagon": 36371, "Ġsite": 3621, "Ġjakie": 22124, "Ġchats": 38057, "ĠLond": 6735, "Ġwraps": 25831, "Ġperpend": 26095, "ĠÑĨÐ²ÐµÑĤ": 24937, "Ġcortisol": 45618, "ãĥ¥": 26167, "Ġsounds": 3263, "ĠLewis": 17412, "åĬł": 9990, "Ġtrouver": 23546, "friend": 5540, "ude": 2303, "ĠCAD": 41143, "ĠWhew": 46029, "profit": 14583, "DAY": 38391, "Ġpollution": 16727, "Ġprimer": 12595, "Ġress": 24689, "åĸĶ": 10642, "ĠclÃ¡s": 47434, "cekt": 47179, "amaz": 30148, "ĠPalestine": 33030, "ĠrÃ©uss": 28099, "Ġveux": 16389, "cience": 6699, "ones": 2213, "Ġmillions": 6803, "ĠwyglÄħda": 32015, "Ġwebsites": 12891, "Ġpessim": 37399, "ete": 3498, "à¸Ńà¸Ļ": 26346, "Ġsheriff": 37103, "Ġprz": 6541, "Ġprops": 26173, "icha": 48710, "bru": 7294, "Ġuno": 8526, "<|8.68|>": 50798, "Ġtwenty": 7699, "gines": 12659, "Ġdouble": 3834, "ĠGarr": 42326, "Ġplanting": 20585, "ending": 2029, "Ġpepp": 39759, "ĠHyper": 29592, "Ġdale": 27326, "greg": 11027, "íķ´ìķ¼": 27644, "ieties": 19084, "Ġselves": 41900, "ĠBarcelona": 21247, "á»Ļc": 34259, "Ġbackstage": 31764, "ĠGed": 28166, "Ġconserv": 9704, "à¹Ģ": 5504, "Ġrandomized": 38513, "ĠNV": 46512, "ĠGesicht": 47777, "Ġgenuine": 16699, "<|28.76|>": 51802, "Ġfee": 12054, "ÃŃna": 42279, "Ġserved": 7584, "han": 3451, "Ġadapting": 34942, "Ġaccessed": 34211, "Ġincorporated": 21654, "Ġkul": 27576, "Ġvolunteered": 41213, "íĺ": 5262, "ĠprzedsiÄĻbior": 43477, "Ġmedals": 38647, "ĠDistrict": 14374, "Ġtr": 504, "ÑĨÑĥ": 22542, "ĠfÃ¼r": 2959, "ÐµÐ´ÑĮ": 16878, "ĠBrian": 10765, "ĠSUBSCRIBE": 33817, "ĠÐ¿ÑĢÐ¾Ð¿": 23497, "ĠFaster": 46665, "ĠAku": 41120, "Ġìĭľì²Ń": 41123, "Ġturning": 6246, "Ġi": 741, "osto": 22756, "pause": 38831, "cy": 1344, "Ġsubstitute": 15802, "ĠJesus": 2705, "Ġhors": 11912, "ĠverÃ¤ndert": 45990, "rÃ©s": 18981, "Ġparch": 35765, "ĠKurz": 45307, "HEN": 46097, "ÑģÐºÐ¸Ð¹": 17146, "Ġstick": 2897, "ĠJY": 43587, "Ġcontent": 2701, "dam": 10170, "å¤ł": 31649, "Ġkans": 16030, "warz": 31991, "ĠHybrid": 47088, "ĠSung": 24857, "Ġsneaky": 39518, "Ġdiver": 18558, "Ġbreath": 6045, "Ġwichtig": 13621, "Ġexecuting": 32368, "Ġdozen": 16654, "pole": 48518, "uld": 13432, "Ġvery": 588, "Ġjoy": 6258, "Ġcertains": 25263, "50": 2803, "åĵ¡": 20992, "Äģm": 43642, "Rec": 48883, "ĠAnything": 11998, "Ġassass": 16475, "Ġë¶Ħë": 21735, "è¡¨ç¤º": 40053, "Ġdifference": 2649, "ĠXiaomi": 33806, "Ġassessments": 24338, "Ġbetween": 1296, "orsa": 38822, "Ġyounger": 7037, "<|startoftranscript|>": 50258, "<|4.16|>": 50572, "Ġantagon": 32590, "ĠPhysical": 31918, "ĠJae": 20916, "ĠFury": 40327, "Ġtested": 8246, "ĠProm": 15833, "Happy": 31496, "asu": 45612, "Something": 45431, "çİĭ": 19940, "ĠKnock": 34017, "black": 36141, "Ġgave": 2729, "Ġnonprofits": 42851, "ĠÑģÐµÐ±": 9968, "wagen": 28717, "ĠrÃ©sult": 33671, "ĠYu": 10767, "<|22.90|>": 51509, "Ġinteraction": 9285, "Ġsalts": 50191, "Ġprecautions": 34684, "Ġplayoffs": 41142, "Ġsat": 3227, "Ġwerde": 24866, "Ġmarine": 20246, "Ġstun": 11885, "Ġjorn": 40345, "thon": 11943, "Ð°": 386, "Ġfaded": 36352, "Ġmustard": 23659, "ĠÑħÐ²Ð°ÑĤ": 32985, "ĠMickey": 24714, "ĠëĮĢíĳľ": 37970, "onnen": 34269, "Ġcompliance": 15882, "ĠBRANDON": 46940, "ĠPu": 13605, "ĠMinor": 36117, "ĠGlobe": 46570, "Ġbreed": 18971, "ĠChic": 9010, "ĠAllah": 4574, "áºŃn": 27410, "Ġcommitting": 26659, "Got": 37373, "ĠBatt": 29439, "Ġshaped": 13475, "×ķ×ļ": 39832, "ĠÐ¿ÑĢÐ¾ÑģÑĤÐ¾": 8221, "ĠtenÃŃan": 47596, "Ġinclud": 1637, "Ġpossessed": 29608, "Ġmog": 13172, "Ġphone": 2593, "Ġlee": 46571, "Ġcamb": 18751, "Ġinfrast": 6534, "Ġabsorb": 15631, "Ġnasal": 41575, "Ġdrummer": 38535, "ulative": 22678, "Ġhurt": 4607, "ishi": 27537, "antine": 13566, "Ġheard": 2198, "erella": 42842, "ĠKorean": 6933, "Ġspeeding": 35593, "ight": 397, "Ġfundamental": 8088, "ìłĲ": 15046, "Ġagrad": 49463, "ĠMarch": 6129, "ment": 518, "ĠOil": 23545, "Ġsubset": 25993, "ĠSP": 8420, "Ġruining": 38938, "Ġgraph": 4295, "veis": 22479, "issez": 43033, "som": 24154, "ĠÐ²Ð¸Ð´ÐµÐ¾": 15589, "å¦Ĥ": 8238, "Ġapenas": 18561, "ultur": 26099, "Ġpug": 47900, "Ġflick": 22774, "ĠChicken": 16765, "ĠìĿ´ê±´": 21867, "Ġproducers": 16080, "ÑģÐ»Ð¸": 5734, "Ġsavior": 41327, "di": 4504, "Ġcompared": 5347, "Ġarbit": 14931, "ĠBrooklyn": 21872, "reaming": 38072, "Ã¼s": 16608, "Ġpesar": 41951, "robe": 24489, "åĳ³": 17268, "ĠØ´": 13412, "Ġrevolves": 47934, "Ġtodd": 33268, "Ġib": 39073, "Ġfunds": 8271, "Ġ64": 12145, "Ġretiring": 45770, "Ġ>": 12331, "Ã¬n": 41320, "Ġsulf": 22925, "Ġsurvived": 14433, "ĠOtto": 41716, "Ġbuscando": 46804, "ĠQuit": 50139, "Ġdemocratic": 15337, "yect": 22680, "ĠAF": 20389, "ĠÐ±Ð¸": 47334, "ĠBeit": 43637, "ams": 4070, "ĠCharacter": 36786, "anguard": 36259, "Ġpratic": 33852, "opping": 32799, "Ġtoughest": 35037, "è¶ħ": 19869, "itar": 3981, "ê¹Ģ": 41062, "æĸ°": 12560, "ĠMarilyn": 48340, "Ġparticle": 12359, "Class": 44621, "ĠBased": 18785, "Ġgesund": 49176, "rals": 34179, "Ġíĺ": 5706, "Ġfig": 2147, "Ġpresent": 1974, "Ġcolorful": 18506, "<|2.48|>": 50488, "quito": 14856, "amÄ±": 48688, "Ġshading": 30556, "Ġcalibration": 38732, "Ġaccusing": 47436, "Ġìĸ´ëĸ": 7768, "Ġ0": 1958, "Ġamount": 2372, "llah": 31884, "ĠLud": 30550, "hyun": 21806, "ì£¼ë": 21163, "Ġcry": 3305, "14": 7271, "°¥": 45582, "Ġdart": 39010, "ĠShak": 47459, "ĠDecember": 7687, "geme": 31964, "éĮ²": 43777, "åģľ": 36135, "ĠÐºÐ°Ð·": 37408, "ĠëĦĪë¬´": 6924, "ĠTHE": 5663, "Ġweiteren": 44036, "Ġappl": 4988, "ĠBurn": 18328, "Ġmarketplace": 19455, "łĪìĿ´": 38845, "Ġvist": 40247, "Ġíķĳ": 45549, "Ġë¹Ħë": 24241, "bery": 26736, "Ġshortly": 13392, "bau": 26820, "ĠFrauen": 24191, "Ġeliminate": 13819, "´ìłģ": 38430, "Ġops": 44663, "Ġdy": 14584, "ĠÐ²Ð¿": 27163, "tered": 40665, "Ġchess": 24122, "ĠAKA": 45933, "meric": 1555, "ĠTI": 28819, "<|24.80|>": 51604, "ÑįÑĤ": 11967, "ĠSantos": 36962, "ĠmolÃ©": 49300, "arc": 40088, "ìĨĮë¦¬": 47629, "Ġgrounded": 23535, "Ġprofitable": 21608, "ĠBuff": 20254, "ĠquerÃŃa": 37869, "ĠRhode": 40202, "Ġdernier": 29332, "Ġregist": 11376, "Ãłn": 22476, "ÐºÐ¾Ð¼": 14937, "ÃŃcia": 30050, "Ġì°į": 17285, "ĠÂ§": 49803, "Ġyout": 11325, "ĠXue": 43999, "ĠìĺĪìģ": 20684, "Ġbecomes": 3643, "ĠLeonardo": 36523, "Ġaverages": 42257, "Ġus": 505, "å¼Ģ": 18937, "bb": 6692, "Ġperceived": 19049, "<|4.66|>": 50597, "<|14.86|>": 51107, "Ġsources": 7139, "Ġsperm": 32899, "Ġelastic": 17115, "Ġscratched": 40513, "ĠasÃŃ": 8582, "ĶĶìĸ´": 40803, "Ġvallahi": 45338, "×Ļ": 1380, "ĠMoto": 37825, "jac": 19586, "Ġshady": 41853, "Ġmetaphor": 19157, "×": 147, "ĠÑĩÑĤÐ¾Ð±Ñĭ": 7887, "Ġevidence": 4467, "ĠLandesregierung": 37695, "ÈĽ": 15918, "ĠIndustrial": 32059, "ĠGloria": 34288, "ĠPfizer": 34694, "ahr": 5398, "ÄŁimiz": 31930, "ĠfrÃ¼her": 32349, "Ġtakim": 31732, "ĠRest": 13094, "ĠBattle": 11846, "viewer": 13457, "Ġconcret": 39481, "Ġparticulier": 40400, "Ġtirar": 29239, "Ġspikes": 28997, "Ġceased": 49917, "ÐµÐ½Ð¸ÑĤÑĮ": 44436, "Look": 12863, "ĠBild": 15746, "ĠLang": 13313, "ĠTea": 26614, "Ġstudents": 1731, "umbing": 34236, "æĪĳä»¬": 15003, "nia": 12679, "Ġcul": 11021, "Ġtren": 23136, "ulsive": 32657, "æ¨Ĥ": 34043, "Ġpuzz": 18741, "Ġcompris": 31711, "à¹Ģà¸": 5914, "emu": 37552, "Ġcommunion": 42808, "<|14.02|>": 51065, "ever": 1054, "<|20.56|>": 51392, "Ġgrooves": 49359, "Ġmethane": 32521, "Ġsubject": 3983, "niejsze": 44258, "Ġreunited": 50036, "ĠquÃª": 28605, "uine": 15516, "Ġinequality": 16970, "mens": 45743, "otive": 22459, "T": 51, "Ġmotor": 5932, "ÐºÐ¾Ð½": 33687, "ĠUnited": 2824, "ĠBuilt": 49822, "æĻļä¸Ĭ": 50157, "ĠJJonak": 42805, "Ġconversation": 3761, "ĠBreak": 16925, "à¥Ģ": 31881, "Ġbizi": 36033, "<|26.78|>": 51703, "ĠÐ¾ÑĤÐºÑĢÑĭ": 27085, "å¯Ĩ": 47838, "uding": 33703, "Ġdependencies": 36606, "Ġguarantees": 32567, "Ġcried": 16266, "<|29.82|>": 51855, "Ġlowering": 28124, "Ġpixels": 18668, "Ġlisting": 22161, "ĠMack": 24295, "æĻĤåĢĻ": 14010, "éĪ": 41597, "deep": 38422, "ĠKaf": 36813, "Ġspeaker": 8145, "×ª×Ļ": 22100, "Ġrak": 35544, "áºŃy": 24706, "Ġcontagious": 40666, "ĠìĨĮ": 10614, "Ġkiss": 7704, "ĠÐºÐ°ÑĢ": 13560, "Ð½Ð°ÐºÐ¾": 32088, "ĠÃĦr": 34403, "Ġcar": 1032, "ä½łçŁ¥éģĵ": 28945, "Ġbegging": 26600, "Ġgrowth": 4599, "Ġorganizations": 6150, "Ġplane": 5720, "ĠTammy": 48030, "Ġairl": 18856, "ĠNut": 19861, "ĠÑĥÑģÐ»": 24636, "ĠìĿ´ë": 2892, "Ġcontributes": 32035, "ÐµÑĢÑĮ": 9352, "ĠOM": 16954, "Ġparf": 19743, "ĠìķĬê³ł": 31157, "Ġquestions": 1651, "Ġ`": 28279, "Ġsyndrome": 19371, "ç¨±": 49606, "blind": 47494, "Ġvalues": 4190, "Ġpolar": 12367, "ĠSTAR": 47816, "ĠPrincipal": 38575, "Great": 30604, "çĤº": 6344, "ç²¾": 34910, "ĠOrth": 27554, "Ġinan": 33113, "ĠReese": 49474, "Ġkole": 18303, "Ġë§ŀëĬĶ": 49953, "action": 2894, "ĠÐ¼Ð¾Ñı": 33691, "ĠSche": 25321, "ÏĦÎ¿": 10600, "å°ı": 7322, "Ġdeserted": 47983, "ĠIV": 15967, "Ġsquishy": 45402, "Ġhorizon": 18046, "ĠÐºÐ°Ðº": 3014, "Ġrecording": 6613, "Ġbay": 13642, "Ã¼zel": 13130, "åĳ¨": 37390, "ĠLambda": 45691, "ĠDatab": 40461, "Ġseries": 2638, "Ġmotivo": 35804, "ĠLift": 26148, "Ġwiz": 40808, "ĠÐ¾Ð¿ÑĭÑĤ": 48530, "Ġruler": 19661, "ĠÐ²ÐµÑĤ": 45010, "ÛĶ": 24621, "Ġals": 3907, "è·Ł": 9678, "Ġstained": 39924, "<|27.54|>": 51741, "Ġregulate": 24475, "Ġflavored": 37261, "ĠJulie": 18794, "ĠÐ¿ÑĢÐ¾Ñģ": 21109, "Ġtalkin": 39243, "ĠDil": 36475, "Ġprepared": 4927, "urar": 28586, "ceÄŁ": 19342, "Ġdeter": 15092, "Ġê´Ģë": 25201, "ĠVIC": 41519, "..?": 14305, "raum": 31502, "ĠThan": 18289, "Ġanalyses": 37560, "Ġunre": 20584, "uras": 12907, "culiar": 26626, "Ġoccurrence": 36122, "ĠHmm": 8239, "Ġaust": 34916, "Ãªter": 37754, "Ġtruck": 5898, "ĠRem": 4080, "Ġrotated": 42146, "Ġinstrumental": 17388, "ĠPremiere": 39724, "Ġschlimm": 48821, "Ġbeds": 18068, "Ġattachments": 37987, "ĠSomeone": 8734, "Ġplag": 33756, "æį": 26075, "idden": 6171, "stop": 13559, "ĠRet": 11495, "Ġtryin": 47452, "Ð°Ð»Ð¸": 4071, "Ġà¤¸": 49316, "Ġbisexual": 42570, "Ġthanked": 48137, "Ġais": 24938, "ĠFranklin": 22010, "Ġ220": 29387, "ev": 13379, ".(": 45385, "ĠGrind": 47938, "Ġdrill": 11392, "ĠÏĨ": 17579, "fte": 16268, "ĠÐ¾Ð´Ð¸Ð½": 13319, "ĠGhost": 16323, "Ġimagery": 24340, "ĠKubernetes": 23145, "Ġpayoff": 46547, "ĠÏĦÏīÎ½": 39575, "Ã¤ng": 9935, "zuk": 43994, "Ġjoke": 7647, "Ġaspiring": 45405, "Ġsurfaces": 16130, "ĠFucking": 33342, "Ġrecoil": 42053, "Ġpleasant": 16232, "ìĿ´ìĬ": 37641, "ita": 2786, "rison": 17029, "istinct": 13986, "ĠWouldn": 26291, "ĠÐŀÐ±": 22853, "isty": 38618, "Ġanci": 34856, "ĠLind": 16828, "UI": 46324, "Ġinstallment": 39413, "Ġsuppose": 7297, "ĠFaith": 23642, "ĠëĦĪ": 12963, "Ġmentor": 14478, "ĠSEE": 44712, "ovy": 38223, "Ġheartbeat": 34851, "Ġviable": 22024, "ĠWoah": 19668, "Ġpassar": 20630, "ĠmuchÃŃs": 29353, "ĠShould": 6454, "×¤": 9730, "ÐµÐ½Ð°": 13362, "Ġanlat": 27691, "ĠÐºÑĥÑĢ": 28975, "Ġdanke": 46434, "luded": 44412, "ĠÐ·Ð°Ð¼": 13597, "Ġpinch": 14614, "<|so|>": 50326, "Ġradiator": 41345, "Ġappro": 2075, "ĠAquÃŃ": 24386, "Ġsuk": 46432, "Ġphenomenal": 17778, "ĠÐ³ÑĢÑĥ": 47553, "enment": 26797, "FO": 18067, "edel": 39246, "ĠDri": 19150, "Ġancora": 30656, "ĠannÃ©es": 21203, "<|14.04|>": 51066, "èĪĩ": 34127, "Ġ75": 9562, "ĠPromise": 34878, "cco": 49552, "Ġì´¬ìĺģ": 27874, "ĠInn": 34066, "Ġsabot": 37167, "icient": 24549, "Ġweakened": 42613, "awning": 35880, "áº": 1775, "åŃĲ": 7626, "Ġshred": 21567, "Ġfranc": 30514, "ĠÎŁ": 34650, "Ġsegunda": 21978, "antry": 42057, "Ġcardboard": 22248, "ĠseÃ±or": 22188, "Ġcyt": 40248, "Ġsacar": 43823, "íķľëĭ¤": 36495, "Ġhungry": 8067, "<|0.74|>": 50401, "ĠGeorgia": 11859, "Ġsubtle": 13743, "Ġprosecutor": 32836, "Ġëģ¼": 46809, "Ġcarve": 33832, "Ø³Ø¨": 35457, "Ġcinemat": 43520, "Î¿ÏįÎ¼Îµ": 43106, "ĠGraduate": 38124, "Ġwyst": 48255, "Ġverification": 30206, "()": 45191, "Ġì¹´": 41703, "Pe": 20048, "ãĥ³ãĥī": 46271, "Ġesfuer": 49213, "ĠÑģÐ²Ð¾": 6989, "ĠÐºÑĢÐ°Ð¹": 39584, "Ġedit": 8129, "plex": 18945, "ĠParent": 44717, "Ġcrew": 7260, "Ġ98": 20860, "ifa": 29634, "ĠØ¹": 6225, "Ġsaturated": 25408, "ANC": 31885, "Ġsubmer": 36751, "ĠGuild": 38968, "ĠMoroc": 30893, "Ġíŀĺ": 30326, "ĠNorweg": 31783, "bildung": 35588, "ziest": 37567, "ĠfrÃ¼h": 45029, "Ð½Ð¸Ð¹": 15199, "ĠLOU": 49486, "Ġdrivers": 11590, "ressive": 22733, "its": 1208, "ĠFaz": 33154, "Ġreversal": 42778, "ties": 6097, "ĠÑĢÐ°Ð²": 19353, "Ġenclosed": 42089, "Ġuhm": 35007, "Ġinnate": 41766, "Ġintellectually": 46481, "ÐĻ": 37123, "<|25.04|>": 51616, "Ġ175": 41165, "working": 22475, "à¯į": 2133, "Ġdizer": 17159, "ĠPowers": 47278, "Ġefendim": 43556, "Ġyoungest": 17747, "ãĤļ": 26706, "Ġexempl": 24112, "Ġilleg": 9976, "ìŀĲë¥¼": 38134, "ĠÐ´Ð¾Ð±ÑĢ": 35620, "<|20.68|>": 51398, "cap": 9485, "cÃ³w": 29268, "Ġnormal": 2710, "<|22.28|>": 51478, "<|km|>": 50323, "ĠversÃ£o": 41471, "quÃ¨": 14460, "Ġgrapp": 27165, "Ġcommentary": 23527, "Ġlocals": 23335, "urious": 24274, "Ġcovid": 25616, "Ġbeispielsweise": 40152, "Ġmega": 17986, "ĠInsurance": 39971, "Ġuntuk": 12711, "Ġpourtant": 47856, "à®ªà®Ł": 35032, "Ġë¨¹ê³ł": 26077, "ĠSupreme": 11032, "Ġbelieving": 16594, "ĠÑĥÑģÐ»Ð¾Ð²": 34974, "Ġbounced": 46482, "Ġconvince": 13447, "enschaft": 20996, "Ġpermissions": 32723, "Ġequation": 5367, "Ġsaved": 6624, "ĠCrisis": 42846, "ìŀĦ": 13311, "æĦı": 9042, "Ġworkloads": 32452, "Ġinhib": 20406, "ãģĻãģĶ": 28077, "agem": 14767, "Ġcannon": 25938, "including": 50010, "Ġwider": 11842, "Ġì¦Ĳ": 35177, "Ġsympath": 22276, "ĠCurrently": 19964, "âĢ¢": 49938, "ĠGlue": 49832, "Ġcomm": 800, "Ġnod": 15224, "Ġkurt": 34701, "Ġcharcoal": 30625, "Ġãģĵ": 14384, "Ġscariest": 47755, "Ġvisual": 5056, "<|ba|>": 50355, "<|5.08|>": 50618, "Ġcolabor": 49629, "Ġsnowball": 46143, "Ġdis": 717, "ãģ¾ãģĽãĤĵ": 30250, "hart": 42535, "ĠÃ¼bers": 45022, "ĠìĹ¬ê¸°ìĹĲ": 37138, "Ġresolving": 49940, "<|12.06|>": 50967, "VES": 46467, "ĠÅ¼eby": 11316, "Ġelimin": 7892, "íĥĿ": 23529, "ĠCouncillor": 11731, "Ġpods": 31925, "Ġdelve": 43098, "powers": 47953, "ĠpH": 21677, "ĠChoose": 21661, "Ġcarbon": 5954, "Ġ1938": 46398, "ãĥ": 1047, "ista": 5236, "Ġrestaur": 4793, "ĠÐ³ÑĢÐ°ÑĦ": 45799, "ĠONE": 22026, "Ġmysterious": 13831, "Ġhistorical": 8584, "ĠÐ³ÑĢÐ°Ð´": 47547, "Ġpresets": 41865, "kach": 41326, "Ġtalking": 1417, "ĠCAL": 50188, "ĠMemorial": 24957, "Ġpreparations": 34122, "ĠJ": 508, "Ġprobability": 8482, "ĠPi": 17741, "ĠBeau": 43702, "ody": 843, "agens": 27936, "ĠauÃŁer": 39428, "Ġscatter": 34951, "Ġphilan": 28797, "iscernible": 42758, "Ġembarrass": 9187, "Ġà¸ģ": 44579, "Ġmenjadi": 39964, "Ġuranium": 36830, "ÑĢÐ¾Ð´Ðµ": 35381, "iente": 8413, "á»ĳi": 24273, "Ġinhabited": 47538, "Ġvenue": 21645, "ĠBRIAN": 31434, "ĠÑģÐ»Ð¾Ð²Ð°": 39002, "ĠÐ´Ð°Ð²": 12472, "Ġwarn": 12286, "ailed": 24731, "<|8.84|>": 50806, "ĠÐ¾ÑĢÐ³Ð°Ð½Ð¸Ð·": 34254, "Ġbust": 19432, "issenschaft": 26657, "ĠkÃ¼": 24572, "ÙĥÙĦ": 28820, "kk": 12809, "ĠArbeit": 18604, "Ġphilosopher": 29805, "ãģª": 3203, "Ġtego": 8627, "ĠSTEPHAN": 46423, "Ġdissect": 48332, "Ġleng": 35044, "ĠCanadian": 12641, "Ġthrive": 21233, "<|17.48|>": 51238, "ĠvÃ©r": 46919, "ĠÐ¿Ð¾ÑĢÑıÐ´": 36681, "ÐµÐ¿ÐµÑĢÑĮ": 12429, "ogue": 7213, "Ð°Ð»ÑģÑı": 13340, "ÐµÑģÑĤ": 5740, "Coll": 35294, "ä¸ĭä¸Ģ": 45271, "ĠMcL": 38922, "Ġneither": 9662, "iferation": 44987, "suspenseful": 34743, "Ġìĥ": 3694, "Ù": 149, "Ġsnaps": 19206, "ĠSloven": 50122, "Ġownership": 15279, "plan": 16554, "retch": 5427, "Ġacho": 14253, "ĠGriff": 23765, "arma": 36159, "Ġê±±": 39365, "ĠÑĤÐ°Ð¼": 8223, "ĠACL": 43873, "buch": 39742, "Ġsites": 7533, "Ġeve": 34225, "ĠStanley": 28329, "à¸°": 8055, "HHH": 35446, "Ġtackling": 34415, "ĠSurface": 36052, "Ġhacia": 21365, "Ġmism": 23220, "<|0.38|>": 50383, "ä¸¤": 36257, "ĠdonnÃ©": 31165, "ÐµÐ»ÐµÐ½": 21180, "Ġtrabajo": 18099, "ÐºÐ¾Ð²": 7718, "ĠTennessee": 21127, "ãĥ¼ãĤĵ": 46601, "lÄ±nda": 27967, "ops": 3370, "Ġstressing": 48233, "ĠkÃ¶n": 4798, "gged": 12244, "avored": 22120, "Ġescrito": 49451, "Ãºng": 16926, "igmat": 46496, "Ġcandle": 17968, "è¿İ": 17699, "tt": 6319, "ys": 749, "Ġconspiracy": 20439, "ĠìķĦëĭĪê³ł": 32510, "<|13.76|>": 51052, "²Ķ": 38700, "ĠChand": 32244, "Ĥ´": 22485, "Ġtrat": 21507, "Ġmuchos": 17061, "Ġcontra": 10742, "Ġprayed": 22532, "Ġarran": 50235, "<|29.34|>": 51831, "Ġborder": 7838, "Ġpis": 26584, "Ġexpress": 5109, "ĠConf": 11701, "Ġsous": 16686, "ĠJam": 10372, "Ġcritically": 22797, "Ġprivileges": 32588, "´ìĭ": 17058, "Ġequipment": 5927, "ĠÐ´Ð°Ð»ÐµÐµ": 38978, "Ġew": 43364, "Ġburden": 12578, "ĠMalaysia": 25465, "Ġrecibir": 49703, "erel": 39796, "Ġhundreds": 6779, "ĠEn": 2193, "åı£": 18144, "Ġzitten": 35242, "Ġautonomy": 27278, "Ġaccomplishment": 29144, "ropol": 24832, "utes": 1819, "ĠTCP": 48965, "ÑĸÐ¹ÑģÑĮ": 44269, "Ġprzep": 30829, "Ġreaction": 5480, "Ġupstairs": 16462, "Ġtur": 3243, "Ġcharac": 1926, "zd": 31278, "ĠLuego": 45665, "Ġquizzes": 48955, "uper": 12879, "Ġsamh": 49864, "ĠÃŃ": 18645, "ĠCompass": 50179, "Ġsuitcase": 34545, "ilight": 27797, "Dr": 12274, "ĠQUES": 8521, "ĠSO": 10621, "ĠÑģÐ¾Ð·Ð½": 41334, "Ġtravaill": 38222, "Ġverloren": 44884, "æĲŀ": 41816, "Ġolv": 43851, "<|9.94|>": 50861, "Ð°ÑĤ": 2134, "Ġaltijd": 29191, "Ġriv": 28745, "Ġquantities": 22927, "Äģn": 42223, "ÑıÑī": 16076, "Ġráº¥t": 25147, "Ġemoc": 28283, "ĠìĹħ": 32892, "Ġdivergence": 47387, "Ġesqu": 34611, "ÅĽciÄħ": 50227, "Ġaccordance": 31110, "ÐµÑĢÐ¾Ð²": 33985, "Ġounces": 27343, "Ġacabou": 38043, "adt": 14680, "ĠChristopher": 20649, "Ġthee": 24800, "ĠÐĹ": 5841, "Ġfox": 21026, "Ġcircuits": 26354, "Ġexcellent": 7103, "Ġderni": 20562, "Ġpresentations": 18964, "Ġstrugg": 4312, "mesan": 43826, "waukee": 34243, "å´": 49378, "ifiers": 23463, "Ġquiero": 16811, "ĠLike": 1743, "Ġtemporarily": 23750, "Ġsupplied": 27625, "ĠWoods": 31559, "ĠGood": 2205, "Ġinteracting": 18017, "çİ": 8051, "ĠÐ½Ð¾Ð²ÑĭÐ¹": 38121, "amientos": 43466, "HYUN": 46625, "ĠLyn": 15214, "Ġrebel": 28293, "string": 37045, "åħĦ": 24982, "Ġfeeding": 12919, "ĠMER": 47234, "iniz": 9328, "ĠGmail": 36732, "rats": 25869, "Ġsurviv": 12324, "Ġproudly": 33522, "ignment": 41134, "ãģĨ": 2646, "ĠmÃ¼sst": 49481, "enga": 31494, "Ġresize": 50069, "father": 11541, "Ġblender": 24564, "ĠcÅĵ": 41388, "ĠJag": 9014, "Ġtransactions": 16856, "Ġupwards": 22167, "royable": 45976, "Ġfailing": 18223, "ĠCoronavirus": 32737, "ĠRober": 15800, "Ã¡g": 21099, "ĠMaterial": 29160, "Ġintroduces": 31472, "Ġwilderness": 27613, "Rhett": 38110, "ĠGob": 24287, "å£«": 30337, "Ġcops": 19012, "Ġselfish": 19074, "Ġãģ¨": 16746, "Ġvolcanic": 35813, "Ġmaj": 13673, "<|16.28|>": 51178, "ĠâĪ": 28462, "ocre": 42454, "iting": 1748, "ĠAuÃŁerdem": 47834, "Ġfavour": 8182, "production": 40827, "ooooo": 47116, "Ġnegotiated": 39028, "ìķħ": 22886, "å°įåķĬ": 17813, "Ġ112": 45835, "ĠprÃ³": 8565, "Ð°Ð´Ð½Ð¾": 27225, "ĠMoon": 10714, "uet": 15382, "ĠcuÃ¡l": 44318, "ĠStudent": 12464, "amous": 22314, "¿": 123, "Ġtextures": 24501, "ì§ķ": 38974, "ĠØ£ÙĨ": 14739, "ĠAurora": 40663, "<|9.62|>": 50845, "åĳĬè¨´": 31080, "Ġconcrete": 9859, "Ġcosplay": 39403, "ĠVIP": 29732, "ĠPaw": 33551, "ĠdÃ©pend": 45768, "lais": 21232, "ÑĢÐ¾Ð¿": 26090, "ìĺ¤": 8920, "çĤ¹": 12579, "ä¹Łæĺ¯": 22021, "ĠìŀĪëĬĶëį°": 19197, "waÅ¼": 27111, "Ġ1974": 33422, "âĻ¡": 39534, "Everything": 44099, "bus": 21441, "Ġblood": 3390, "wolf": 34763, "ĠÐ·Ð°Ð½": 18596, "ĠLon": 35927, "ĠMarina": 35310, "Ð¾ÑĩÐºÑĥ": 39116, "Ð°Ð»Ð¸ÑģÑĤ": 36948, "aso": 35281, "ĠArmenian": 41581, "Ġdom": 3285, "Ġbudgets": 26708, "ĠdÃ©cidÃ©": 43206, "Ġwonderful": 3715, "Ġmano": 18384, "Ġæ²Ĵæľī": 40183, "ĠTIME": 36096, "Ġshameless": 40164, "ç¬¬äºĮ": 19693, "ĠDai": 39521, "Ġgespannt": 47355, "Ġnotable": 22556, "Ġelk": 44818, "ĠnÃ¥gonting": 43998, "ĠGotcha": 42109, "ìľ¨": 41759, "å¥¹": 15555, "Ġcoefficient": 17619, "éĢ£": 36252, "ivities": 43539, "ilty": 11544, "Ġmass": 2758, "Ġparticipated": 17978, "ĠPath": 21914, "ĠBeatles": 38376, "ml": 15480, "Ġpenny": 24178, "Ġperimeter": 32404, "regierung": 25839, "night": 6402, "Ġpuzzles": 24138, "Ð¾Ð»Ñı": 41332, "Ġarchive": 23507, "Cal": 31279, "<|25.34|>": 51631, "Ġmonuments": 36864, "LAU": 4633, "Ġdado": 29568, "Ġruns": 6676, "Ġscar": 10569, "Ġgogg": 36653, "Ġdefence": 25913, "ĠToo": 11395, "Ð½ÑĥÑİ": 9882, "Ġsized": 20004, "Ġìĺ¤ëŀľë§Į": 48551, "jadi": 30574, "Ġapprove": 18827, "berty": 48501, "fat": 35293, "Next": 31002, "Ġunderest": 24612, "ĠKelly": 12345, "ĠbunlarÄ±": 45695, "Ġdetto": 41031, "æ¸ħæ¥ļ": 38433, "Ġladies": 9974, "xual": 13418, "rock": 17799, "ãģ¨æĢĿ": 22372, "8": 23, "roads": 30342, "ĠÐ³Ð»Ð°Ð²Ð½Ð¾Ðµ": 39940, "finitely": 10925, "Ġbi": 3228, "Ġgranting": 50204, "Ġcurve": 7605, "Ġpoop": 17153, "Ġperspective": 4585, "Ġsnacks": 16160, "Ġautomated": 18473, "Ġbusinesses": 6011, "Ġrains": 27805, "Ġarchitects": 30491, "ĠpoblaciÃ³n": 42769, "é¡Į": 14475, "ĠJoining": 40229, "Ty": 22464, "gger": 39381, "Ġconsol": 16054, "ĠKos": 36909, "Î¹Î±": 8311, "Ġlimits": 10406, "ĠÐ¿ÑĢÐ¾Ð¸Ð·Ð¾ÑĪ": 41476, "ĠCarm": 44530, "ÑıÐ·": 11124, "ĠRÃ©p": 41587, "ĠTheo": 42519, "ĠProducer": 33034, "Ġseguridad": 35415, "idge": 3815, "ĠPeterson": 36943, "Ð¾ÑĤÐ¾": 44241, "ĠÐ²Ð¾ÑĤ": 5505, "<|10.12|>": 50870, "vity": 23110, "???": 16259, "force": 5156, "<|28.26|>": 51777, "è¼": 12290, "ĠGall": 14588, "Ġfat": 4046, "Ġcontrac": 48118, "Ġsuperhero": 19428, "æĴŃ": 49993, "py": 8200, "å·Ŀ": 27905, "Ġbart": 44768, "Ġorganic": 10220, "preh": 40128, "ĠPatrol": 34967, "issa": 10138, "Ãºlt": 43447, "Ġdraws": 20045, "<|4.68|>": 50598, "Ġrightly": 32879, "Ġgearbox": 35291, "Ġpouvoir": 14874, "enario": 49120, "Ġunited": 18883, "Ġturbo": 20902, "Ġpermet": 20696, "Ġconsec": 40526, "Ġgest": 7219, "Ġdizendo": 47026, "ĠFood": 11675, "ĠBond": 23604, "<|22.00|>": 51464, "ĠÙĩÙĬ": 39896, "ÅĤem": 11126, "ĠStandard": 21298, "Ġquotation": 47312, "cÃ³mo": 46614, "Ġunut": 37997, "Ä±": 699, "Ġaye": 19259, "ĠpÃ¡gina": 36960, "Ġempty": 6707, "Ġfield": 2519, "Ġboca": 34624, "Ġgeben": 17191, "Ġ×Ĳ×Ĺ×ĵ": 42205, "Ġconfort": 43392, "Ã¼yor": 18644, "Ġoil": 3184, "Ġmieli": 41214, "Ð°ÐµÑĤÐµ": 17670, "ĠCHRIS": 17353, "Ġcentered": 18988, "Ġstreet": 4838, "<|18.88|>": 51308, "ughs": 2585, "ama": 2404, "ench": 40765, "íĮĲ": 28306, "Ġgema": 46126, "<|16.84|>": 51206, "Ð°Ð½ÑĤÐ¸": 47483, "Ġcourse": 1164, "ĠDi": 8789, "Ġcuad": 34434, "ĠHond": 45260, "Ġcap": 1410, "Ġdrive": 3332, "Ġexistence": 9123, "ĠSale": 48922, "Ġambulance": 26744, "Hmm": 40527, "<|14.38|>": 51083, "Ã¼": 774, "ĠDong": 13609, "<|1.10|>": 50419, "ĠAfrica": 7349, "loud": 29221, "Ġstoryline": 30828, "Ġaccess": 2105, "Ġhue": 24967, "Ġsummary": 12691, "ĠJERRY": 48650, "Ġawareness": 8888, "oro": 10780, "Ġatau": 22823, "ĠnghÄ©": 41077, "vil": 20202, "ä": 160, "ĠARE": 22515, "Ġgiveaway": 23508, "Ã¤ch": 10168, "igs": 17156, "ĠÑħÐ¾Ñĩ": 13057, "Ġplusieurs": 20208, "Ġep": 2388, "ĠRichmond": 39060, "ĠRangers": 40703, "ĠÑħÐ¾ÑĩÐµÑĪÑĮ": 45656, "Ġcharacterized": 29361, "Ġnadzie": 43693, "ĠÐ¸Ð³ÑĢ": 14568, "Ġolsun": 17632, "ido": 2925, "ĠÐ²ÑĭÑģÑĤÑĥÐ¿": 48828, "ĠNone": 14492, "35": 8794, "è¦ģ": 4275, "bres": 46823, "ELLER": 38025, "Cha": 46368, "Ġforemost": 18864, "ĠSpider": 17733, "ĠÐľÐ¾Ð¶ÐµÑĤ": 32786, "jaw": 22199, "æŀĹ": 32063, "stal": 9196, "ĠHae": 44245, "°ĺ": 22196, "Ġretire": 10731, "Ġinternation": 19257, "Ġrearrange": 39568, "ligen": 35158, "ÑĭÐ¹": 4851, "obic": 22234, "Ð¸ÑĩÐµÑģÐºÐ¸Ñħ": 38911, "Ġbeings": 8958, "ĠLed": 39367, "ĠMode": 20500, "ìŀ¥ìĿ´": 34202, "ya": 3016, "<|21.00|>": 51414, "Ġimposed": 26491, "kick": 42427, "Ġprevious": 3894, "æĶ¶": 18681, "ĠDont": 49271, "Ġtitanium": 35289, "ĠRu": 15702, "taa": 43695, "Ġgan": 7574, "Ġturb": 18252, "Ġentsprechend": 47823, "Ġmailing": 41612, "Ġtheft": 28508, "iary": 29104, "ĠNAT": 14500, "ìĭŃ": 32061, "arett": 25033, "ĠHai": 24055, "Ð¿ÑĢÐ¸": 48462, "ÑĨÐ¸Ð¸": 12502, "æĸ¼": 19488, "Ġchromos": 26824, "ĠKrie": 35579, "Ġprogress": 4205, "rowd": 11736, "lieÃŁen": 38665, "Ġincomes": 42458, "ĠDeuts": 10514, "Ġdenkt": 38658, "ĠROI": 49808, "Ġdemon": 14283, "ĠÐ²Ð¾Ð¾Ð±ÑīÐµ": 14345, "Ġmo": 705, "giving": 15441, "Ð°Ð¹": 3183, "ĠSTACK": 49114, "à´": 46503, "Ġtemperature": 4292, "ê²łëĭ¤": 19715, "Ġhints": 27271, "Ġwant": 528, "Ġgev": 47103, "Ġë¶Ħëĵ¤ìĿ´": 36029, "Ġtriggered": 21710, "rints": 47523, "Ġexploited": 40918, "Ġawakened": 46468, "Ġtucked": 36089, "nine": 46140, "Ġvisionary": 49442, "rukt": 19977, "ãģĹãģŁ": 8533, "Ġendorse": 29228, "Ġcollector": 23960, "Ġfragile": 23847, "Ġprojector": 39792, "Ġerk": 31879, "ä¸Īå¤«": 39642, "Ġcutter": 25531, "ĠHarlem": 44196, "Ġdeformation": 34364, "130": 42438, "<|22.14|>": 51471, "<|si|>": 50322, "<|5.34|>": 50631, "woÅĽci": 36476, "Ġbastante": 14651, "Ã¼cken": 26037, "Ġakhir": 49843, "unden": 10028, "ĠtÃ¤tÃ¤": 50187, "arg": 33544, "ĠComplet": 31804, "Ġprzysz": 44018, "ĠHigh": 5229, "Ġlogar": 41473, "ekk": 29010, "Ġschauen": 25672, "Ġunfortunate": 17843, "ÖĢ": 25119, "Ġalgun": 9813, "å¯¹": 8713, "ĠHarper": 37216, "Ġef": 31482, "æĪĲ": 11336, "ĠRou": 28392, "Ġparade": 26128, "Ð¾Ñħ": 20976, "ĠBag": 24377, "Ġchassis": 28262, "Ġintended": 10226, "alsa": 24816, "Ġapoyo": 46151, "ĠMob": 37920, "Ġmonaster": 31412, "ÙĤ": 4587, "inaire": 38431, "Ġjemand": 21717, "Ġsays": 1619, "ä¸ľ": 38409, "Ð¾Ð»Ð°": 44342, "oking": 5953, "ĠAmazing": 14165, "ä¸Ń": 5975, "Ġref": 1895, "Łī": 24502, "Ġcurv": 33900, "Ġcela": 15437, "ĠClark": 18572, "aggi": 46893, "Ġoverflow": 37772, "Ġimplic": 10629, "ĠCanon": 27666, "Ġjeito": 31478, "Ġteaspoon": 17237, "ĠPTSD": 33069, "ÑĢÐ°ÑĤÑĮ": 30260, "Ġfab": 5355, "Ġtearing": 29401, "Ġoperate": 9651, "åİ²": 20644, "ĠÃ§": 1844, "Ġdinosaurs": 25851, "Ġmacro": 18887, "Ġplanets": 15126, "å§Ķ": 44230, "Ġë²ł": 28672, "çļ®": 34582, "Ġobes": 26395, "ĠRichard": 9809, "ĠktÃ³re": 8864, "Ġbills": 12433, "ĠWOR": 30029, "Ġcre": 1197, "Ġê±°ë": 15805, "Ġdial": 5502, "Ġpound": 12013, "íĬ¼": 29312, "Ġsepar": 3128, "Ġmisinformation": 34238, "ĠÐ¿Ð¾ÑĪ": 27148, "chÄĻ": 23006, "Ġheader": 23117, "erson": 3953, "Ġvoluntarily": 41782, "Ġsunflower": 48215, "Ġirrit": 16029, "Ġasynchronous": 49174, "ĠBite": 48012, "Ġminist": 16182, "Ġearns": 46936, "Ġcognition": 46905, "held": 23504, "ĠThink": 6557, "Ġdifficulties": 14399, "Ġshel": 9180, "ÃŃveis": 34934, "holm": 32479, "=": 28, "rieb": 31775, "Ġcriticisms": 48519, "vent": 2475, "Ġreus": 38860, "ãĤĵãģ¨": 49329, "ĠpolÃŃtica": 25029, "ĠMG": 36856, "Ġë°Ķë¡ľ": 15965, "ĠKanal": 38643, "Ġclose": 1998, "<|26.28|>": 51678, "<|12.66|>": 50997, "cation": 46252, "ĠRover": 43278, "Ġfundra": 24844, "ÑģÑĤÐ²Ð¾": 9631, "Ġë¶Ģë": 10201, "ĠÐ¿ÑĢÐ¾ÑĦÐµÑģÑģ": 43624, "ĠVolkswagen": 39856, "ĠGas": 24025, "ĠBike": 45699, "</": 3433, "Ġbeste": 22245, "usted": 6589, "Ġyem": 32525, "å±Ģ": 34703, "empor": 11840, "ÙĬØ±Ø©": 48923, "Ġstrains": 39110, "Ġspent": 4418, "Ġhomepage": 31301, "Ġdevotees": 46960, "Ġce": 1769, "ĠGTA": 35575, "Ġ88": 24587, "wi": 6253, "Ġstatute": 24774, "YY": 40570, "ãĥĪ": 7588, "ĠAnyway": 5684, "anging": 9741, "Ġgeographic": 32318, "ĠRES": 46926, "wno": 20944, "Ġnunca": 13768, "Ġdiscretion": 30140, "ĠJadi": 21662, "Ġalike": 20025, "ĠJen": 9228, "Ġ1986": 27895, "manship": 42782, "punkt": 31744, "Ġpacking": 20815, "ĠThor": 17777, "ì¼Ģ": 36940, "ĠBeta": 33286, "Ġgoed": 16987, "Ġstretches": 29058, "ĠJang": 29912, "Ġfueron": 28739, "Ġhaw": 33634, "ÐºÐ°Ð¼Ð¸": 22379, "General": 46302, "ĠCredit": 36006, "Ġ27": 7634, "Ġnoir": 39359, "arian": 10652, "Ġtendency": 18187, "ãģ«ãģ¡ãģ¯": 35752, "lasting": 29346, "Ġspun": 37038, "Ġmoc": 34962, "Ġgegen": 13953, "ĠÐ¶Ðµ": 6151, "Ġresonance": 30944, "ĠSquid": 46178, "Ġnarcissist": 49130, "endy": 18642, "Ġlash": 35275, "Ġchauff": 49211, "Ġgig": 8741, "osse": 14353, "<|14.56|>": 51092, "Ġtry": 853, "Ġëħ¹": 36906, "Ġnorth": 6830, "Ġinjured": 13408, "Ġzwe": 8733, "Ġobserver": 27878, "ĠlÃ¤ng": 22566, "eps": 10653, "Ġolder": 4906, "ĠìĿ´ì": 4329, "Ġpounding": 40034, "ĠZoom": 13453, "ĠTurbo": 35848, "Ġfaint": 21104, "roat": 10495, "erry": 5318, "ĠÐ·Ð½Ð°ÑĩÐ¸ÑĤ": 24013, "tles": 23995, "<|hr|>": 50291, "stro": 27616, "Ġpada": 26069, "Ġlongest": 15438, "Ġzd": 16221, "Ġselfie": 22147, "Ġtribe": 17625, "ression": 2775, "è©¦": 22099, "Ġfif": 5782, "Ġenjoyment": 32013, "effect": 46168, "Ð°Ð½Ð¸Ð·": 27068, "Ø°Ùĩ": 24192, "ĠÐ´ÑĢÑĥÐ·": 23577, "ĠmÃ¥": 10254, "Ġtuvo": 43718, "ĠGrowing": 32569, "ĠnÃ¥gra": 40842, "Ġwij": 24770, "ĠÑĢÐ°Ð²Ð½Ð¾": 27354, "éĲĺ": 26254, "Ge": 22766, "istles": 29923, "Ġinstincts": 38997, "Ġsignals": 12354, "ĠÐ²Ð¾Ð·Ð¼Ð¾Ð¶": 31544, "Ġouv": 21157, "Ġmasses": 23935, "Ġnim": 24887, "ĠRoth": 28089, "Ġmemes": 29730, "Ġsuits": 15278, "Ġíķĺê²Į": 44605, "Ġweakest": 44001, "ĠìŀĪìľ¼ëĭĪê¹Į": 44489, "Ġmedal": 21364, "Ġexamine": 17496, "įãĥ«": 38518, "ĠBennett": 40620, "Ġnaval": 33050, "Ġfret": 24189, "Ġerste": 20951, "Ġ60": 4060, "ĠvÃŃ": 6153, "Ġstand": 1463, "Ãª": 1307, "ĠCox": 41576, "ĠderniÃ¨re": 29028, "Ġuploading": 27301, "Ġvillains": 31368, "<|12.50|>": 50989, "cents": 36976, "boro": 46669, "Ġparap": 36992, "ĠpaÃŃses": 23070, "éŃļ": 40042, "Ġparish": 45325, "Ġideal": 7157, "Ġwatch": 1159, "<|22.80|>": 51504, "ìĶ": 9751, "ysz": 20589, "ĠLO": 15731, "Ã¼f": 39733, "Ġed": 1257, "rien": 27378, "Ġguys": 1074, "<|14.94|>": 51111, "Ġoutra": 12301, "Ġattack": 2690, "Ġparadox": 26221, "ĠÐ½ÐµÐºÐ¾ÑĤÐ¾ÑĢ": 26666, "Ġê·¸ëŁ¬ë©´": 16645, "mother": 11930, "air": 1246, "Ġreminded": 15920, "Ġzaw": 28165, "Ġassassination": 40195, "Ð°ÑĤÐ¸Ð²": 30875, "Ġles": 1512, "ĠØ§ÙĦÙĤ": 25062, "Ġìĺ¤ëĬĺ": 8880, "ĠBow": 12903, "Ġheut": 42793, "Ġunknowns": 46048, "åĲİ": 13547, "ĠTong": 26946, "Ġoptimism": 31074, "¬": 105, "Ġkun": 8215, "ygusal": 47668, "Ð¸ÑĩÐµÑģ": 9347, "ĠUltimate": 26570, "ĠíķŃ": 25031, "ysÅĤ": 39508, "ĠKas": 28059, "Ġpopul": 24017, "Ġyeah": 1338, "Ġprinters": 40007, "ãĢ": 756, "Ġdolph": 29188, "Ġchlor": 18178, "Ġfreed": 21796, "ĠVorte": 46968, "éł»éģĵ": 37569, "ĠdoÅĽwiad": 46661, "ĠSmith": 8538, "Ġoptional": 17312, "Ġprovince": 16705, "ycz": 17466, "Mag": 37445, "Ġpit": 10147, "åľĺ": 37766, "Ġargu": 10171, "ĠSpaÃŁ": 27460, "Ġë©ĭìŀĪ": 46344, "Ġdespair": 25763, "Ġmusique": 34108, "Ġassum": 5339, "Ġhasht": 17462, "ĠTesting": 45517, "<|21.82|>": 51455, "Ġgek": 14037, "Ġreleases": 16952, "Ġå°ı": 43454, "Ł°": 7436, "enced": 14672, "Ġteammate": 25467, "isma": 14795, "ĠfÃ¥r": 14865, "Ġsampling": 21179, "Ġeasy": 1858, "ĠkarÅŁ": 21742, "Ġleg": 1676, "Ġfabric": 7253, "<|16.54|>": 51191, "jun": 10010, "Ġcreat": 1428, "<|28.12|>": 51770, "æĪĳæľī": 39732, "Ġ>>:": 22040, "point": 6053, "15": 5211, "itch": 1549, "ĠMarg": 20000, "å¹´åīį": 49947, "Ð¡Ð¿": 47306, "Ġ1967": 33193, "Ġselected": 8209, "ular": 1040, "vs": 36959, "ĠGabriel": 20985, "Ġëĭ¹ìĭľ": 49559, "Ġìŀ¡ìķĦ": 40845, "prend": 32725, "íķĺíķĺ": 39385, "Ġpomp": 44275, "Ġstretch": 5985, "ĠResource": 35200, "clockwise": 48685, "issent": 25450, "iska": 21945, "isation": 7623, "Ġjeux": 35093, "ĠCouncillors": 44912, "Ġfriction": 17710, "<|21.58|>": 51443, "ĠLY": 42154, "Ġwie": 3355, "There": 9077, "Ġlimp": 33174, "á»Ĺi": 49572, "em": 443, "Ġsided": 41651, "ĠHazrat": 32423, "ĠLeslie": 28140, "Ġdaytime": 31908, "å¦Ĥä½ķ": 43526, "ÅĤÄĻ": 46564, "utet": 20364, "argent": 29757, "ledge": 3042, "Ġparach": 33927, "ground": 2921, "Ġczy": 6430, "Ġanalytic": 40358, "Ġbeta": 9861, "ĠPicasso": 49708, "Ġrestriction": 29529, "ĠNing": 39417, "ordu": 28655, "Ġplupart": 45403, "ãĤīãģĦ": 38052, "¬¼": 11825, "Ġproduce": 5258, "ĠÐŀÐ½Ð°": 20280, "Ġinternship": 16861, "ĠAww": 22007, "ĠCab": 14704, "ĠÐ¿Ð¾ÑģÐ¼Ð¾ÑĤÑĢÐ¸Ð¼": 42293, "<|4.34|>": 50581, "ibilities": 8261, "Ġsize": 2744, "Ġtimed": 44696, "ĠQuality": 28892, "Ġnobody": 5079, "ĠbyÅĤa": 23936, "ĠKÃ¼": 30726, "Ġcoverage": 9645, "<|14.42|>": 51085, "Ġexplo": 12382, "charger": 48942, "Ġdisapp": 4518, "ĠPole": 34212, "illo": 15831, "etera": 20269, "ively": 3413, "çĶļ": 17556, "Ġselective": 33930, "Ġeigen": 10446, "Ġbabe": 24655, "ĠHil": 19914, "isch": 5494, "ĠNast": 42185, "´ìłĦ": 47595, "<|22.24|>": 51476, "ĠQi": 21430, "<|25.22|>": 51625, "Ġtrusts": 45358, "ror": 2874, "Ġlikes": 5902, "<|10.24|>": 50876, "Ġprocessing": 9007, "ê°ľë": 47128, "ĠSuit": 48854, "Ġventilation": 29553, "ĠAnda": 40480, "Ġpersever": 29917, "Ġdevi": 31219, "hertz": 35655, "<|2.42|>": 50485, "ĠMaking": 14595, "ĠÅĽwi": 21485, "Ġclar": 6093, "week": 23188, "plant": 13067, "æĬ¥": 49817, "Ġpixel": 19261, "oby": 13944, "Ġsold": 3718, "Ġhelmets": 42022, "Ġforming": 15745, "ĠcÃ´": 35167, "Ġsendo": 22589, "BU": 41743, "Ġcorn": 9046, "Ġlangu": 2510, "ĠUSB": 10109, "Ġalguns": 20210, "ĠOri": 23621, "ĠComms": 42664, "âĢķ": 39682, "avam": 22561, "Ġ91": 31064, "Ġzam": 19876, "å§ĳ": 46563, "ãģłãģĳ": 36215, "ĠPage": 21217, "ĸìĹĲ": 28216, "Ġderechos": 47508, "orn": 1865, "Ġembry": 31588, "Ġpurchased": 14734, "ĠRoom": 19190, "Kelly": 44688, "Ġupgrading": 36249, "Ġlovely": 7496, "Ġregister": 7280, "Ġlean": 11659, "Ã¢te": 33680, "Ġdistinct": 10644, "e": 68, "ĠMozart": 42653, "ÏģÎŃ": 28788, "ĠCorpor": 19665, "Ġruim": 33871, "Ġtycker": 31053, "ufen": 19890, "Ġcr": 941, "Ġhaya": 24693, "casting": 48860, "Ġcharity": 16863, "ĠíĻĶìŀ¥": 40711, "å¸Ĥ": 27261, "Ð¾Ð½Ðµ": 25561, "Ġperce": 9016, "Ã´m": 25670, "Ð²Ð¾ÑĢ": 21087, "ĠÑģÐ¾Ð±ÑĭÑĤÐ¸": 42654, "Ġbrack": 12305, "Ġpam": 30738, "Ġpreserving": 33173, "ĠArtist": 39504, "ĠSid": 19797, "usch": 41172, "ìłĦë": 49730, "íİ": 14605, "Ġprimarily": 10029, "yle": 2072, "vio": 28226, "ĠÐ²ÑģÐµÐ³Ð´Ð°": 19087, "Ġfilm": 2007, "Ġkey": 2141, "Ġvez": 5715, "piej": 39699, "ĠìĦ¸ë": 32143, "Ġerad": 33078, "you": 5616, "Ġimpose": 26952, "ĠÑģÐ²ÐµÑĤ": 28492, "Ġcompound": 14154, "Ġohne": 15716, "Ġëħ¸ëŀĺ": 24678, "Ġswap": 18135, "åł": 10726, "Ġhatte": 13299, "Ġinformal": 24342, "Ġdetriment": 35430, "ĠInternal": 47836, "ĠìĥĿ": 6439, "Ġtraveling": 9712, "Ġhypocr": 39419, "Ġbelievers": 23125, "iÄĻdzy": 49485, "ÐµÑĢÑĭ": 24626, "ìĬ¤íĬ¸ë": 48404, "Ġworsh": 35366, "owego": 26576, "éħĴ": 37486, "Ġwer": 2612, "Ġiht": 36737, "Ġwus": 42571, "country": 39337, "cules": 11570, "ĠAÃŃ": 22175, "ĠApplication": 39512, "aze": 13660, "ĠMARC": 49433, "szych": 45021, "Ġliterally": 3736, "Ġbrutally": 48476, "<|sd|>": 50332, "Ġvictim": 6760, "Ġimagine": 3811, "ĠGodzilla": 38046, "Ġcollaborations": 36908, "Ġrec": 850, "ĠìłĦ": 6831, "W": 54, "<|10.96|>": 50912, "Ġru": 5420, "hodou": 43887, "ulars": 42891, "Ġpatents": 38142, "Ġdrought": 22900, "å¤±": 28564, "Ġ×Ľ×Ł": 44644, "Ġawe": 30912, "Ġloin": 25048, "Ġcuid": 20770, "Ġgardens": 23803, "ĠvÃ©rit": 30678, "Ġcord": 12250, "Ġexport": 10725, "..)": 23085, "Ġesse": 6755, "antic": 7128, "acing": 5615, "ĠperÃ²": 12673, "ĠÎºÎ¹": 47328, "both": 18151, "ĠLan": 17482, "Ji": 49096, "Ġnaszym": 48094, "araoh": 34788, "ĠÐ¤": 13196, "Ġestad": 39160, "ksom": 32663, "isko": 43442, "Ġsquared": 8889, "Ġlangue": 40318, "Ġcoisas": 14567, "Ġjourn": 17598, "ĠCEOs": 40736, "ĠÐ²ÑģÐµÐ¹": 43419, "Ġceram": 49678, "actively": 45679, "Ġunpredict": 28341, "Ġprogresses": 41929, "54": 19563, "Ġcylinders": 42166, "Ġcurrently": 4362, "Ġ44": 16408, "Cho": 44473, "ĠRTX": 44573, "Ĳ×": 2660, "Ġacid": 8258, "Ġoxid": 19924, "Ġreadings": 27319, "Ġcort": 11278, "acun": 34935, "ĠRevelation": 28979, "nd": 273, "ÙĥØ±": 37983, "Ġcerv": 39543, "Ġrepresentations": 33358, "Ġdinosaur": 23627, "ä½İ": 41377, "current": 49827, "ĠâĢĭâĢĭ": 8701, "ĠVol": 8911, "Ġpublicity": 37264, "ĠOok": 50081, "Ġìĭľë": 24452, "acular": 14700, "ĠModule": 48251, "Ġagree": 3986, "ĠÙħØ«": 50113, "Ġconfiguration": 11694, "Ġfingerprint": 30715, "Ġszyb": 36456, "Ġdeixar": 19701, "cheer": 43088, "ĠTh": 334, "ĠSec": 3306, "ahah": 11562, "Ġslipp": 20129, "Ġquickest": 49403, "Ġpaso": 29212, "ĠTao": 26580, "Ġspokes": 25378, "ĠÐ¿Ð¾Ð¶Ð°Ð»ÑĥÐ¹ÑģÑĤÐ°": 32518, "ĠGian": 41958, "Ð¾Ð¶Ð´": 20037, "Ġinvestors": 11519, "Ġabuse": 9852, "Ġcycl": 19474, "Ġsearch": 3164, "ĠAnnual": 46030, "Ġsociedad": 42306, "Ġbelong": 5784, "å°±åĪ°": 45918, "Ġinterests": 8847, "Ġdram": 7538, "Ġë¬¼ë": 26561, "Ġconsistent": 8398, "ulus": 26107, "ax": 2797, "Ġconsequence": 18326, "ĠCat": 9565, "Ġagric": 9682, "Ġcheesy": 32549, "Ġsaben": 36670, "ĠGT": 17530, "ĠváºŃy": 29738, "Ġcontrario": 47642, "Ġrespectful": 26205, "Ġdiesem": 10975, "Ġeventual": 33160, "ĠAlber": 26361, "fang": 19134, "Ġcast": 4193, "ĠÐĴÐ¾": 24334, "Ġconcentrating": 40571, "Ġlate": 3469, "ĠBravo": 28861, "ĠsÃ¶y": 27543, "bright": 21553, "ĠHos": 44004, "ĠWould": 6068, "Ġgosp": 37250, "âĢİ": 27867, "orse": 18699, "ĠPerfect": 10246, "ĠÐŃ": 5381, "åĿĲ": 31123, "Ġfear": 4240, "ĠSilva": 50171, "ĠíķĺëĤĺ": 12261, "Ġsurveillance": 18475, "Ġapplication": 3861, "è«ĩ": 48022, "Ġmechanisms": 15902, "ìĦľëıĦ": 29326, "Ġincumbent": 45539, "ĠValve": 41369, "ĠgroÃŁer": 46220, "Ġtuition": 23925, "Ġacuerdo": 28113, "ĠÃ©c": 15175, "<|19.36|>": 51332, "Ð½Ð¸ÐºÐ¾Ð²": 22122, "ĠmÃ³wiÄħ": 46591, "Ġcuá»Ļc": 50138, "Ġkan": 4608, "ispering": 35237, "<|10.74|>": 50901, "ĠÎ½Î±": 9083, "åıĹ": 23151, "Ġlace": 33469, "Ġcrown": 11841, "ĠÑĤÐ¾": 4572, "Ġcombining": 21928, "Ġexpressive": 40189, "Ġconclusion": 10063, "Ġensemble": 19492, "Ġmember": 4006, "Ġword": 1349, "Ð¾Ð½Ð¾Ð²": 28137, "Ġdalam": 23063, "Ġranked": 20197, "Ġentr": 8041, "Ġlle": 12038, "Ġuser": 4195, "ĠìĪĺëıĦ": 23455, "alth": 1302, "ä¹¾": 39698, "ĠMerci": 19856, "Ġproposing": 29939, "ĠSev": 28960, "iker": 17314, "ivas": 24759, "ĠspÃ©cial": 34141, "ĠBed": 19893, "ĠCuba": 20604, "¥": 98, "Ġpron": 7569, "Art": 32925, "Ġtabs": 20743, "Ġeffects": 5065, "Ġfeedback": 5824, "<|20.28|>": 51378, "adequ": 34209, "Ġunbelievably": 43593, "Ġì²«": 22707, "ĠÐ¾Ñħ": 28871, "åł±": 17803, "jin": 13970, "word": 7462, "Ġelementary": 16429, "ĠIKEA": 47728, "Ġangular": 24413, "ãģĬãģĬ": 33888, "ĠÐºÐ¾Ð½ÑĦ": 45751, "Ġoraz": 28905, "Ġintelig": 44300, "ĠBal": 13140, "Ġcleans": 16912, "Ġargument": 6770, "Ġacabar": 35041, "iÃ©n": 5770, ",âĢ¦": 42581, "Ġconclud": 9312, "ĠExport": 50130, "Ġconstra": 11525, "nu": 16241, "Ġwidespread": 22679, "Ġmotivates": 42569, "ĠTow": 33814, "Ã©ration": 27901, "Ġirrational": 39914, "Ġge": 1519, "Ġrack": 14788, "CAR": 35270, "ge": 432, "standing": 8618, "Ġparts": 3166, "ĠIvy": 38592, "æĪ°": 23209, "ĠHard": 11817, "ĠQui": 27361, "Ġsituations": 6851, "Ġ(*": 29669, "Ġcocaine": 33933, "Ġdimension": 10139, "ĠÐ·Ð°ÑĤÐµÐ¼": 45288, "ĠClinic": 37918, "Ġmurderer": 28703, "æ¬Ĭ": 40212, "ĠÐ²Ð°Ð¼": 10448, "ica": 2262, "ĠDiet": 29606, "Ġgracias": 16611, "']": 48038, "ĠDavidson": 44401, "ĠFar": 9067, "oples": 15661, "Ġper": 680, "ur": 374, "Ġtut": 3672, "ylan": 24691, "ì»": 13302, "ĠReid": 46912, "ĠZhu": 31680, "ìħ¨": 15650, "istic": 3142, "<|0.02|>": 50365, "ĠDia": 22157, "aban": 18165, "ĠST": 4904, "sur": 36054, "roe": 36177, "ciÃ³n": 5687, "Ġcorrupted": 39480, "Ġpoet": 20874, "ĠSmash": 25768, "edsiÄĻbior": 40494, "Ġminions": 39288, "ĠBaker": 25780, "shore": 27195, "uell": 13789, "ĠBet": 6279, "C": 34, "ë°©": 27630, "Ġkomplett": 32261, "Ġali": 10198, "éĥ½": 7182, "ĠThanos": 35993, "ĠdeÄŁild": 49587, "Ġbidding": 39702, "Ġindicating": 25604, "ãĤĦ": 7355, "ĠBaldwin": 46050, "Ġìĥīê¹": 44105, "Ġlib": 22854, "Ġìłķ": 4980, "Ġfly": 3603, "Ġdiss": 7802, "riers": 10525, "ricia": 28635, "ĠmÃºs": 38886, "Ġagreed": 9166, "taÅĤ": 46426, "Ġperform": 2042, "Ġtros": 45692, "ĠOrleans": 24715, "ĠÐ¿ÑĢÐµÐ·": 39838, "Ġbrauchen": 19543, "ĠModern": 19814, "Ġarada": 40479, "Ġdocs": 45623, "ãĤĤãģĹ": 49412, "hei": 42674, "Ġnast": 26088, "kte": 18844, "Ġrect": 11048, "ĠÑģÐºÐ°Ð·Ð°ÑĤÑĮ": 20636, "Ġencouraged": 14658, "ipped": 5529, "Ġfats": 29885, "ĠGrill": 43592, "Ġdile": 25623, "Ġesc": 4721, "Ġlegends": 27695, "Ġdrainage": 32973, "Ġìĸ´ë": 4863, "ĠEugene": 37059, "Ġrefuses": 33222, "ÉĻ": 7250, "Ġprojects": 4455, "Ġnoi": 22447, "<|1.94|>": 50461, "ì°®": 16783, "Ġstudy": 2979, "ouring": 40510, "Ġaccustomed": 35980, "Ġinm": 41052, "Ġinstead": 2602, "Ġhugging": 41706, "ordon": 17328, "ĠÐ²Ð½ÑĥÑĤÑĢÐ¸": 39145, "Ġadmired": 39987, "Ġzul": 43238, "Ġpenser": 38940, "ä¸Ī": 38313, "æ¥": 13387, "ĠìķĮ": 9457, "éº»": 38999, "ĠìĿ´ê²Į": 10496, "ĠÑĢÐ°Ð½ÑĮÑĪÐµ": 40442, "Ġprocedures": 13846, "Ġprotagon": 17232, "Ġlagi": 17742, "healthy": 26767, "Ġfunniest": 42681, "Ġìı": 40304, "Ġik": 4320, "Ġ140": 21548, "Ġcic": 27464, "×©×ľ": 43911, "Ġcontempt": 47202, "ksam": 28665, "ĠGrade": 44452, "ĠSpring": 14013, "Ġminor": 6696, "ĠListen": 7501, "Angel": 43643, "éĢĻäºĽ": 29869, "ĠKim": 5652, "ant": 394, "Ġqualidade": 41501, "ĠNeden": 46565, "Ġstressed": 14471, "Ġminim": 4464, "Ġona": 20325, "reb": 22692, "Ġgemeins": 22971, "ĠEarlier": 24552, "Ġglaube": 13756, ",)": 36881, "Ġcollide": 49093, "éĨ": 21038, "Ġparking": 9893, "ãĥĥ": 8276, "96": 22962, "ĠØ§": 1975, "TR": 25936, "ĠGoing": 10963, "Ġsubsidi": 48296, "Ġpronoun": 14144, "ĠHave": 3560, "Äħd": 18962, "Ġchwil": 41941, "Ġglory": 11924, "Ġthrow": 3507, "lol": 34606, "ĠÐ½Ð°Ð¹ÑĤÐ¸": 31993, "Ġ×ľ×§": 45904, "acio": 24571, "ĠÐ²Ð¿ÐµÑĢ": 32560, "anut": 35352, "pend": 18608, "ĠParkinson": 35823, "Ġspeaking": 4124, "Ġimpacted": 15653, "Ġincreasing": 5662, "aphor": 18560, "Ġpajamas": 43625, "ĠHy": 5701, "ĠnÃ³": 6604, "FE": 28182, "Ġtongues": 37490, "ĠcÃ´ng": 35451, "Ġsolutions": 6547, "ÐµÐ»Ð¾": 24846, "¤ë¥¼": 38309, "Ġsorrow": 23027, "Ġsaid": 848, "Ġdemokrat": 49432, "éķ·": 15353, "Ã§on": 17134, "ĠEagles": 48807, "ĠWhite": 5552, "åı¥": 34592, "<|28.70|>": 51799, "<|ar|>": 50272, "ĠLuk": 34992, "æķ´": 27662, "ĠFrom": 3358, "Ġflash": 7319, "attutto": 48285, "ãĤ¨": 26215, "Ġimmunity": 22701, "Ġfazla": 30611, "Ġdetox": 34904, "ÙģØ³": 36178, "ĠNE": 12384, "à¸³": 24865, "Ġentrada": 37119, "ĠNevertheless": 26554, "Ġbackdrop": 32697, "âĢ": 913, "ĠCollege": 6745, "<|17.20|>": 51224, "page": 15161, "ĠThrow": 22228, "otto": 18838, "ĠOC": 42278, "æĽ´": 19002, "ĠStella": 45073, "Ġperforms": 26213, "Ġâĸ": 29405, "Ġintersections": 47664, "Ġdick": 18659, "Ġturmoil": 44554, "xus": 32618, "Ġust": 26189, "ĠDed": 41300, "Ġinsbesondere": 48694, "<|5.90|>": 50659, "ĠÐķÐ³Ð¾": 32908, "Ġide": 1153, "ĠHugh": 25893, "Ġcambiar": 37738, "ĠÐºÐ°Ñģ": 43218, "recht": 31495, "Ġpsych": 4681, "Ġpsychiat": 26347, "ĠPixar": 46695, "Ġcommandments": 40289, "ĠVisual": 23187, "Ġrelated": 4077, "Ġvelocity": 9269, "ĠhÃ¤ufig": 47543, "ĠFRE": 26276, "Ġscripts": 23294, "Ġlived": 5152, "hehe": 23500, "Ġresides": 47157, "Ġruled": 20077, "ĠBillie": 46021, "Ġcryst": 17035, "Ġì¶ķ": 36692, "Ġnatomiast": 43169, "Ġyeux": 36163, "Ġnoise": 5658, "Ġroaming": 42680, "inement": 30229, "grass": 38663, "Ô": 144, "Ġintermittent": 44084, "ĠÅ»e": 46864, "à¸¹à¹ī": 35589, "ĠdÅĤ": 44042, "cak": 27481, "Ð¸Ð¼ÑģÑı": 32455, "Ġaccountability": 19380, "ÑĸÑĩ": 33702, "Ġcrunchy": 24942, "ĠÐ¶ÐµÑģÑĤ": 48111, "abeth": 11744, "Ġmark": 1491, "ĠNab": 45366, "Ġpris": 16163, "Ġíı¬": 17101, "Ð»Ð¸ÑĪ": 35893, "ĠÐ¾": 1000, "Ġnephew": 30799, "ĠVall": 48177, "ĠLuke": 13044, "inka": 38989, "Ð°ÑģÑģ": 12886, "ĠQuand": 22015, "ĠDone": 18658, "Ġlivro": 33545, "Ġscolded": 49283, "ĠProzent": 29726, "ĠShell": 22863, "ĠÑĩÐ°ÑģÑĤÑĮ": 24544, "ĠS": 318, "Ġìĥģíĥľ": 34210, "Ġlink": 2113, "ĠAtt": 7298, "ĠAlways": 11270, "ĠMull": 41621, "Ġ800": 13083, "ĠTrack": 31903, "ĠGreet": 18678, "ĠAdemÃ¡s": 34621, "Ġsand": 4932, "ĠkÃ¶nnen": 6310, "amour": 42921, "Ġtraitor": 39819, "ĠIO": 39839, "Ġduct": 25954, "Ġleuk": 32665, "ê¸¸": 24479, "Ġgio": 48508, "Ġlinguistic": 43002, "ĠJA": 26401, "Ġpatron": 21843, "Ġuseless": 14115, "Carl": 35203, "Ã¤ndig": 38861, "ĠLauren": 18915, "Ġpunishment": 14133, "lair": 24319, "AN": 1770, "Ġavent": 36399, "Ġinfring": 45205, "indung": 41442, "ĠPok": 14958, "Ġadelante": 40214, "ski": 18020, "Ġabst": 10823, "Ġinflam": 15987, "Ġquartz": 48280, "<|23.10|>": 51519, "Ġglaub": 23210, "ÑĤÐµÑģÑĮ": 48430, "ĠíĹ": 13431, "Ġministre": 31122, "stud": 28349, "Ġretirement": 15189, "iness": 1324, "125": 48804, "ìĥģ": 5979, "ĠThat": 663, "Ġ×Ĳ×ª×Ķ": 41254, "Ġemperor": 20255, "Woman": 14361, "ĠprÃªt": 44393, "Ġchá»ĭ": 45167, "Ð¾Ð½Ð´": 47720, "ãģĹãģı": 26568, "Ġsuperheroes": 45417, "Ð»Ð¸Ð½": 25958, "Ġflav": 37737, "ikke": 38735, "Ġentered": 9065, "Ġmover": 39945, "].": 5840, "Ġbath": 6079, "Ġleakage": 47799, "opol": 19946, "br": 1443, "ĠLing": 20977, "Ġcanon": 21985, "Ġliberties": 47241, "Ġìłĳ": 21616, "ĠBraun": 46939, "Ġexercise": 5380, "Ġgrupos": 33758, "Ġcursor": 28169, "Red": 20544, "Ġplanned": 8589, "ĠYES": 25268, "Ġtables": 8020, "Ġstudying": 7601, "Ġ2016": 6549, "Ġrespectable": 44279, "ìľ": 2472, "èĲ": 10674, "Ġdiscussion": 5017, "Ġdomu": 48465, "Ġripped": 22780, "ĠStern": 39538, "Ġphosph": 19775, "Ġcomputers": 10807, "Ġchcia": 26497, "HHHH": 18454, "Ġcrochets": 27115, "vÃ¤": 17165, "ĠëĴ¤ìĹĲ": 40856, "Ġalloy": 37819, "Ġlane": 12705, "ĠMeng": 29090, "hr": 1703, "Ġhill": 10997, "Ġsizin": 36312, "Ġprotected": 10594, "ason": 1258, "Ġelabor": 16298, "ĠLav": 30966, "Ġexplicit": 13691, "ĠCompared": 30539, "Ġirony": 35365, "Ġincons": 22039, "Ġult": 3725, "owaÅĤ": 30105, "Ġkitty": 33026, "ĠUSA": 10827, "ÑĥÐ´Ð¸": 45462, "iller": 10497, "Ġzuk": 50151, "Ġthrill": 32935, "Ġdigits": 27011, "ĠìŀĪê¸°": 48371, "Ġdermat": 43706, "ĠGol": 36319, "Ġê°ķ": 14623, "Ġmeter": 9255, "xes": 47047, "edge": 12203, "Ġreinforce": 22634, "ulas": 16968, "Ġencryption": 29575, "Ġpandemia": 33245, "ĠÃ½": 49291, "rese": 49838, "Ġapr": 10992, "<|20.20|>": 51374, "à¸ĭ": 43047, "ĠOrt": 22921, "Ġcute": 4052, "ĠÐºÐ¾Ð³Ð¾": 28985, "Ġgenerates": 23815, "Ġesca": 12663, "ĠDAN": 15331, "Ġseasonal": 27421, "Ġgj": 20249, "Ġsle": 2426, "bags": 44047, "Ġsteals": 46962, "payer": 38443, "Ġobra": 22798, "Ġbroad": 4152, "aina": 43054, "ĠDesktop": 49044, "elli": 41129, "<|20.86|>": 51407, "ìĭľë": 10426, "RE": 3850, "ĠëĦ£ê³ł": 49201, "isÃ©": 22118, "ĠnÃºmero": 14959, "ĠTamam": 18224, "Ð°Ð»ÑĮÐ½Ð¾": 10986, "<|2.92|>": 50510, "ĠYale": 26711, "oue": 41785, "Ġroller": 15948, "Ġevolution": 9303, "Ġposs": 1402, "Ġendless": 16144, "Tony": 48622, "ĠFrei": 35939, "ĠSas": 36613, "ĠDen": 6458, "ĠParr": 47890, "ogeneous": 31112, "Ġì»": 9305, "ĠMcD": 49269, "igm": 20181, "Ġculinary": 39273, "acam": 47190, "ĠVerantwortung": 43423, "ĠTensorFlow": 37624, "Ġissues": 2663, "Ġschool": 1395, "Ġidentities": 24239, "ĠPunk": 27852, "Ġflowing": 13974, "ĠEgypt": 9582, "Ġthumbs": 8838, "Ã¶z": 26698, "ĠTempl": 39563, "09": 13811, "Je": 16582, "Ġë³´ìĭľë©´": 42872, "ĠLE": 11378, "Ġposts": 12300, "ĠÑĥÐ¿ÑĢÐ°Ð²": 44080, "ĠMarines": 39331, "Ġcurric": 13179, "ĠDamit": 24495, "Ġì°¾ìķĦ": 33219, "master": 21640, "Ġvibr": 11599, "lor": 6746, "Ġmystery": 11422, "Ġpict": 2317, "Ġkw": 23846, "ĠLogic": 49898, "ĠjÃ¡": 6242, "Ġgradual": 32890, "Ġfreeze": 15959, "Ġroughly": 9810, "ologia": 24103, "Ġcabo": 41335, "Ã¶ren": 26377, "ÅĽci": 6199, "Ġteen": 8921, "ĠTransport": 22309, "ĠSpark": 23424, "é«ĺ": 12979, "Ġsched": 5292, "ĤĺìļĶ": 26057, "Ġrealmente": 14446, "Ġì½Ķë": 31512, "ĠMilan": 32874, "Ġwan": 46930, "ital": 1686, "cong": 40275, "Â°": 11782, "Ġrecycling": 23363, "INGS": 40434, "Ġtert": 38726, "akers": 19552, "ĠSenate": 9867, "Ġtril": 26120, "Ġmittlerweile": 41999, "Ġlip": 8280, "à¤¾": 17937, "Ġwaves": 9417, "ĠÅģ": 36901, "........": 18097, "ĠEducation": 10680, "ory": 827, "ĠToday": 2692, "<|27.60|>": 51744, "Ð´Ñĭ": 33275, "Ġstaying": 7939, "Ġprizes": 27350, "Ġetcetera": 22066, "payers": 35087, "wach": 50038, "<|23.84|>": 51556, "Ġnumb": 32200, "Ġcolors": 4577, "Õ«": 35188, "Ġpourrait": 25590, "hak": 37253, "Ġkeyboard": 10186, "ìŀ¡": 46179, "ĠRelations": 28663, "Ġdenken": 28780, "åĩºä¾Ĩ": 29741, "Ġglobal": 4338, "ĠÎ¾": 33179, "Ġmigrants": 31263, "pted": 25383, "Ġhypert": 37488, "ĠStrand": 47517, "Ġediyorum": 39203, "Ġconstante": 47343, "ĠÑģÐ²Ð¾Ð±Ð¾Ð´": 39021, "ĠDrive": 15622, "Ġagainst": 1970, "Ġmour": 22235, "Good": 14649, "Ġspontaneous": 32744, "ĠPeace": 13204, "mot": 29778, "ĠZac": 48082, "rylic": 24007, "Ġacronym": 39195, "å®ĮæĪĲ": 41509, "çīĽ": 40003, "Ġsouthwest": 34363, "ĠRespons": 46003, "Ð¾Ð´Ñĭ": 40445, "geben": 16702, "ä»¤": 49061, "ĠWr": 10159, "Ġlaufen": 41647, "<|12.36|>": 50982, "no": 1771, "Ġparticipating": 13950, "peare": 22446, "Ġmature": 14442, "ĠObject": 24753, "Ġsettlement": 18130, "Ġtin": 15935, "ĠMotion": 27771, "Ġconhecer": 46235, "à¸¹à¹Ī": 37805, "Ġanxiety": 9119, "Ġbeside": 15726, "ÐµÐ´": 2229, "Ġfacets": 49752, "ĠLatin": 10803, "ĠNode": 38640, "ĠìŀĲê¾¸": 45989, "Ġpreview": 14281, "Ġe": 308, "éĤĦ": 7824, "ismo": 6882, "<|15.74|>": 51151, "Ġgloss": 19574, "<|21.72|>": 51450, "Ġelevated": 23457, "Õ¸": 30165, "Ġprawda": 43607, "Ġmisses": 29394, "ĠÑįÐ¿": 43985, "à¸±à¹Ī": 48849, "ĠMark": 3934, "ĠgÃ¶t": 39630, "ĠÏĮ": 12485, "Ġlocal": 2654, "Ġclams": 46377, "ĠÐ©": 42373, "Ġoats": 43095, "now": 3785, "erta": 22765, "ĠÑįÐ½ÐµÑĢÐ³": 40804, "Ġguild": 37435, "Ġcasa": 9022, "ĠvÃ©hic": 49438, "Ġstatistics": 12523, "Ġwicked": 22663, "ENGLISH": 47997, "<|7.36|>": 50732, "ĠBeverly": 43598, "çĲĨ": 13876, "<|20.18|>": 51373, "rijk": 36360, "vale": 46583, "Ġchains": 12626, "Ġoutras": 22221, "Ġtenure": 32256, "alay": 35951, "Ð½Ð¸ÑĤ": 47264, "ĠParticularly": 32281, "Ġsay": 584, "Ġincomp": 40393, "Ġscrib": 39435, "ĠJohann": 34094, "ĠprÃ³p": 21431, "Ġinconvenient": 46196, "Ġproduto": 45823, "men": 2558, "umber": 4182, "aky": 15681, "Ġboxer": 47252, "<|14.26|>": 51077, "Ġinmates": 39479, "Ġmattress": 20625, "ĠPil": 18026, "ĠëĮ": 28088, "æĺ¯æĪĳ": 42614, "Ġludzie": 37025, "Īë¬´": 6438, "Ġcarboh": 24429, "Ġwollt": 45826, "Ġsmoother": 28640, "ĠSundays": 44857, "<|14.84|>": 51106, "Ġefic": 49510, "ĠHank": 26427, "ELL": 8763, "Ġworkshops": 19162, "houses": 29578, "Ġtheatrical": 42806, "ê²©": 15231, "Ġtecn": 20105, "Å³": 28102, "liter": 40632, "ĠMandal": 49869, "acie": 30805, "ãĤ³": 18066, "utto": 28698, "ĠClinton": 15445, "**": 4852, "uti": 29161, "Īë¥¼": 31567, "Ġbypass": 24996, "adium": 13534, "uters": 48396, "ĠÐ¿Ð¾Ð´": 4095, "ario": 4912, "Ġchips": 11583, "Ġtower": 10567, "Ġcousin": 16207, "ĠCandy": 31470, "Dad": 14599, "81": 32875, "Ġfolded": 23940, "Ġhal": 7523, "Ġcovert": 45985, "Ġsalah": 41688, "ĠÐ¿ÐµÑĢÐµÑħÐ¾Ð´": 46888, "ì§Ģë§ī": 21256, "ĠAf": 3325, "Ġsphere": 16687, "ê´ĳ": 36074, "Ġoffered": 8059, "Ġengineer": 11403, "Ġ73": 28387, "ilik": 41470, "ĠEuro": 3010, "Ġcreators": 16039, "Ġlater": 1780, "Ġawake": 15994, "BS": 8176, "Ġecho": 14300, "ĠWat": 12593, "Ġfootsteps": 26883, "explosion": 49984, "ĠAlej": 44568, "Ġfired": 11777, "ĠNet": 6188, "mooth": 30803, "osure": 7641, "Ġhoras": 19548, "ĠKindern": 43987, "Ġsuc": 1965, "ĠPalestinians": 34745, "Ġmultiplier": 44106, "ilo": 10720, "ĠValentine": 24359, "prot": 33629, "Ġridic": 9276, "Ġfaj": 34001, "ĠTage": 29724, "Ġidentity": 6575, "ìĿ´ìĭ": 41771, "Ġhah": 17206, "Ġmiejsce": 38122, "Ġtaxes": 10041, "orders": 10400, "ĠSchol": 27866, "æĪĳçļĦ": 14200, "Ġrefres": 17368, "Ġrelevant": 7340, "ĠAnim": 21691, "Ġprochain": 39389, "<|10.08|>": 50868, "Ġmistress": 46635, "Ġtehd": 44812, "ĠÐ¿Ð°Ð´": 44149, "awy": 41961, "åĵĪåĽī": 46562, "acks": 7424, "ync": 34015, "Ġbliss": 31522, "ãĥ¼ãĥł": 44265, "ĠfÃŃsica": 46436, "ng": 872, "inski": 38984, "Ġinert": 25832, "ĠDAM": 48093, "ĠPues": 22386, "Ġwine": 7209, "Ġclerk": 31402, "ÑĥÐµÑĤ": 17781, "Ġsuff": 3889, "Ã¬nh": 10116, "Ġdisappear": 11596, "Ġreopen": 33861, "Ġstage": 3233, "ĠDANIEL": 38958, "lieÃŁ": 24476, "Ġtraits": 19526, "Ġtwor": 46288, "Ġshave": 25544, "ostat": 39036, "Tom": 23442, "à": 156, "Ġhours": 2496, "Ġcholesterol": 24716, "Ġslider": 26046, "ĠBO": 22785, "<|0.96|>": 50412, "Ġskincare": 29461, "Ġtranslating": 35030, "Ġgenerator": 19265, "Ġdecimal": 26601, "ä¸ĸ": 17484, "Ġcontrat": 40944, "kell": 43723, "Ġdisappointment": 28175, "BC": 7869, "pection": 19997, "ouse": 1316, "Ġtil": 8440, "Ġiv": 32412, "ĠpiÃ¹": 10589, "Ġëĵ£": 32877, "Ġsigui": 39578, "èĥ½": 8225, "cier": 27674, "ESE": 28161, "elcome": 29504, "ugi": 24780, "Ġoccasions": 20641, "æ¯ı": 23664, "Ġì": 451, "ë¹Ħ": 39066, "Ġdeals": 11215, "Ġjuvenile": 38486, ".?": 41401, "AUDIO": 29937, "buster": 41148, "ĠFre": 6142, "Ġvess": 11800, "<|19.74|>": 51351, "Ð¸ÑĤÐµÐ»Ð¸": 29084, "Ġflor": 37342, "Ġê²ĥìľ¼ë¡ľ": 34071, "Ġpoco": 10639, "Ġskills": 3942, "Ġroutines": 33827, "Ġburial": 35751, "Ġphase": 5574, "Ġgraduation": 15652, "<|19.78|>": 51353, "×ľ×Ļ": 42468, "ç½": 16469, "ØŃÙħ": 35571, "ĠnÃ©": 7024, "ĠDakota": 22429, "Ġneces": 11909, "ulpt": 12463, "Ġescaping": 32554, "Ġhatred": 21890, "Ġwitnessed": 21519, "çŁ¥éģĵ": 7758, "taking": 48625, "ĠCaro": 37265, "cakes": 18853, "ĠíĬ¸ë": 34479, "ullah": 29605, "Ġteil": 33200, "Ġgeral": 35412, "Ġcelebrates": 47182, "Ġpathogens": 44760, "Ä±yorsun": 17520, "ougher": 26955, "Ġpressing": 12417, "Ġslick": 37406, "ĠTail": 46074, "Ġoff": 766, "hum": 14645, "ĠSci": 16942, "éģİåİ»": 36910, "Ġplaque": 36542, "hard": 21491, "Ġnaughty": 32154, "ĠÐ¸ÑģÐ¿": 11265, "å°±æĺ¯èªª": 26222, "ĠAman": 35466, "ĠAbout": 7769, "Ġperish": 41586, "gebra": 19983, "ĠConnie": 49558, "Ġaxes": 35387, "ĠÑħÐ¾ÑĤÐµÐ»": 27688, "Ġrewarding": 20063, "ĠThe": 440, "Ġjourneys": 36736, "pm": 14395, "Ġseu": 7986, "Ġresidential": 17389, "ĳĲ": 15150, "ĠLIAM": 13194, "Ġcrashed": 24190, "Ġconverts": 38874, "ĠDes": 3885, "Ġons": 18818, "Ġvalidity": 40943, "anger": 3176, "hole": 14094, "ĠìĦľ": 17397, "Ġlosers": 37713, "<|26.62|>": 51695, "Ġincremental": 35759, "<|23.06|>": 51517, "Ġcinematic": 32250, "ëĭ¤ë©´": 19826, "ĠMusic": 7609, "èģŀ": 25468, "NÃ£o": 48204, "Ã¼nÃ¼": 29598, "LY": 10940, "ĠPLAY": 8726, "inhos": 29140, "Ġanterior": 22272, "ĠktÃ³": 4695, "alis": 48581, "ÑĤ": 403, "ĠCambridge": 24876, "ĠÐºÑĢÐ°ÑģÐ¸Ð²": 26679, "Ġscientific": 8134, "ĠArch": 10984, "baar": 43468, "Ġstumbled": 36668, "áº¿n": 16240, "sters": 10130, "ĠMeet": 22963, "Ġscraps": 45204, "arrass": 8596, "ĠCOSTA": 36537, "Ġneurons": 22027, "Ġflour": 7693, "ĠNewman": 49377, "ĠMaar": 14294, "zi": 3992, "ĠSenator": 10893, "Ġllama": 23272, "istas": 14858, "ĠPun": 22574, "Ġestimate": 12539, "ittees": 23403, "ube": 1977, "é£Ľ": 34629, "rem": 2579, "Ġseparate": 4994, "Ġexclusive": 13005, "<|7.80|>": 50754, "ëĦ¤ìļĶ": 35969, "Ġinherited": 27091, "mo": 3280, "ĠÑħÐ¾ÑĩÐµÑĤ": 42175, "ĠnatÃ¼rlich": 8762, "Ġbenefited": 33605, "Ð°ÑĤÐµÐ»Ñı": 41330, "ĠGrowth": 48345, "Ġexhibited": 49446, "Ġfois": 9576, "Ġdiagnosed": 16899, "Ġpavement": 38305, "Ġlovers": 22697, "ĠArsen": 41218, "Ġrover": 45767, "ĠAlberto": 45709, "Ġbesond": 20114, "gef": 13529, "ek": 916, "Ġfoam": 12958, "Ġken": 18787, "Ġrepay": 27522, "ãģ®": 2972, "ĠÐ¿Ð¾Ð¹": 31671, "Ø¸": 19913, "Ġdaylight": 29964, "Ġequ": 1267, "Ġdeh": 36892, "Ġteachers": 6023, "Ġovere": 38657, "kar": 12303, "itis": 16074, "Ġprovinces": 32873, "idis": 40920, "ructor": 14535, "ĠsjÃ¤lv": 39298, "Ġrisks": 10888, "iet": 1684, "Ġyay": 23986, "Ġmam": 13524, "Ġteach": 2924, "Ġtorpedo": 46764, "Ġpregunta": 24252, "punk": 27133, "Ġthousands": 5383, "ç": 163, "ĠDisability": 47636, "Ġcomunic": 31710, "<|26.88|>": 51708, "<|cs|>": 50283, "Ġenthalpy": 48869, "Ġgeo": 43198, "eremiah": 38200, "Ġtrivial": 26703, "ÃŁerdem": 35957, "ĠSmells": 44355, "Ġbig": 955, "cken": 13029, "Ġhotter": 32149, "Ġbelieved": 7847, "Ġdolphins": 44835, "ĠìłĦë": 19617, "ĠSÃ¼": 25697, "inte": 12401, "Ġdelegation": 36602, "Ġspare": 13798, "Ġdesignation": 40838, "çĪ·": 43725, "Ġfinds": 10704, "course": 31913, "ĠSavior": 29310, "Ġgrabs": 30028, "Ġkindly": 29736, "Ġdictionary": 25890, "Ġwidget": 34047, "Ġfishermen": 42670, "ĠìĻĦ": 18112, "ĠëĪĦêµ¬": 36385, "ctar": 46412, "ĠÐ·Ð½Ð°ÐµÐ¼": 45491, "workers": 37101, "ĠFashion": 32782, "<|ka|>": 50329, "ĠOsman": 35390, "ĠìĿ´ìª½": 40325, "<|es|>": 50262, "ĠDigital": 15522, "ĠaÃ§Ä±l": 43236, "ĠrazÃ³n": 38310, "ĠãĢĲ": 26308, "Ġenormous": 11322, "à¤¿": 33279, "à¸Ļà¸°à¸Ħà¸°": 45084, "endre": 37850, "Ġíĺ¹ìĭľ": 34767, "Ã½": 11822, "ÑĥÐ»ÑĮÑĤÐ°ÑĤ": 27248, "Ġorchest": 14161, "Ġpiss": 15171, "ĠÐ¼Ð¾Ð³ÑĥÑĤ": 23461, "Ġhelium": 40175, "Ġinnov": 5083, "Ġadministrator": 25529, "ĠThree": 6244, "Ġnostalgia": 34618, "Ġdoctors": 8778, "ĠSav": 12346, "Ĥĺ": 3404, "<|10.70|>": 50899, "Ġcorpor": 6804, "04": 14565, "Ġlocation": 4914, "Ġwounded": 21906, "ĠAssad": 40122, "Ġenforced": 40953, "ubine": 47866, "Ġpillows": 38630, "ãģ¦": 2996, "ĠìĤ¬ëŀĮë": 18078, "Ġturnout": 42497, "Ġese": 10167, "Ġwines": 35970, "Ġ1983": 31758, "ĠÐºÐ¾Ð»": 10706, "ĠyÃ¼k": 37531, "ĠDamas": 49327, "Ġgot": 658, "ë¡Ŀ": 15016, "pex": 29420, "ages": 1660, "Ġdingen": 40870, "Ġremembering": 20719, "Ġfun": 1019, "Ġproximity": 27632, "ĠÐ¿ÑĢÐ¾Ð¸Ð·": 16769, "ÐµÐ»": 1414, "ĠCalendar": 43583, "Ġtamb": 3629, "Ġincumb": 39854, "uming": 24919, "cano": 18651, "iquement": 27703, "ãģŁãģł": 44519, "ĠBelgian": 47127, "Ġbile": 18729, "Ġdynamic": 8546, "Ġtwitch": 34167, "ulations": 4136, "very": 448, "Ġuncle": 9153, "w": 86, "Ġintra": 43358, "<|19.30|>": 51329, "iern": 49584, "Ġaccount": 2696, "Nathan": 50072, "<|25.00|>": 51614, "hÃ©s": 34913, "Ġgreat": 869, "ç°¡": 26612, "Ġcelestial": 41003, "Ġtemu": 33346, "ĠwaÅ¼ne": 46110, "Ð°ÐºÑģÐ¸Ð¼": 28630, "lama": 40868, "Ġtests": 6921, "aru": 16870, "apple": 21316, "5": 20, "Ġgri": 17865, "ĠFern": 16675, "Ġiniti": 6265, "Ġam": 669, "Å¼a": 35075, "ãģıãģłãģķãģĦ": 25079, "ĠNej": 33840, "Ġcutest": 46582, "ĠCage": 48677, "<|5.50|>": 50639, "ĠCoh": 29000, "ĠNeighbor": 47729, "æľī": 2412, "Ġtakeaway": 30681, "ä¹Ī": 6656, "ĠÑĤÐ¾ÑĤ": 23900, "åĽŀ": 8350, "ĠÑĢÐ¸Ñģ": 31393, "Ġcared": 19779, "Ġoutset": 44618, "aucoup": 8611, "ĠÈĻ": 15318, "Ġnost": 10397, "Ġprzede": 44786, "Ġdish": 5025, "abis": 22588, "Ġadul": 26885, "ĠStein": 29453, "ĠZig": 50004, "ìµ": 43910, "Ġ1000": 9714, "ĠMost": 4534, "antha": 31303, "Ġse": 369, "metros": 29570, "Gra": 37858, "ually": 671, "<|5.18|>": 50623, "Î¬Î½": 16636, "Ġdoorway": 41992, "iceps": 35552, "Ġeventually": 4728, "ĠìĦ¸": 11605, "ĠCir": 13791, "olve": 37361, "ĠðĿĺ": 42341, "zug": 29742, "ĠVan": 8979, "ĠìķĦë¬´ë": 29907, "ĠSkywalker": 49220, "Ġteachings": 21037, "åıį": 22138, "Ġblacks": 30720, "çł": 23230, "ÃŃfic": 18869, "ĠBlessed": 37501, "Ġuninter": 49234, "ä¹": 2930, "ĠWeiter": 48050, "tin": 23159, "ggak": 24116, "Ġohh": 50101, "icable": 43023, "Ġposit": 11218, "Ġblush": 25218, "Ġser": 816, "food": 35549, "ĠShopify": 43991, "ĠContain": 43732, "æľ¬": 8802, "Ġstays": 10834, "Ġantig": 44417, "karang": 28847, "ê²½": 15608, "Ġopinions": 11819, "Ġpan": 2462, "ĠJASON": 33524, "attan": 21135, "ĠVamos": 10894, "ĠAlexandria": 41943, "Ġripple": 40688, "Ġpoi": 19260, "ĠJAY": 29116, "æģŃåĸľ": 42179, "êµ¬ë": 11545, "Ġeje": 39564, "gle": 22631, "Ġfooting": 45959, "mittel": 33960, "Ġoverwhelmed": 19042, "icho": 33082, "ÑĥÑĤ": 3767, "Ġcrossing": 14712, "Ġbored": 13521, "æĪĳåĢĳ": 5884, "ĠÐ¿ÑĢÐ¾Ð´ÑĥÐº": 33873, "iba": 17036, "umbled": 19928, "é»": 6173, "ĠDist": 9840, "eth": 3293, "Ġcenter": 3056, "ãģĤãĤĮ": 30659, "Ġalert": 9615, "ç´¯": 43656, "ĠSqu": 8683, "bec": 8123, "Ġhumano": 30985, "Ġrepository": 25841, "quez": 39009, "ĠÐ¼Ð°ÑĪ": 19820, "illes": 14835, "ĠWelcome": 4027, "Ġfilmmakers": 35018, "owing": 9637, "sent": 49315, "<|10.98|>": 50913, "ĠÑĤÐ¾Ð±Ð¾Ð¹": 38068, "<|24.84|>": 51606, "<|17.04|>": 51216, "Ġpunt": 18212, "Ġnoss": 24970, "estones": 34853, "around": 25762, "Ġconsistently": 14961, "æĢİéº¼äºĨ": 46139, "<|4.94|>": 50611, "gent": 6930, "Ġramen": 20948, "ĠBudget": 33751, "ef": 5666, "ĠVatic": 36268, "Ġdioxide": 19590, "Ġweren": 4999, "Ġexplanation": 10835, "Ġcherish": 38277, "Ġencompass": 28268, "Ġnotebooks": 43782, "ĠÅ¼": 19625, "<|27.92|>": 51760, "ĠÐ°Ð²": 14376, "éļĽ": 34837, "isme": 16415, "inner": 19166, "ĠVancouver": 26563, "Ġoper": 2208, "Ð¾Ð´Ñĥ": 35749, "ĠChristianity": 17326, "Ġwob": 33775, "ìĹĲ": 1517, "Ġmonkey": 17847, "Ġvoix": 37188, "ĠMist": 20166, "Ġfuck": 3275, "ĠWak": 45077, "ĠÑģÐ¿ÐµÑĨÐ¸": 25665, "Ġdynamics": 15679, "Ġpillars": 26729, "Ġmaid": 30410, "ĠInte": 21525, "Ġlion": 17226, "Ġtutoring": 44410, "ÑĢÑĭÐ²": 17702, "Ġmusician": 19570, "ĠBoot": 37263, "ĠÈ": 36726, "³¸": 18588, "ĠRank": 35921, "ìķ¼ì§Ģ": 38623, "ìķĦë": 23733, "Ġcapitalist": 31354, "ĠMyers": 45088, "ĠëĨĵ": 28747, "ĠEsse": 18814, "gging": 10877, "Ġrating": 10990, "ĠMiguel": 29150, "Ġvertical": 9429, "ĠÐ»Ð°Ð¹": 35475, "è¿ĻéĩĮ": 35102, "ĠFlip": 28210, "Ġbelongs": 12953, "Ġtractor": 31857, "Ġbends": 42990, "onom": 12481, "ĠDestroy": 41719, "Ġrecommends": 34556, "Ġfeathers": 27044, "chuckling": 32312, "å·": 5238, "ÙĪÙĨ": 11536, "ĠPractice": 27904, "Ġë¶ĦìľĦ": 49712, "ĠUsually": 11419, "Ġbeni": 19723, "oto": 6738, "Ġrecreational": 37554, "Ð¸ÐºÐ¾Ð¼": 48740, "Ġmadre": 32966, "nity": 28120, "ĠGrab": 20357, "Ġmanages": 22489, "ĠVideos": 25903, "ĠGesetzentwurf": 42040, "gon": 10660, "Ġsquish": 31379, "cart": 44672, "Ġeman": 28211, "ĠmyÅĽlÄĻ": 37730, "Ġlineage": 38257, "æīį": 18888, "Ġlegg": 30991, "Ġlibre": 29976, "ĠColon": 21408, "¦¼": 15773, "Ø§Ø·": 41193, "ioned": 37579, "Ġunint": 29466, "éĽ": 6306, "ĠWhilst": 45790, "ĠExercise": 44307, "Ġpathetic": 35506, "íĺ¼": 35731, "INTERPOSING": 46873, "ĠAgriculture": 35966, "ĠPear": 45461, "Ġminha": 11720, "Ġpropulsion": 49375, "ĠGW": 36704, "Ġsing": 1522, "Ġpean": 14882, "Ġavaient": 38703, "Î´": 8385, "Ġrepres": 2556, "horn": 31990, "Ġ×ŀ×Ĳ": 26295, "asc": 4806, "ĠëĲ©ëĭĪëĭ¤": 23630, "Ġsenses": 17057, "Ġrebo": 26802, "ĠSK": 21483, "chod": 29914, "ĠpÃºblica": 38905, "ĠCatholics": 36333, "Ġdisorder": 13399, "ĠKerry": 28528, "Ġokay": 1392, "ĠcoÅĽ": 19241, "operation": 43493, "Ġups": 15497, "ÏĦÎ¬": 19389, "Ġdissolve": 30150, "itters": 38873, "Ġdispose": 42537, "ĠAndy": 13285, "Ġtutte": 38632, "reon": 12751, "Ġlies": 9134, "ĠLad": 12106, "Ġconveyed": 49340, "Ġ1970": 14577, "gov": 16089, "Ġhighest": 6343, "Ġfinal": 2572, "Ġlandfill": 47031, "iscilla": 49413, "Ġpokemon": 41161, "Ġtuna": 26670, "ĠJeep": 31748, "éĻ³": 45769, "forth": 44779, "Ġclarify": 17594, "Ġhydro": 15435, "ĠSw": 3926, "Ġappointed": 17653, "ĠEin": 6391, "Ã¤v": 35585, "ĠÅŁunu": 45821, "ê²ĥ": 12735, "ĠDonald": 8632, "ĠArri": 45188, "Ġ×¤": 13323, "ĠØ·": 23032, "icos": 9940, "ony": 2526, "Ġinvert": 33966, "Ġyep": 18633, "zego": 27725, "ĠBase": 21054, "hil": 42829, "Ġexplicar": 26682, "Ġdisplacement": 21899, "Ġguerre": 31400, "çı¾åľ¨": 12648, "ĠJuly": 7370, "ativ": 10662, "ĠSanskrit": 44392, "ĠogÃ³le": 29229, "Ġell": 8284, "And": 5289, "ĠÃ¼Ã§": 29630, "Ġwords": 2283, "ĠSabb": 34003, "Ġmachst": 43350, "Ġtreating": 15083, "<|22.92|>": 51510, "ĠBuild": 11875, "Ġlenses": 18059, "Ġsno": 43287, "Ġvaccine": 7007, "ĠRecords": 31928, "ĠDaniel": 8033, "Ġconceptual": 24106, "auso": 32310, "ĠChampionship": 24310, "Ġelectronic": 10092, "wid": 17697, "Ġtastes": 8666, "Ġsafeg": 32358, "ĠSchulen": 41909, "ahan": 21436, "Ġhas": 575, "ĠLands": 30527, "Ġredundant": 40997, "Ġgeneric": 19577, "itect": 5739, "Ġtraced": 38141, "ì§ĢëıĦ": 39871, "Ġthief": 23176, "Ġsonra": 13800, "Ġtragedy": 18563, "ĠÐ½Ð°ÑģÑĤÐ¾Ð»ÑĮÐºÐ¾": 47779, "Ġpassat": 50050, "ĠPeanut": 48069, "Ġpum": 48842, "ĠìŀĪìľ¼ë©´": 35783, "ĠbÃ¶r": 21175, "Ġpurchasing": 20906, "ĠPero": 9377, "Ĭ¸ë": 28699, "ĠCambodia": 47347, "Ġ1997": 22383, "Ġsimultaneously": 16561, "roy": 4460, "Ġpreval": 22239, "ĠcomÃºn": 45448, "<|17.90|>": 51259, "igenous": 11214, "up": 1010, "ficiente": 26863, "ĠDude": 12042, "Ġlij": 42158, "ãģ£ãģ¡ãĤĥ": 41380, "Ġeating": 3936, "Ġrepeats": 35038, "izers": 22525, "Ġgraffiti": 40531, "å¸ĮæľĽ": 29955, "ĠAngeb": 44301, "ÐµÐ²Ð¸Ð´": 44278, "ãĤī": 5154, "odles": 35192, "ĠBuddhism": 24744, "Ġrefusal": 48948, "olph": 31154, "Ġcoloca": 41231, "Ġsei": 10842, "achelor": 15173, "ĠInformationen": 46753, "Ġsoldier": 15632, "Ġanda": 21851, "ĠÐ³ÑĢÑĥÐ¿": 27530, "ãģ¸": 29440, "åł´": 21446, "ĠRecovery": 35254, "Ġcorrect": 3006, "ĠSpirit": 7218, "ãģķ": 6722, "ĠDabei": 39606, "ents": 791, "ĠìĥĪë¡ľ": 32594, "Reporter": 35918, "OOK": 24213, "ĠBee": 31141, "Ġseniors": 21069, "ĠYan": 13633, "ĠTotal": 23170, "ĠKrist": 19562, "Ex": 11149, "ĠBlake": 23451, "ĠYOU": 7928, "dong": 29368, "Ġly": 17293, "Ġhinge": 28822, "ĠHOY": 46120, "Ġrotten": 31977, "ĠDark": 9563, "Ġíķĺì§Ģë§Į": 23286, "Ġisot": 38018, "ġ": 221, "Ġmmm": 26159, "Ġbater": 25735, "Ġfiles": 7098, "Ð¾ÑĤÑĢÐ¸": 30936, "ĠwÅĤ": 34696, "Ġpued": 10947, "Ġcrypto": 17240, "Ġgag": 34833, "Ġblink": 24667, "ĠwÅĤaÅĽciwie": 50108, "Ġgeht": 7095, "Ø§Ø": 5718, "ĠÐ¿Ð¾Ð¼Ð¾Ñī": 22301, "Ġallen": 18440, "Ġcl": 596, "Ġviewers": 8499, "ĠRainbow": 29477, "<|zh|>": 50260, "ĠChile": 22238, "Ġregional": 10964, "Ġinterpersonal": 47102, "ĠPump": 32863, "CP": 20049, "ĠMILL": 48070, "è¨´": 28953, "iros": 21633, "ĠUmwelt": 48900, "Ġweakness": 12772, "Ġcrystall": 31924, "ĠDownt": 44386, "Ġupdate": 5623, "Ġnib": 38956, "Ġjul": 30764, "Ġpacing": 43285, "ussia": 39942, "Ġdescribes": 15626, "iles": 4680, "èĹ": 21782, "Ġalgorith": 7028, "Ġcooking": 6361, "Ġheroin": 35551, "Ġmineral": 21630, "ª©": 27523, "ĠCort": 28522, "encing": 13644, "ã": 159, "Ġintervention": 13176, "ĠíĶĦë¡ľ": 27758, "ĠìĤ´ì": 15482, "Ġnonsense": 14925, "Ġproposal": 11494, "ĠGrÃ¶": 45778, "Mat": 42325, "Ġê´": 8214, "Ġcrypt": 9844, "inÃ¤": 32097, "Ġwing": 11162, "ĠBing": 30755, "ìľ¼ë": 3336, "lift": 29814, "Ġaltri": 33707, "Ġextrapol": 48224, "Ġëĭ¹ìĹ°": 43424, "åŁ": 16262, "ĠìĿ´ê±¸": 27107, "Ġwyk": 39287, "ĠÐĵ": 7247, "Ð¾Ð¼Ñĥ": 4161, "Ã¼st": 44244, "Ġreach": 2524, "æľį": 27408, "gra": 20735, "<|6.54|>": 50691, "chest": 11762, "ĠParad": 28527, "ĠThought": 23058, "Ġdisast": 42103, "ĠÐ¾ÑĤÐ½Ð¾ÑĪ": 30708, "ìĹĲê²Į": 15989, "ĠOut": 5925, "Î¼Î±Î¹": 47861, "ĠUnknown": 32766, "Ġãģ¾ãģĻ": 45194, "Ġsomeplace": 37126, "Ġdam": 2422, "ÑĸÑģ": 32738, "Ġfemme": 27427, "uto": 8262, "ĠEffects": 34515, "ĠEngineers": 43950, "Ġunderneath": 7223, "Ġrenamed": 40949, "Ġdemise": 45982, "Ġartery": 38520, "Ġthrottle": 24235, "Ġcuer": 18363, "rage": 16223, "ĠCamera": 23734, "ĠApache": 46597, "ÑĥÐ¿": 6907, "Ġsteer": 30814, "Ġmitigation": 32649, "Ġfavorite": 2954, "ĠrÃ´le": 41681, "Ġenters": 18780, "Ġlevers": 45571, "Ġcomunidad": 35695, "ĠJude": 36521, "ĠOH": 13931, "ĠArt": 5735, "Ġgerne": 15689, "uded": 23285, "ead": 2056, "Ġsulla": 33625, "Ġìł": 1647, "Ġtelescopes": 46051, "mu": 20140, "Ġfrustration": 20491, "Ġmia": 21290, "rone": 26446, "ĠFlat": 36172, "é»ĥ": 39214, "ĠSe": 1100, "çħ": 17867, "ĠDepression": 33044, "ĠgÅĤos": 43767, "Ġpizzas": 44037, "ãģ«": 4108, "Ġ28": 7562, "Ġdavon": 18574, "Ġmillimeter": 17942, "ĠResources": 29706, "onen": 32923, "ĠÐ»ÐµÑģ": 42548, "Ġdysfunction": 32002, "Ġhago": 38721, "resse": 22603, "isations": 47791, "prowad": 35019, "æıĽ": 36338, "Ġneedle": 11037, "ĠÑĶ": 28669, "¸Į": 21934, "Ġrepetitive": 29404, "ãģªãģı": 40252, "liÅĽmy": 38452, "ĠsÃ©curitÃ©": 37600, "cych": 31306, "Ġseasoning": 23421, "ĠShoot": 19760, "áº¥": 6785, "ĠÐŀ": 3688, "hÃµes": 31819, "Ġinstitutional": 18391, "<|21.10|>": 51419, "Ġmedically": 49230, "ÃŃ": 870, "ĠíĳľíĺĦ": 34232, "urm": 26717, "Ã¤ren": 21465, "ĠRa": 7591, "Ġshort": 2099, "Ġludzi": 29586, "ĠLac": 40113, "ĠLimited": 43231, "Ġdesenvolv": 47835, "Ġknights": 48218, "Ġstone": 7581, "ĠíĮ¬ë": 47132, "Ġniche": 19956, "Ùĩ": 3224, "ĠGRÃľ": 21100, "<|1.50|>": 50439, "cession": 29881, "Ġawfully": 47976, "ĠsÄĥ": 15446, "ĠLe": 1456, "ĠìĹ°": 11839, "ĠFund": 13493, "Ġeasier": 3571, "Ð»Ñı": 2873, "<|7.84|>": 50756, "ĠAside": 33726, "icamente": 23653, "ĠÙħØ§": 19446, "Ġvá»Ľi": 18916, "Ġcoping": 32893, "ĠSophie": 29645, "chuckles": 12927, "ĠbÃ¶": 41715, "Ġbroccoli": 29044, "Ġthreaten": 29864, "ĠSab": 13915, "geord": 36161, "ĠMete": 43328, "ĠRobinson": 25105, "Ġvino": 48841, "ÑıÑĤÐµÐ»ÑĮ": 37764, "Ġfeast": 23707, "Ð°Ð½ÑĮÑĪÐµ": 35159, "Ġì¹ĺë": 38366, "Æ°á»Łng": 49301, "ĠVoice": 15229, "Ġrespectively": 25009, "<|23.60|>": 51544, "ĠPortuguese": 22759, "Ġë³´ìĿ´": 48189, "Ġsovereign": 28756, "åħ¶": 9572, "Ð¾Ð·Ñı": 43734, "Ġrealization": 25138, "ĠWow": 3153, "Ġinstructors": 28367, "Ġpawn": 30905, "ĠDom": 16674, "ĠPanama": 41202, "ĠÑĨ": 5188, "Ġgekommen": 32732, "Ġabout": 466, "ateral": 17274, "Ġtoutes": 14437, "<|6.86|>": 50707, "Ġhung": 5753, "<|17.94|>": 51261, "Ġmuffin": 48400, "ominous": 44581, "Ġprevail": 46059, "Ġseiz": 27610, "ĠMR": 9808, "bage": 9742, "ĠElijah": 36147, "Ġihr": 5553, "Ġdinero": 27923, "Ġresonates": 41051, "Ġentity": 13977, "ĠÐ³Ð¾": 6778, "Ġgw": 29255, "ĠTruth": 20522, "íķ´ìĦ¤": 34716, "green": 27399, "Ġbege": 41832, "Ġkit": 8260, "ĠSimpson": 38184, "Ġstyling": 27944, "Ġmotorcycle": 20554, "<|18.82|>": 51305, "×ª": 5548, "å¤ī": 40931, "ĠBur": 7031, "Ġnotation": 24657, "ugar": 8307, "Ġindigenous": 15511, "ĠScientific": 47437, "apper": 34456, "Ġ....": 13368, "Ġsecretary": 15691, "Ġaromatic": 45831, "Ġdiligent": 50251, "Ġfabrics": 32424, "ĠTi": 20456, "ĠêµĲ": 24915, "Ġhat": 2385, "verts": 36999, "Ġseldom": 47717, "rogen": 7747, "Ġtrag": 38282, "ĠGÃ¼n": 50225, "Ġreferences": 15400, "ĠdonnÃ©es": 40101, "Ġdoctr": 46040, "Ġaspirations": 32458, "Ġvirtuous": 48918, "Ġ=": 6585, "ãģĹãģĭ": 32156, "ĠÐ¿ÐµÑĩ": 44875, "enti": 23012, "anych": 34644, "ĠiPhone": 7252, "Ġleben": 26392, "Ð¾Ð²ÑĭÐµ": 44238, "Ġclimb": 10724, "Ġautistic": 33272, "Ġìĸ´ì¨": 46478, "Ġsnug": 37069, "Ġ×ŀ×¡": 32904, "ĠRab": 16781, "ĠíĬĢ": 49470, "Ġca": 1335, "ĠDise": 30161, "Ġgiorno": 42202, "Ġíĺĳ": 46977, "Ð½Ð°": 1931, "quel": 20593, "meye": 18631, "Ġintr": 17467, "ĠMik": 16380, "åıĥ": 47375, "Ġchair": 6090, "Ġbarn": 18492, "Ġdestination": 12236, "yorum": 5826, "Ġlecture": 7991, "Ġcivic": 29089, "ĠCraft": 29991, "Ġenfants": 22649, "å°İ": 25647, "ĠÐļÐ°Ðº": 11011, "ÑĸÐº": 27281, "wu": 30627, "sna": 28045, "Ġhacerlo": 32039, "Ð°ÑİÑĤÑĮ": 40381, "ions": 626, "Ġadrenal": 26511, "Ġkinderg": 24514, "ĠÑģÐ¸ÑģÑĤÐµÐ¼": 24067, "ìĹħ": 11534, "ĠGut": 24481, "reck": 14954, "Ġgreatness": 31196, "ĠMax": 7402, "ĠëĤĺê°Ģ": 37011, "cles": 6520, "Ġrel": 1039, "nÃŃ": 28988, "Ġencuent": 23708, "íĬ": 5963, "aciÃ³n": 3482, "Ġpassion": 5418, "<|21.74|>": 51451, "ĠDuring": 6842, "Ġstrive": 23829, "Ġaffiliate": 23975, "Ġrester": 37197, "bike": 30283, "Ġcareer": 3988, "ĠDank": 14148, "ĠYani": 14262, "á»įn": 47246, "èĳĹ": 19382, "Ġzosta": 23154, "ymm": 32497, "×Ļ×ļ": 25988, "zw": 14406, "ely": 736, "ĠKeys": 43733, "Î¯Î±ÏĤ": 45281, "<|25.76|>": 51652, "Ġadvertisements": 42897, "è¢«": 23238, "ĠÑģÑģÑĭÐ»": 41480, "Ġpreced": 16969, "entre": 24570, "<|23.92|>": 51560, "Ġbred": 34133, "Ġcolonies": 27981, "irteen": 27114, "Ġexcer": 42760, "Ġperme": 30287, "Ġvengeance": 43818, "ĠÑģÐµÑĢ": 14490, "Ġstarve": 46755, "<|11.48|>": 50938, "ĠtÃ¤ll": 37728, "hai": 18230, "Ġcess": 47052, "Ġkimchi": 21656, "enas": 11581, "ÙĬØ¹": 40228, "íĸĪëĬĶëį°": 42168, "Ġzen": 37097, "interpret": 41935, "ĠÐ²Ð½ÐµÑĪ": 50025, "Ġëĸ¨": 27436, "Ġreckon": 29548, "ä¸ĭæ¬¡": 35829, "Pods": 39720, "MAN": 11866, "Jeff": 33887, "ĠnÃ³i": 27508, "ĠtatsÃ¤chlich": 20796, "íķĺìĦ¸ìļĶ": 15377, "Ġ×Ļ": 8128, "ĠControl": 12912, "Ġowns": 19143, "è¶³": 37236, "ĠÃ¶yle": 16528, "Ġnouve": 11456, "Ġdecades": 7878, "Ġ×": 877, "ĠMint": 36188, "Ġpolynom": 22560, "Ġunderworld": 49607, "Ġnun": 8905, "ĠVerfÃ¼gung": 43026, "Ġbever": 46524, "Ġisolation": 16001, "<|20.60|>": 51394, "Ġcadre": 39546, "ĠBabe": 44127, "Ġ1948": 38833, "ĠPr": 2114, "Ġgemacht": 12293, "aide": 41980, "Ġhaver": 41912, "Ñı": 681, "Ġsinful": 41861, "ĠHari": 47221, "Ġtransformed": 16894, "Ġbran": 12029, "Ø¨Ø±": 26890, "Ġfils": 46190, "ĠSa": 6299, "Äħt": 23430, "Ġonda": 45671, "Ġ!!!": 25901, "ĠzdjÄĻ": 49026, "Ġenjo": 27803, "ĠvÃ¦re": 27458, "Ð¸ÑĤÐµÐ»ÐµÐ¹": 29952, "aryn": 39008, "áº¯t": 31454, "ĠSUR": 37269, "ĠÑģÑĤÐ°Ð»Ð¾": 39633, "ĠMAY": 28996, "Ġsun": 3295, "Ġinversion": 43576, "ĠEveryone": 5198, "ĠÐ½Ð°Ð²ÐµÑĢ": 23237, "Ġincentiv": 35328, "Ġscandal": 27922, "Ġplataforma": 46243, "Ġpremi": 11222, "Ġthrough": 807, "Ġbrows": 8333, "Ġgrandson": 31657, "×¥": 45966, "ĠÐ²Ð°Ñģ": 10655, "ĠÐ¾Ð¿ÑĢÐµÐ´ÐµÐ»": 39305, "ĠProdukt": 44599, "Ġmeinen": 22738, "<|29.54|>": 51841, "Ġcontemporary": 14878, "Ġnghi": 46889, "ĠScholars": 33846, "ĠÐ¼ÑĭÑĪ": 45009, "ĠFair": 12157, "Ġconvenience": 19283, "Ġsuka": 39076, "Ġpraising": 42941, "Mr": 10554, "Ð¸ÑĤÑĭ": 43608, "ĠMeow": 42996, "Ġupside": 14119, "ĠnÃ¥got": 36586, "æİī": 29327, "erem": 7333, "ke": 330, "Ġwired": 27415, "Ġtechniques": 7512, "Ġconfidence": 6687, "Ð°Ð¼Ð°": 27250, "ĠÑģÐ¾Ð³": 33255, "Ġhebben": 12116, "Ġskating": 29103, "ĠRis": 30897, "ĠÑģÐºÐ¾ÑĢ": 17575, "ĠSno": 42902, "Ġfic": 14591, "ĠEspaÃ±a": 31729, "Fil": 39933, "ĠWordPress": 23239, "Ġformats": 25879, "Ġsafely": 11750, "ĠBears": 50180, "Ġingred": 5621, "Ġenforce": 24825, "ĠJUSTIN": 41987, "Ġpojaw": 30655, "<|7.00|>": 50714, "essel": 47166, "Ġmal": 2806, "Ġtrustworthy": 39714, "itudes": 16451, "Ġescal": 17871, "Ġoptics": 42599, "ā": 189, "yes": 2346, "ĠTw": 2574, "Ġwra": 7843, "Ġqualifying": 41793, "ĠtÃ¤Ã¤": 38350, "Ġconstellation": 42336, "Ġgenauso": 37694, "vo": 3080, "Ġbra": 1548, "çĿ": 14221, "Ġcrushing": 31317, "ĠDepot": 45445, "estab": 33542, "Ġquota": 45171, "Ġbudget": 4706, "Ġbooking": 34424, "ĠvÃ¥ra": 41042, "Ġbrid": 16362, "çĥ": 23661, "ĠOft": 37112, "nten": 14970, "Ġlambda": 13607, "min": 2367, "ĠDown": 9506, "estion": 31342, "Ġtemporada": 41983, "à¸ŀ": 17297, "ØŃØª": 33753, "answer": 43904, "MAND": 39468, "ĠPR": 11568, "Ġlanguages": 8650, "Ġprostu": 19518, "Ġdescription": 3855, "Ġmassively": 29379, "ĠSoutheast": 27906, "Ġconditioner": 33558, "Î³Î¿": 40761, "Ġentrepreneurship": 26582, "Ġvoyez": 31503, "ĠgÃ¼Ã§": 48015, "Ġìĭłê¸°": 47958, "pu": 34859, "Ġrival": 16286, "Ġinscre": 27824, "elets": 37220, "Ġfiling": 26854, "ĠGimme": 48047, "çģ£": 25157, "verstÃ¤nd": 36068, "Ġhelfen": 29966, "Ġabbiamo": 22815, "Ġtheirs": 22760, "Ġkissing": 29495, "Ġpoliticians": 14756, "ring": 2937, "wife": 32779, "Ġretrospect": 34997, "Ġtyp": 2125, "<|23.30|>": 51529, "Ġìĭ¤ìłľë¡ľ": 46399, "riÃ¨re": 22166, "Ġdrop": 3270, "orar": 42967, "ĠMethod": 25285, "Ġaffairs": 17478, "wn": 895, "chte": 10553, "ĠÑħÐ¾ÑĤÑı": 30988, "Ã¼ÄŁ": 22719, "GU": 32298, "Æ°á»£": 12725, "Æ°á»Ŀi": 14531, "Ġpasta": 13296, "otechnology": 43594, "style": 15014, "Ġotherwise": 5911, "uw": 36824, "Ã´t": 8775, "Ġheures": 28509, "No": 4540, "ĠZukunft": 22782, "Ġspool": 48884, "mares": 32760, "Ġmatt": 16539, "<|hy|>": 50312, "Ġchurch": 4128, "æĥľ": 48199, "Ġnove": 26972, "Ġcontroller": 10561, "Ġevolved": 14178, "Ġtsunami": 39032, "ĠSap": 49287, "ĭ": 233, "--": 918, "Ġbree": 20082, "Â»,": 21606, "Ġung": 29038, "Ġà¤¹": 37139, "Ġautoc": 45833, "dig": 25259, "Ġknob": 26759, "ĠSN": 13955, "ravel": 33085, "Ġprosecutors": 40030, "Ġì¡°ë": 42707, "Ġpilots": 21506, "Ġathletes": 13820, "Ġmerciful": 48756, "Ġspiritually": 33430, "Ġrein": 6561, "Ñħ": 1157, "Ġents": 12834, "Ġever": 1562, "Ġconnections": 9271, "Ġchoking": 48540, "bere": 18582, "Ġsapp": 46938, "Ġvur": 40797, "Ġaqui": 3871, "Ġpressure": 3321, "´ìŀ¥": 47992, "Ġmig": 6186, "è¾": 9830, "Ġprag": 33394, "ĠÏī": 46653, "Ġlaboratories": 41013, "ĠFoster": 38756, "ĠParents": 33990, "ĠMann": 16892, "Ġtopics": 8378, "Ġstuk": 46042, "Ġsadly": 22023, "ĠTill": 20227, "culosis": 49379, "ijah": 32630, "Ġrepertoire": 49604, "Should": 38580, "aka": 7849, "Ġboard": 3150, "ĠRogers": 29877, "ĠSinne": 47041, "ĠRodrig": 25904, "oo": 1986, "ĠSigma": 36595, "Ġeven": 754, "<|24.38|>": 51583, "ĠMississippi": 20347, "ĠìķĬ": 6718, "ĠÐ±ÑĸÐ»ÑĮ": 47692, "ĠÐ¾ÑīÑĥÑī": 44966, "<|2.18|>": 50473, "ĠÑĢÐµÑģ": 39836, "Bill": 49783, "Ã¢n": 9667, "ĠSuzuki": 49457, "GH": 4269, "Ġthriving": 30643, "éĹ´": 31685, "Ġcoaster": 28442, "enden": 8896, "ĠGren": 24913, "ounter": 47489, "Ġsubscribing": 19981, "Ġongoing": 10452, "ĠMaÃŁnahmen": 36626, "Ġinitial": 5883, "<|18.10|>": 51269, "Ġwarmed": 38201, "Ġ×ķ×Ķ": 28628, "ÐĴÐŀ": 40311, "ê·¸ëłĩ": 40650, "ĉ": 197, "Ġprosecut": 21015, "<|27.90|>": 51759, "Ġfiber": 12874, "Ġgustado": 45221, "ĠSaya": 16568, "ĠAnakin": 47218, "Via": 46477, "æĪĳåľ¨": 40528, "ĠÑģÐ°Ð¼Ð¾Ð³Ð¾": 42264, "Ð³Ñĥ": 28264, "Ġobvious": 6322, "Ġgratuit": 38342, "Ġwaving": 35347, "Camera": 48009, "Ġmonks": 32201, "ĠCath": 8764, "Ġtires": 13885, "ĠÑģÑĥ": 18272, "Ġgadget": 38090, "Ġwarto": 31830, "Ġdiscrimin": 20828, "<|23.98|>": 51563, "Dam": 37442, "ãĥ³ãĥ": 14121, "Ġenforcement": 11475, "Ġpeaks": 26897, "Ġdessert": 14593, "Ġmounts": 40982, "ĠRicardo": 42634, "Ġheightened": 46154, "cous": 39939, "Ġfaith": 4522, "ÐµÐ·Ð¶": 32682, "Ġtouched": 9828, "Ġah": 3716, "ĠCHA": 35732, "Ġrasa": 41493, "bokki": 31487, "ĠInstead": 7156, "Ĥ¬": 9915, "Ġcarry": 3985, "Ġada": 11063, "<|14.58|>": 51093, "Ġcorri": 47908, "ĠlÃ³g": 48475, "Ġglossy": 38285, "Ġinher": 9484, "Ġproblem": 1154, "Ġsoul": 5133, "Ġpalms": 30819, "paper": 22104, "Ġexhausted": 17992, "<|7.88|>": 50758, "which": 13690, "Ġëª©": 20433, "Ġbloody": 18938, "Ġblues": 24244, "Ġchol": 20961, "<|0.16|>": 50372, "Ġprueba": 48241, "Ġtails": 28537, "ĠMEL": 38005, "Ġinvestigations": 25582, "While": 46075, "Ġcollisions": 46537, "ĠÃ¶ld": 35419, "ĠIsaiah": 27263, "Ł¬ìļ´": 40537, "Ġhav": 26139, "Ġfid": 24553, "cert": 48999, "{\\": 35000, "<|10.94|>": 50911, "Ġconceive": 48605, "Ġcena": 41777, "ĠHarbor": 33740, "osaurus": 49366, "ĠFriday": 6984, "ĠDogs": 35504, "Ġkilling": 8011, "iliyor": 34845, "Ġdetector": 25712, "amas": 19473, "allen": 31181, "ssÃ¤": 18403, "gram": 1342, "ĠÑĢÐµÐ±ÐµÐ½": 41417, "Ġ30": 2217, "ëĤ": 8580, "wich": 9669, "ni": 3722, "Ġlado": 11631, "<|26.40|>": 51684, "Â¿": 25073, "åºĹ": 22469, "ĠMush": 38188, "Ġassist": 4255, "Ġrang": 32434, "ham": 4822, "ĠRepresent": 19945, "ophone": 32561, "Ġmulher": 33211, "<|5.32|>": 50630, "ĠÃº": 6991, "Ġcros": 28108, "ysics": 41732, "Ġslows": 35789, "ĠthÃ©": 30448, "ĠYOUR": 25166, "Ġaccountable": 18024, "ĠLouisiana": 25413, "ĠëĿ¼ëĬĶ": 49121, "Ġdominated": 23755, "Ġaffected": 8028, "atus": 37926, "ĠClose": 16346, "Inter": 13406, "ĠÐ¿ÐµÑĢ": 4321, "Ġperks": 36991, "ĠCarry": 44168, "Ġeye": 3313, "Ġeyel": 13197, "ĠMole": 46914, "ĠÑįÐºÑĢÐ°Ð½": 41643, "Ġpantry": 40689, "Ġdisagreement": 38947, "Ġhour": 1773, "esehen": 18380, "ĠDayton": 44718, "ĠSebastian": 31102, "Ġentrar": 20913, "Ġmuá»ĳn": 42453, "Ġseparately": 14759, "Ġfinale": 23510, "ilians": 21738, "irdi": 36455, "åıĶ": 39936, "mate": 13963, "comes": 9055, "rot": 10536, "rophy": 40826, "erus": 37287, "Ġconsumes": 48823, "Ġnoch": 3514, "<|9.88|>": 50858, "Ġmedios": 46017, "ĠÑĢÐ¾": 49493, "Ġkingdom": 10231, "ĠFac": 17667, "æĻĤ": 6611, "Ġrehabil": 26043, "ronting": 45507, "Ġdove": 23287, "ĠMV": 17663, "aime": 24461, "Ġconduction": 43842, "post": 23744, "çº": 16853, "Ġ53": 21860, "ĠHitler": 19038, "Ġmontage": 40184, "filled": 35596, "Ġpas": 1736, "...âĢĭ": 26980, "ondu": 31295, "ĠØ¹ÙĦÙĬÙĩ": 47356, "Ġflesh": 12497, "ĠÐ´Ð°Ð»ÑĮÑĪÐµ": 26814, "ĠÐ¿Ð¾ÑĩÐµÐ¼Ñĥ": 21513, "ĠHoch": 29193, "ĠmilhÃµes": 39252, "Ġleggings": 42733, "ĠHardy": 43930, "para": 48978, "Ġlong": 938, "aur": 3463, "Ġincom": 14036, "ĠAbove": 32691, "bi": 5614, "Ġliquids": 38960, "defined": 37716, "Ġrenov": 18845, "Ġcatches": 25496, "<|25.66|>": 51647, "Ġframework": 8388, "ĠMM": 34191, "ense": 1288, "Ġlives": 2909, "ĠÐ²ÑĤÐ¾ÑĢÐ¾Ð¹": 36128, "Ġmillet": 47722, "Ġson": 1872, "IDE": 29283, "ĠAnother": 3996, "Ġquas": 49625, "ĠMagaz": 25994, "Ġfoundational": 32195, "kem": 29597, "Ġillustrated": 33875, "ĠÅ¼ad": 39628, "born": 10324, "ĠLev": 28471, "Cs": 33290, "Ġdenn": 10471, "Ġbarking": 32995, "ĠTanz": 42420, "ĠÐ¿ÑĢÐ¾ÑĨ": 20640, "Ã±as": 32448, "æĽ²": 30753, "Ġfeas": 21781, "æĢ¥": 36379, "<|0.84|>": 50406, "Ġenerg": 10575, "ĠFrance": 6190, "æĵĬ": 37813, "ĠCongress": 6426, "ĠìĻĦë": 36683, "ĠVar": 14662, "Ġequations": 11787, "stand": 1115, "Ġheights": 25930, "ĠPetersburg": 42367, "Ġschizophrenia": 49022, "ĠBolt": 37884, "cl": 3474, "Ġbreat": 3656, "ĠZie": 46340, "Ġtroubled": 29402, "ĠSpeaking": 13069, "hhhh": 15242, "Ġgeared": 35924, "James": 32263, "val": 3337, "Ġconsolidated": 49008, "tycznie": 45586, "Ġcot": 26529, "³Ð¾": 1444, "Ġcommunicating": 17559, "Ġcompreh": 10753, "Ġagency": 7934, "Ġobliged": 47194, "Ġstorage": 6725, "Ġswallow": 20099, "Christian": 46580, "Ġprecedent": 37388, "éĩı": 26748, "Ġmolt": 10739, "Ġnighttime": 38595, "yi": 8461, "Ġcoup": 8682, "Ġliqu": 5664, "<|26.52|>": 51690, "Ġhangs": 35947, "ativo": 18586, "made": 10341, "Ġviewing": 17480, "Ġê²ĥëıĦ": 25942, "Ġsimplistic": 44199, "ĠìĽĲë": 20884, "Ġgauge": 17924, "ĠÐ½Ñĸ": 46645, "Ġefect": 22565, "Ġoverc": 40027, "ĠMy": 1222, "ĠActive": 26635, "ait": 1001, "<|8.56|>": 50792, "Ġtang": 10266, "ĠSeÃ±or": 35054, "ĠAfter": 2381, "Ġmetabol": 19110, "Ġgamble": 44128, "brevi": 34471, "Ġconverting": 29942, "ÏģÎ¬": 17750, "Ġsketch": 12325, "isis": 28436, "à¥ĭ": 33926, "ĠFederation": 27237, "building": 28126, "/": 14, "ĠMen": 6685, "ĠÐ·Ð¼": 48979, "Ð½Ð¸Ñħ": 21070, "ĠkÃ¶tÃ¼": 38456, "ĠuÅ¼y": 34097, "immer": 14477, "Ġìŀł": 15825, "ska": 20771, "Ġsubdiv": 45331, "ĠQuran": 19375, "Ġcoun": 3465, "ĠÃºnica": 30104, "acaks": 23825, "Ġbesar": 48327, "Ġinserting": 46567, "Ġmetal": 5760, "ĠOS": 12731, "ĠGRA": 26121, "ĠAndrea": 24215, "Ġdemais": 36879, "Ġê±¸ë¡ľ": 41636, "urry": 30614, "ize": 1125, "ĠPS": 8168, "ĠdÃ©mocr": 47146, "Ġsheet": 8193, "Ġnominee": 37170, "Ġdesarrollo": 38295, "ons": 892, "ĠBagh": 45487, "Ġfootprints": 45715, "Ġreception": 21682, "beeping": 43616, "ĠtravÃ©s": 24463, "ĠCompan": 31827, "Ġthoughts": 4598, "Ġdunk": 33555, "Ġ?": 2506, "Ġlogical": 14978, "ĠConvers": 33247, "ãģĻãģĶãģĦ": 34161, "ÐµÐ½ÑĤ": 5243, "Ġpeux": 14844, "<|5.58|>": 50643, "Ġbeetje": 27459, "Ġê²ĥìĿĦ": 32746, "ĠVID": 47619, "atori": 39842, "<|9.74|>": 50851, "ĠSalvador": 32586, "èĪĪ": 44089, "Ã³": 812, "ado": 1573, "ĠQuÃ¨": 31951, "ĠbÄ±rak": 24179, "Ġfeh": 34741, "Ġì½ĺ": 43875, "æĪĸèĢħ": 31148, "ĠMinute": 33509, "Įë": 2457, "nap": 37252, "Ġmasala": 35614, "ÙĦ": 1211, "eler": 6185, "achte": 26136, "Ġfindet": 27752, "Ġmessenger": 26599, "ĠfÃ¼nf": 28723, "å±±": 24113, "ç¬¬": 7536, "Ġbounded": 37498, "Ġpir": 13528, "ĠElementary": 33099, "à¸¶": 25819, "ĠDIRECTOR": 35929, "101": 47520, "Ð°ÑĤÐµÐ»ÐµÐ¹": 47573, "<|26.38|>": 51683, "itus": 30973, "Ġpaths": 14518, "ours": 5067, "ĠOwner": 43290, "Ġresonate": 34285, "<|17.58|>": 51243, "ĠWyoming": 30810, "Ġchosen": 8614, "Ġvillain": 17906, "olare": 43141, "Ġpromising": 20257, "ù": 181, "Ġunsuccess": 40501, "ĠBeim": 45113, "Ġìŀ¬ë¯¸": 37723, "forcement": 9382, "ĠAuth": 40231, "ĠSteuer": 44250, "ĠÐ²Ð¿Ð¾Ð»Ð½Ðµ": 46780, "Ġpatients": 4209, "ĠArts": 12407, "ĠÙĬØ¹": 37495, "Ġasthma": 33409, "Ġbottle": 7817, "ruct": 1757, "Ġê°ľ": 14552, "ĠVen": 11182, "ĠEM": 16237, "ĠDos": 33474, "Ġtunnel": 13186, "idel": 16189, "ĠBier": 50222, "ric": 1341, "ĠMaj": 7048, "íķĺì£ł": 48967, "Ġcamer": 38946, "<|1.80|>": 50454, "ystem": 9321, "Ġobviamente": 36325, "ÐºÐµ": 8222, "Ġteh": 32991, "Ġseminars": 43112, "ĠMarcel": 34738, "Ġsiege": 34147, "Ġnothing": 1825, "ĠKnow": 10265, "ĠMARY": 37640, "Ġrainbow": 18526, "<|7.46|>": 50737, "vable": 17915, "<|16.56|>": 51192, "ĠMetall": 49447, "ĠGalile": 46576, "á»Ĺ": 35857, "Ġorders": 9470, "ĠSalem": 49619, "Ġrazor": 30478, "Ġurging": 48489, "Our": 24466, "oured": 16439, "ĠÃ©qu": 25830, "Ġê°Ģê¹Į": 44913, "Ġexposing": 33178, "Ġ#": 3536, "ĠEliot": 44023, "ĠPhot": 13919, "Ġdecent": 8681, "one": 546, "ä¸Ńåħ±": 25093, "Ġoatmeal": 47223, "oque": 29743, "æ¤": 38739, "Ġcilantro": 43626, "ints": 8654, "Ġhun": 7396, "ĠÐ¿ÑĢÐ¸ÐµÑħ": 38567, "ucch": 32621, "ĠBron": 19544, "Ġbooked": 26735, "ĠëģĿ": 13932, "Ġtema": 15854, "Ġhob": 12959, "Ġtooling": 46593, "éĢ": 2215, "ĠAllied": 45620, "...?": 8964, "om": 298, "ĠTrans": 6531, "ĠnÃ¤m": 17534, "ĠChelsea": 26527, "ĠAO": 40684, "Matt": 23483, "Ġì»¬ëŁ¬ë": 39177, "Ġolsa": 44655, "ĠWars": 9818, "ĠUh": 4019, "Ġmodeling": 15983, "Ø¦": 19986, "è§ģ": 23813, "Ġprotection": 6334, "Ġhumility": 27106, "atorium": 41679, "ĠIndex": 33552, "Ġfluor": 40540, "Ġpuerta": 48597, "Ġsulph": 47286, "ĠÐ½Ð¾Ð³": 31538, "Ġrunners": 33892, "Ġfuer": 17669, "Ġtaxi": 18984, "Ġretro": 18820, "<|26.86|>": 51707, "Ġìĭ¤í": 37403, "Ġwrites": 13657, "ĠÐ¸Ð½ÑĤÐµÑĢÐµÑģ": 15033, "Ġwavel": 22144, "Fun": 46947, "ĠvardÄ±r": 41312, "<|21.90|>": 51459, "Ġcircuit": 9048, "ĠWoo": 10468, "Ã©r": 4198, "<|5.30|>": 50629, "Ġbrainstorm": 35245, "iot": 6471, "×¨×ļ": 48214, "Ġì§Ģê¸Ī": 7356, "Ġwaktu": 44782, "åĭĻ": 39517, "uckland": 33717, "Ġtyle": 39293, "Ġrelationships": 6159, "plete": 17220, "Ġvents": 40048, "Ġmodifications": 26881, "Ġsorte": 25559, "Ġkel": 31332, "<|4.64|>": 50596, "Ġabstraction": 37765, "kÅĤad": 15317, "Ġwrapper": 46906, "Ġcelle": 25722, "ĠGRANT": 30204, "Ġgrup": 12740, "ÃŃa": 2686, "ĠÅĽm": 46991, "ĠìĿ¼ë°ĺ": 47057, "Å¡ÃŃ": 48651, "ĠFOR": 15174, "oid": 17079, "ĠÐ±Ð°ÑĤ": 47697, "ĠLock": 16736, "Ġelev": 7701, "Ð¾Ð»ÑĮÐ·": 11692, "ĠÐ¼Ð°Ð³": 27120, "joint": 48613, "ĠAtari": 41381, "Ġredirect": 29066, "Ġvot": 3478, "ĠFurther": 15364, "ĠÐ¾Ð³": 33309, "ĠChad": 22268, "Ġtej": 12573, "Ġporta": 28598, "Ġsed": 9643, "ĠCamb": 29287, "ria": 4668, "Ġeverybody": 2201, "<|25.02|>": 51615, "<|9.96|>": 50862, "åĦĦ": 25459, "ĠFinnish": 38429, "million": 40388, "åĳĬ": 16846, "flows": 33229, "Ġterus": 35977, "rac": 12080, "çĶ»": 27126, "ĠMichel": 23709, "raft": 4469, "Ġcima": 22586, "ÑĤÐ¸": 3396, "Ġstrip": 12828, "Ã³n": 1801, "Ġnatuurlijk": 26892, "ÐµÑĩÐ½Ð¾": 11693, "ĠÑĥÐ±": 13853, "Ġquoting": 41552, "ĠSchul": 21223, "ĠíĪ¬": 27256, "izzard": 31062, "Ġterminar": 36246, "isser": 23714, "Ġsect": 22610, "ĠÑĢÐ°Ð±Ð¾ÑĤ": 9197, "ĠRosen": 33630, "ayo": 48947, "Ġconvention": 10286, "ungs": 5846, "Ġspeechless": 48450, "Ġnac": 42071, "iban": 23586, "Ġrelent": 34045, "Ġconfir": 9186, "Ġowe": 16655, "hen": 2932, "ĠArsenal": 49156, "ĠMake": 4387, "ĠÑĢÐ°Ð´Ð¸": 34748, "Ġeyebr": 15713, "åı°çģ£": 29152, "Ġê¹Ķë": 48693, "Ġjong": 38678, "Ġmuscles": 9530, "Ġdesperate": 17601, "Ġdrives": 11754, "E": 36, "ä½¿": 22982, "Ġimaginar": 49048, "ningen": 23137, "icting": 21490, "mble": 8737, "iÃ¨rement": 29922, "Ð¿Ð¾Ð²": 35723, "ĠMiles": 27384, "colored": 42820, "ru": 894, "Ġsadece": 32945, "Ġreleased": 4736, "ìłľë": 33893, "was": 6569, "ĠSiber": 42608, "Ġaudiobook": 40031, "ĠëĪĪ": 15333, "dal": 36694, "ĠSexual": 45449, "ĠAnd": 400, "Ġë¹łë": 36351, "Äĥ": 4089, "lusion": 6485, "Ġcats": 11111, "<|1.58|>": 50443, "Ġczas": 13190, "Ġë¨¹ìĸ´ë": 28428, "front": 11496, "ÏİÎ½": 31195, "Ġemployers": 16744, "Ġswimming": 11989, "Ġà®Ĵ": 37240, "íĺķ": 17453, "Ġtrends": 13892, "ĠDoch": 21533, "ĠÐ¼ÐµÑĪ": 44874, "ĠNav": 9219, "ĠGram": 22130, "ema": 5619, "buzzer": 24845, "haul": 39423, "Ġexchanges": 27374, "Tr": 14252, "Ġregular": 3890, "ued": 5827, "Ġheap": 33591, "Ġspeed": 3073, "ŀĸ": 47812, "Ġresearch": 2132, "Ġsoaked": 27368, "OSSTALK": 39624, "ĠÐ¿Ð¾ÐµÑħ": 49519, "ĠkÃ¶": 15881, "--------": 22781, "ÑģÐºÑĥÑİ": 43159, "Ġsupervised": 46533, "Ġmeg": 10816, "iciÃ³n": 15534, "ĠÐ²Ð°ÑĪ": 14536, "Ġpaycheck": 35639, "Ġeater": 40362, "<|3.64|>": 50546, "Ġdawn": 18192, "Ġclinic": 14947, "..\"": 25275, "adores": 11856, "<|5.00|>": 50614, "ĠëĬĲëĤ": 11796, "ìĭľìĹĲ": 41570, "<|9.64|>": 50846, "Ġfinals": 25526, "Ġfolklore": 49195, "ĠSer": 4210, "Ġdrink": 2822, "ĠCongratulations": 9694, "ient": 1196, "passen": 44270, "Ġ2010": 9657, "ĠBre": 7090, "ĠSl": 6187, "ĠBloomberg": 40363, "Ġrain": 4830, "<|4.72|>": 50600, "kop": 43855, "ĠPolize": 30735, "ÎµÎ¹": 6452, "Ġfors": 32299, "Ġspending": 6434, "Ġconnecting": 11015, "aurais": 44608, "¬¸": 8357, "ĠÑħÐ¾Ð´": 23571, "Ġpersuade": 31781, "ÑĢÐ¾Ð´": 10004, "Ġslic": 12377, "Ġblueberries": 43722, "G": 38, "Ġrighteous": 16153, "och": 8997, "ï": 171, "Ġmedic": 4355, "Ġì¶Ķ": 17435, "Ġpistol": 25385, "Ġfasting": 22371, "ĠBetween": 18967, "ĠLuck": 16627, "Ġsmartphone": 13307, "ìľ¼ë©´": 10819, "allow": 13253, "Ġgoing": 516, "BRUN": 17442, "ĠÐºÐ°Ð¼": 21477, "Ġstrat": 23674, "Ġhamb": 25172, "..]": 23548, "ĠAlternatively": 46167, "ĠEx": 2111, "Ġuniform": 9452, "Ð½ÑĥÑĤ": 35643, "ISTINCT": 40578, "aco": 11428, "ĠContent": 30078, "Ġacost": 44126, "Ġdobre": 41959, "jÃ¤n": 48365, "ĠPreviously": 33606, "åİ": 5014, "Ġmemoir": 38306, "Ġwithout": 1553, "ĠTJ": 46402, "ĠÐľÐ¾Ñģ": 32327, "Ġnaszej": 42946, "ĠNobody": 9297, "Ġcuts": 9992, "Ġinfamous": 30769, "ĠÃĦ": 13700, "owych": 19605, "ĠIX": 49497, "Ġbushes": 34303, "ĠEcho": 31887, "Ġmigrated": 48329, "Ġthough": 1673, "<|7.08|>": 50718, "iggle": 19694, "Ġê°ĻìķĦìĦľ": 48084, "Ġpartnering": 31290, "Ġcomponents": 6677, "Ġháº¿t": 44414, "Ġwhilst": 18534, "text": 25111, "á¹Ľá¹£": 34726, "umi": 17800, "Ġbandits": 49043, "ĠADAM": 34938, "Ġìĺ¤ë¥¸": 46673, "ä¸įçĶ¨": 24384, "õ": 177, "ĠRh": 16111, "Ð¸ÑĨ": 27403, "<|29.44|>": 51836, "à¸µà¹Ī": 12774, "ĠlazÄ±m": 23951, "ç¿Ĵ": 34025, "jÃ¤hr": 49418, "isÃ©s": 47151, "Ġextremely": 4664, "Ġcategory": 7719, "Ð½Ð¸Ð¼": 8444, "Ġsurt": 18622, "ĠOder": 20988, "Ġcoding": 17720, "ardi": 38126, "Ġsuction": 40431, "Ġmex": 28759, "/.": 48550, "Ġdisposition": 40293, "ÑģÑĤÐµ": 27492, "ÐµÐ½Ñĭ": 16148, "Ġmob": 4298, "åĬĽ": 13486, "Ġleftover": 27373, "ĠTob": 26350, "<|9.10|>": 50819, "...)": 10050, "ĠprÃ©sident": 29654, "Ġknock": 6728, "Ġrá»ĵi": 19908, "Ã©rer": 21824, "Ġauthoritarian": 37883, "ãĤĬãģ¾ãģĻ": 19420, "Ġrazem": 40225, "Ġancestor": 40032, "ees": 4031, "ĠNavy": 15659, "Ġdatos": 27721, "Ġblankets": 38710, "ĠFinance": 25765, "Ġflood": 10481, "Ġbread": 5961, "Ġroaring": 36231, "äºĭæĥħ": 24675, "Ent": 42837, "ĠÃ¼zerine": 43816, "levant": 25638, "ÑĢÐ¾": 9938, "Ġedible": 30666, "éł": 8313, "cho": 5738, "Ġgiá»Ŀ": 28689, "×¡": 11996, "Ġtourism": 21832, "inki": 41917, "ĠLee": 6957, "Ãºp": 44492, "ĠPE": 24346, "ki": 2984, "psilon": 16592, "ĠEvans": 30055, "Not": 15208, "idays": 13177, "é¬¼": 37911, "ĠhÃ¤r": 6533, "inky": 22998, "Ġho": 1106, "Ġbriefing": 28878, "itor": 3029, "Ġsuffered": 12770, "Ġaccountant": 43898, "ĠAsian": 10645, "phet": 8999, "à®£": 15297, "Ġsociedade": 45789, "æĴ": 20559, "<|9.16|>": 50822, "Ġwillkommen": 46439, "ossip": 27971, "ĠCent": 3408, "<|20.90|>": 51409, "Ġbeliefs": 13585, "Ġrichness": 44506, "Ġlocated": 6870, "Ġrou": 18450, "<|15.00|>": 51114, "ĠÐ±Ð¾Ð»ÑĮ": 7351, "ĠEastern": 12901, "Ġê°Ģê²©": 41162, "rea": 12057, "Ġinventor": 41593, "Ġdisplays": 20119, "Ġcommentaires": 46663, "ĠÑĢÑĥÐºÐ¸": 39304, "Ġdebe": 27422, "ĠSus": 9545, "ìĸ´ì£¼": 29946, "ĠÐ½Ð¸Ð¼": 25793, "ĠAgreement": 40572, "<|21.84|>": 51456, "Ġembarrassed": 16843, "Ġbouncy": 49704, "Ġendeavor": 34975, "Ġ68": 23317, "ĠcioÃ¨": 41827, "Ġtrophy": 28639, "mal": 5579, "Ġngh": 29338, "lease": 1122, "Ð¾Ð±Ñĭ": 6379, "making": 12402, "Ġbreakfast": 8201, "Ġhypothesis": 17291, "Ġcush": 18422, "Ġplausible": 39925, "ĠJan": 4956, "ĠSaturday": 8803, "ªħ": 8792, "Ã±o": 7716, "ĠCMS": 33124, "íĤ¨": 37035, "Ġpointless": 32824, "<|11.28|>": 50928, "ĠYeah": 865, "ĠSingh": 27529, "ĠPlanning": 29308, "ubers": 19581, "Ã¥": 1330, "éĿŀ": 12107, "Ġmouse": 9719, "Ġzombies": 24230, "uitive": 48314, "Ġcin": 6539, "Ġslog": 49760, "raÃ§Ã£o": 37864, "Ġrhet": 24182, "ĠDU": 28423, "ativos": 36945, "Ġhaga": 46726, "czne": 38491, "Ġstruggled": 19023, "Ġbold": 11928, "isphere": 31048, "Ġ×Ķ×": 3723, "dling": 35543, "ANA": 21429, "ĠPic": 25895, "Ġsurgery": 7930, "Ġbeasts": 37386, "Ġëª¨ë": 8941, "Ġbriefly": 10515, "ĠëĴ¤": 19798, "atoon": 37586, "ĠWa": 15405, "Ġfand": 38138, "VIN": 27487, "çĻ": 6651, "Ġsummer": 4266, "ospel": 11190, "ĠTony": 10902, "Ġ:": 1982, "Ġneurot": 43286, "Ġunless": 5969, "ĠOpening": 41137, "Ġwide": 4874, "annie": 43433, "ĠUnf": 8170, "uccess": 16461, "Ġnelle": 46350, "Ġhabil": 36565, "ount": 792, "reib": 38606, "Ġknees": 10546, "ĠMex": 6496, "ĠConstitution": 14505, "Ġhypotheses": 49969, "Ïĥ": 3786, "ĠJEFF": 30214, "Ġconstruct": 7690, "UL": 10253, "Ġradi": 16335, "Ġprogression": 18733, "ĠBass": 29626, "<|24.18|>": 51573, "Ġprivile": 8670, "Ġsieht": 14289, "undert": 34267, "ĠFitness": 45750, "Ġorthogonal": 41488, "Ġcompromise": 18577, "Ð¾ÑĤÐ°": 26808, "Ġgur": 40642, "å¹": 3509, "Ġestablished": 7545, "Ġwires": 15537, "ĠÑĥÐº": 32546, "Ġagricultural": 19587, "light": 2764, "?'": 8569, "Ġpartially": 18886, "LO": 20184, "ĠSleeping": 49618, "ĠHalo": 29795, "ulating": 12162, "ĠRegina": 48407, "da": 2675, "ĠCuz": 27017, "Ġginger": 14966, "assis": 25844, "iny": 3519, "Ġbrowsing": 38602, "Ġadminist": 4968, "Ġsket": 32804, "ENTE": 30752, "ĠTechnologies": 46993, "Ġë¦¬": 28227, "Ġdepuis": 16062, "ĠFinished": 48188, "Ġkle": 9318, "ĠFrankly": 41344, "Ġattrib": 9080, "Ġolives": 46746, "reshold": 14214, "ĠRedmi": 47766, "ĠSituation": 22247, "Ġchunks": 24004, "Ġwork": 589, "ĠÐºÐ¾": 3898, "Ġphysique": 37058, "Sun": 42455, "ĠÐ¡Ð¿": 19349, "Ġrapping": 44333, "Ġsweating": 25438, "inally": 19801, "frist": 48754, "isconsin": 17659, "ĠPassion": 45554, "Ġexploded": 27049, "issors": 13839, "Ġproduits": 38866, "Ġhigher": 2946, "Ġinstability": 34379, "ourage": 44720, "ĠcontrÃ´le": 46518, "Ġactress": 15410, "ĠnÃ¤chsten": 19101, "Ġstud": 972, "Ġparl": 13734, "LED": 23459, "Ġblessing": 13869, "Ġcompliments": 35468, "á»ķi": 38704, "æ¯Ķè¼ĥ": 25174, "Ġsurveys": 22711, "Ġë®": 45388, "ìĿ´ëŀĳ": 21949, "urpose": 31345, "ĠF": 479, "ĠAustralia": 7060, "ide": 482, "Ġformally": 25983, "ê·¸ëŀĺ": 44959, "ãĤ¿ãĥ¼": 30736, "ying": 1840, "Ġartists": 6910, "Ġjets": 35124, "<|1.98|>": 50463, "ĠParce": 20429, "Ġinad": 42148, "Ġpassive": 14975, "ŀ": 252, "ä¾ĭ": 17797, "ĠQueensland": 36913, "izo": 19055, "Ġla": 635, "Ġcoat": 10690, "Ġhate": 4700, "Ġamino": 24674, "Ġprzyp": 41780, "ICK": 12141, "Ġmatch": 2995, "Ġjunge": 47877, "position": 38078, "Ġanalyzed": 28181, "Ġconjun": 18244, "ìŀĪ": 8425, "avilion": 39388, "Ġsare": 38706, "Ġbasketball": 11767, "ĠSchne": 30343, "Ġdiscourse": 23938, "Ŀ¤": 35156, "Ġgraduate": 8080, "¦": 99, "Ġtempt": 13794, "Ġschne": 28643, "Ġ×ľ×©": 35769, "ĠUnters": 30240, "Ġloving": 9344, "éĻ¢": 38358, "Ġinterrog": 24871, "Ġgegangen": 44415, "ĠCliff": 33638, "Ġgour": 46651, "Ġprior": 4059, "Ġcustoms": 27330, "Ð¾Ð²Ð¾Ð¹": 29825, "ĠrÃ©cup": 43113, "II": 9503, "åĩºæĿ¥": 44561, "Ġimprovement": 10444, "Ġabges": 49848, "Ġoverlapping": 33535, "Ġcommands": 16901, "\")": 17830, "enta": 8938, "abei": 12449, "Ġcommittee": 7482, "wall": 16256, "orney": 10423, "Ġmounted": 19138, "Ġthirds": 34552, "Ġpresence": 6814, "Ġclassified": 20627, "ĮĢ": 3638, "Ġunlikely": 17518, "ÃŃvel": 13185, "Ã§a": 5297, "Ġfitted": 26321, "Ġremarkable": 12802, "ĠMat": 6789, "Ġthroughput": 44629, "ĠNan": 18852, "Ð¤": 35753, "Ġclicks": 18521, "Ġuplift": 45407, "ges": 2880, "ÑĢÐ°Ð²ÑģÑĤÐ²": 33186, "Ġreunion": 34720, "Ġapplauding": 15865, "Ġrifle": 18008, "holders": 12916, "org": 4646, "Ġremotely": 20824, "Ġevil": 6724, "ieten": 25868, "ĠÈĺi": 41820, "still": 40306, "Ġseizures": 44215, "ĠMaryland": 19939, "pack": 9539, "uren": 9873, "Ġcentro": 24607, "ĠQuiet": 32193, "ĠWorkshop": 48366, "prove": 46955, "Ġextrater": 43324, "ĠJENN": 35635, "Ġgenom": 41441, "Ġalarms": 45039, "Ġess": 2097, "Ġpublications": 25618, "astically": 22808, "Ð´Ñĥ": 9031, "ĠCons": 6923, "lica": 44266, "Ġforeigner": 42764, "ished": 4729, "Ġelite": 17801, "ĠJake": 15822, "ĠRalph": 28131, "build": 11516, "ĠÃ©crit": 41700, "ĠWh": 506, "Ġimperfect": 26714, "All": 7868, "Ġ--": 1350, "ĠìķĮê³ł": 31935, "ĠValent": 17961, "Ġpositioning": 26381, "natural": 16296, "ĠSteph": 31418, "ĠTax": 23263, "Ġsigue": 34532, "ĠXi": 15712, "Ġfus": 34326, "ĠChain": 33252, "Ġlanz": 38363, "ĠCivic": 46237, "Ġbased": 2361, "Ġlamb": 10097, "Ġfle": 7025, "Ġbee": 17479, "Ġmuit": 4146, "Ġëĭ¤ëĭĪ": 46240, "Ġmasks": 11830, "<|26.16|>": 51672, "Ġë²Ī": 10212, "ĠYE": 21760, "Ġfrying": 24596, "Ġabund": 14809, "ujÄħ": 13263, "Ġvont": 14362, "ĠCincinn": 45323, "low": 14107, "Ġreferring": 13761, "jam": 24267, "N": 45, "ĠlÃ¡": 7453, "ĠRPG": 22614, "Ġogni": 33189, "Ġcaso": 9666, "ARON": 43191, "lied": 39459, "ĠPap": 15919, "Ġperfection": 19708, "bilir": 30959, "Ð±Ð¾": 18670, "Ġnaturale": 40877, "sight": 28654, "Ġdescending": 40182, "cling": 12455, "czas": 30989, "ĠÎ¼Î¹Î±": 38170, "Ġcocktail": 26382, "azo": 29722, "Ġllam": 16848, "Î¼Î¿": 31188, "ids": 3742, "áº¥p": 47176, "Ġrelation": 9721, "Ġfate": 12738, "ĠCast": 11019, "Ġgosh": 6502, "ĠAssociate": 28520, "ĠÐ¢Ñĭ": 14509, "ĠìĦłë": 22218, "ĠidÃ©": 39227, "Ġolhar": 37446, "Ġmerge": 22183, "Ġaff": 2096, "Ġomin": 46812, "Ġconsomm": 47688, "ĠWendy": 21850, "unken": 39071, "susp": 31065, "ĠBeng": 29425, "Ġuniqueness": 48294, "Ġroads": 11344, "<|16.66|>": 51197, "Ġskirt": 20134, "Ġ\"'": 24543, "ĠOt": 12936, "ĠAlright": 2798, "rence": 10760, "ĠArmor": 44679, "balanced": 40251, "Ġlandscapes": 29822, "ailleurs": 19400, "ĠsÃ¶yleye": 35881, "ĠAfghanistan": 13658, "hing": 571, "ĠNative": 15093, "ÑĢÐµÐ½": 29428, "sy": 3187, "ĠëĬĲ": 34378, "Ġthr": 739, "Ġthink": 519, "rule": 44197, "Ġrings": 11136, "ĠInstitute": 9446, "Ġwithdrawn": 48151, "<|18.16|>": 51272, "ĠëĪĦë": 30225, "Ġfella": 49820, "ĠìĽĲ": 13499, "Ġach": 2800, "Ġà®ļ": 14337, "Ġì¢Ģ": 6796, "ÏģÎ¿Ïį": 43103, "Ġ1917": 42757, "itable": 16772, "Ġiyi": 16173, "Ġsurrender": 22185, "Mich": 18462, "ĠLinux": 18734, "ĠprÃ³prio": 36394, "Ġ???": 29678, "Ġgel": 4087, "YO": 28821, "Ġperceber": 49376, "Ġmelts": 30136, "ERO": 37494, "Ġseism": 40159, "Ġquel": 7178, "03": 11592, "Ġdetermined": 9540, "ĲëıĦ": 22983, "Æ°á»Ł": 48443, "<|11.22|>": 50925, "rew": 2236, "kehr": 22833, "Ġpounds": 8319, "Ġstagger": 29656, "Ġconclude": 16886, "Ġì¢ĭìķĦ": 10805, "Now": 13267, "<|8.88|>": 50808, "Ġexpanding": 14702, "ĠGiul": 38679, "lax": 25923, "<|22.68|>": 51498, "Ġbattery": 5809, "opolit": 39176, "ãĥĴ": 46995, "Ġcooker": 31476, "ä¸įçŁ¥éģĵ": 17572, "ç«Ļ": 34155, "ĠIKE": 46492, "Ġambitions": 34475, "Ġdummy": 35064, "Ġlined": 17189, "ĠCro": 18965, "ĠÐ¿ÑĸÐ´": 26419, "leist": 46820, "ven": 553, "QU": 26078, "¨¹": 26741, "Ġelections": 12870, "~)": 25010, "Ġaging": 19090, "<|23.18|>": 51523, "Ð²Ð¾": 12707, "ĠKazu": 41038, "Ġmultiplayer": 27325, "ĠrealtÃł": 47512, "Ġten": 2064, "Ġmend": 31161, "Ġê·¸ë¦¼": 43170, "rest": 4149, "ĠëĨĴ": 25015, "Ġ270": 40774, "arken": 38962, "ĠÐ¢Ð°Ð¼": 27451, "aÅ¼": 18264, "ĠÃ´": 24107, "drum": 38301, "Ġerfahren": 49472, "Ġsurrendered": 48802, "Ġíķĺë": 5832, "Ġmolta": 48564, "ishops": 48056, "Ġspar": 45954, "ĠprÃ³ximo": 21177, "cream": 30277, "ĠÐ¿Ð»Ð¾Ñī": 44633, "Ġsenate": 33609, "caster": 42640, "aux": 7511, "Ġdane": 49206, "Ġbanco": 45498, "ference": 5158, "Ġmagn": 4944, "Ġconfident": 6679, "íĬ¸ë": 18903, "Ġdeswegen": 26482, "Ġpairing": 32735, "ane": 1929, "ĠJÃ¡": 21237, "ĠXP": 33984, "au": 1459, "Ġphilosop": 9237, "Ġaveraging": 47308, "Rich": 44654, "Ġcloves": 39139, "esp": 13361, "Ġchiff": 37627, "iese": 39158, "thms": 42945, "Ġpollut": 43415, "ĠUlt": 9523, "Ġport": 2436, "ĠTrip": 33141, "ĠÐ½Ð¾Ð¶": 46718, "ĠFlow": 32792, "Ġrisque": 37574, "åŃ©åŃĲ": 48989, "ĠCreek": 24200, "Ġice": 4435, "Ġphosphate": 46542, "ĠBRAND": 41466, "ringe": 38895, "Ġsegue": 33850, "Ġalternating": 40062, "ĠFerr": 25443, "]:": 6844, "ÐµÑĢÑĤ": 21768, "ĠTolkien": 48824, "Ġabundant": 30657, "Ġchefs": 30191, "Ġ200": 2331, "Ġ×ĸ": 25412, "âĿ¤": 48853, "Ġdarkest": 33460, "Ġtrump": 21779, "Ġlek": 30863, "Ð»Ð°ÑģÑĤÐ¸": 33513, "ĠprÃ©c": 23107, "Ġdisorders": 20261, "ĠpÅĤ": 28695, "Ġtraveled": 16147, "ĠJUDY": 23820, "Ġemerged": 20178, "ĠHuawei": 28542, "nae": 45362, "kle": 14677, "Ġforgetting": 25428, "Ġoldu": 9761, "astes": 40246, "Ġawakening": 31550, "Ġthá»©": 47269, "<|20.06|>": 51367, "å¥½åķ¦": 33036, "éĤ£å°±": 46887, "ĠDana": 23759, "Ġcontainment": 44058, "ĠPerm": 41006, "ĠÐ±ÑĢ": 19603, "ĠTiere": 38810, "ĠLeader": 22650, "å²": 23182, "Ġwooden": 14744, "ĠdemÃ¡s": 34682, "Ġfilament": 44280, "arts": 11814, "Ġweer": 19662, "ÑĨÐ¸Ð¿": 27663, "ê¸°ë¡ľ": 27860, "ĠìĬ¤": 25858, "Äĥm": 21434, "ãģŃãģĩ": 41799, "Ġreef": 25345, "So": 6455, "onn": 19968, "Ġvite": 24462, "ended": 3502, "Ð¸ÑĤÐµ": 5878, "ĠMiller": 16932, "inen": 5636, "hill": 17000, "<|24.90|>": 51609, "ĠAlfred": 28327, "Ġstruggling": 9314, "Ġbleibt": 24814, "Ġstraightforward": 15325, "Ġmelee": 35810, "åĽ½": 16086, "Ġwalnut": 50136, "Ġentendu": 41489, "Ġinterventions": 20924, "Ġmilks": 48773, "ħëĭĪëĭ¤": 28332, "Ġìĵ°ëĬĶ": 44878, "ĠBuddh": 13522, "Prof": 43227, "Ġloop": 6367, "ĠìĹ¬ê¸°ìĦľ": 25404, "ĠìĺģíĻĶ": 44869, "background": 44418, "cknow": 7678, "ÎŃÎ»": 33694, "ĠHowever": 2908, "Ð¾Ð»ÑĮÑĪÐµ": 48272, "ĠDOM": 35727, "Ġif": 498, "ĠAMD": 34808, "Ġformed": 8693, "Ġearnest": 48171, "Ġreferendum": 31957, "Ġadmir": 48252, "izione": 35740, "ĠEcu": 40675, "kol": 36620, "íķĻ": 18134, "eze": 10670, "ĠMiranda": 37000, "Ġeducate": 16092, "Ġsincer": 30220, "ÑģÐµÐ¼": 24879, "æĪ": 1486, "listed": 34890, "edia": 14212, "Ġrecovery": 8597, "BLEEP": 34542, "åŁº": 26008, "ref": 33115, "Ī¬ë": 48458, "Ġthought": 1194, "×ŀ×©": 38652, "uiÃ§Ã£o": 40593, "Ġdownloads": 36553, "Ġconverter": 33905, "Ġdebr": 19958, "klore": 45044, "çĪ±": 27324, "quency": 48154, "Ġimporting": 43866, "cle": 2160, "Say": 42263, "ected": 39963, "ĠGIR": 44027, "ĠNotice": 13428, "ĠMotorola": 45871, "Ġbil": 8588, "×ŀ": 8430, "Ġcling": 35986, "suite": 33136, "uent": 19226, "ĠBash": 43068, "ments": 1117, "miral": 35905, "zuge": 46285, "ĠIk": 8316, "hel": 18063, "Ġwow": 6076, "Ġartifact": 34806, "Ġmedo": 37144, "iziert": 43590, "Ġ49": 16513, "Ð¸ÑģÐ»": 47105, "weed": 21272, "åĪ¥": 16158, "outhe": 18159, "ĠÐ»ÑİÐ±": 9875, "Ġdive": 9192, "Ġthirty": 11790, "ĠCaroline": 30245, "Ġdetect": 5531, "ÅĤ": 1221, "à¸ķ": 11526, "Ġphysician": 16456, "Ġcarb": 12143, "uely": 48863, "ĠArchitecture": 43049, "Ġmethodology": 24850, "hyd": 21591, "ëĮĢë": 39050, "ists": 1751, "å®¢": 32316, "reas": 37868, "mÃ¤ÃŁig": 43132, "Ġtraz": 37481, "ĠÑģÐ¾Ñģ": 33165, "ãĥģ": 17794, "ÏĥÎ±": 23791, "osis": 8211, "Ġviscosity": 39744, "Ġtul": 30210, "fashion": 34636, "Ġexpans": 9672, "ĠíĶĮë": 28764, "Ġmilligrams": 45147, "<|21.28|>": 51428, "ĠÐ½ÑĥÐ¶": 9353, "verb": 25809, "ĠStacy": 43644, "Ġhacen": 27434, "Ġabduct": 46465, "Ġmaximize": 19874, "ĠhoÅŁ": 37063, "Ġpossessions": 40623, "represented": 38293, "www": 17919, "Go": 12104, "Ġum": 1105, "ĠCastro": 43221, "Ġproject": 1716, "<|3.46|>": 50537, "Ð»Ð¸ÑĪÐºÐ¾Ð¼": 38638, "Ġrubbish": 29978, "Ġespec": 31620, "ĠVocÃª": 9781, "oso": 9869, "ĠÐ°ÐºÐºÑĥ": 49381, "Ġneut": 7989, "Ġmusi": 37587, "Ġpipeline": 15517, "inkling": 45258, "Ġdistributions": 37870, "Ġquatro": 30583, "Ġë§ŀìķĦìļĶ": 35273, "Ġuploaded": 17135, "ocalyptic": 47407, "<|10.36|>": 50882, "ãģĦãģ¦": 18549, "arial": 44745, "ĠprÃ©": 11127, "poque": 34995, "ĠBien": 16956, "ĠBead": 31315, "è¡Ĺ": 42529, "ìĽ": 3860, "yrics": 11381, "Ġvegg": 22644, "ĠNina": 29204, "ĠAlter": 32608, "Ġconsumed": 21226, "Ġgrate": 46214, "Ġobrigado": 41774, "å¹¹": 29932, "ĠMrs": 9814, "ãĥĸ": 28889, "Ġparfois": 30125, "Ĭ¤": 19426, "Ġble": 5408, "Ġcuriosity": 18769, "ĠSache": 31452, "ÃŃtulo": 30389, "odies": 6087, "Ġhistoire": 31202, "åıª": 14003, "Ġuneven": 34022, "anden": 28762, "ĠÑģÐ°Ð¼ÑĭÐ¹": 30688, "ĠÐ±ÐµÐ»": 29430, "ĠMarc": 18460, "iar": 9448, "Ġdeutsche": 47502, "lled": 5929, "ĠNormally": 17424, "ĠGeg": 27826, "Ġmodulus": 42287, "Ġharder": 6081, "76": 25026, "Black": 29802, "teok": 25352, "Ġbuy": 2256, "Ġcomedian": 30212, "ĠApparently": 16755, "Ġdiets": 33867, "Ġadvantage": 5002, "ract": 1897, "Ġkalau": 20218, "çĶŁ": 8244, "ĠAMY": 31410, "éĢĻæ¨£": 8377, "MK": 48855, "mm": 2174, "Ġexhaustion": 47408, "Ð¾ÑĢÐ¾ÑĤ": 37040, "Ġambiguity": 46519, "Ġadapter": 22860, "ĠUsed": 43237, "ĠMarine": 20415, "Ùĥ": 4117, "Ġqui": 1956, "ĠOlha": 19450, "Ġíķ´ì£¼": 23281, "quarters": 17313, "Ġpayload": 30918, "Ġpatrim": 48369, "Ġì§ĳìĹĲ": 38380, "thy": 28433, "Ġmejores": 42284, "Ġrele": 2951, "ĠgÃ¤ller": 48771, "ëĤ´": 25141, "ĠëĬĺ": 33684, "Ġjednak": 25897, "Ġpanel": 4831, "<|11.00|>": 50914, "field": 7610, "Ġfunciona": 26210, "energy": 49016, "enty": 4179, "Ġworry": 3292, "Ã©tais": 22824, "ĠÐ¾ÑĢ": 18448, "DS": 11844, "Ġlabeling": 40244, "dog": 14833, "Î¯Î¿": 49669, "ily": 953, "Ø´Ø±": 46309, "Ġdomination": 41502, "ĠGanz": 32496, "æº": 16084, "Ġdiscovered": 6941, "umbles": 12255, "resp": 5667, "Ġappointments": 25084, "ĠOFFICER": 44724, "Ġcombust": 21161, "Ġwahrscheinlich": 30957, "ib": 897, "Ġmeglio": 48911, "ÑģÑĤÐ²Ñĥ": 42104, "ĠíĶ¼ë¶Ģ": 30192, "Ġstatut": 35907, "ÐµÐ»Ð¸": 8334, "ĳ": 239, "Ġweigh": 13843, "ĠSai": 27987, "Ġmarrying": 36376, "ĠSara": 18694, "×ĳ×¨": 13168, "Ġclassrooms": 22890, "Ġtricks": 11733, "ĳ×": 4349, "ĠKot": 30123, "Ġsexual": 6701, "odge": 19315, "igned": 16690, "Ġkeeps": 5965, "eza": 28604, "Ð°Ð": 549, "ìĿ´ìĹĪ": 25569, "Ġrelacion": 27189, "ĠniÅ¼": 28502, "Ġbid": 12957, "Ġhemos": 15396, "Ġbacteria": 11763, "Ġvend": 10169, "ĠFebru": 8534, "athy": 9527, "ĠLÃ¤nder": 43441, "ĠMontana": 27916, "ĠØ§ÙĦØ®": 33962, "Ãļ": 42635, "ĠGroÃŁ": 34534, "mag": 37941, "ĠØ§ÙĦØ±": 34892, "ħĺ": 36630, "ÐµÐ²Ð¾Ð¹": 42308, "Ġmisunderstand": 35736, "Ġsolder": 38128, "se": 405, "å¹¹åĺĽ": 44854, "Ġsizing": 45435, "ĠTages": 33601, "ok": 453, "Ġimperial": 21143, "Father": 44773, "Ġwaited": 15240, "ĠÑģÑĥÑīÐµÑģÑĤÐ²": 30447, "ĠÙĪÙĦØ§": 49429, "×ķ×Ĳ": 12315, "ĠOkey": 38544, "Sn": 43690, "ĠJudge": 19476, "Ġë¯¸ìķĪ": 40241, "?]": 7507, "ĠsiellÃ¤": 42771, "<|6.34|>": 50681, "<|14.10|>": 51069, "Ġmisery": 32309, "more": 3138, "Ġpriest": 15703, "ĠAlexand": 28800, "Ġwyd": 25984, "Ġcooldown": 40782, "irse": 36097, "<|3.72|>": 50550, "ĠSAT": 31536, "urers": 14198, "ĠSenior": 18370, "ruff": 50154, "Ġcompra": 39323, "Ġnuevo": 18591, "ĠGotta": 21527, "owie": 13998, "Ġpets": 19897, "Ġdecipher": 49859, "Ġwisdom": 10712, "gasps": 22901, "Ġrespected": 20020, "Ġdedic": 37071, "Ġdistancing": 18567, "ĠBenjamin": 22231, "ĠSchule": 32953, "<|25.10|>": 51619, "áº±ng": 27215, "Ð°ÑĤÐµÐ»Ð¸": 43512, "ĠØº": 32771, "Ġultimately": 6284, "ĠStage": 25907, "Ġnave": 39376, "ĠÃ¤hnlich": 49696, "ÐµÑĢÐ²": 36441, "Ġlil": 36532, "ĠWhat": 708, "ĠJews": 11041, "Ġvá»ĭ": 45186, "Ð¾Ð¶": 2161, "Ġshake": 10283, "ĠLiqu": 32331, "ĠëĲĺëĬĶ": 18650, "Ġpeninsula": 45065, "GE": 9177, "igious": 21883, "Ġconsideration": 12381, "<|6.56|>": 50692, "éļ": 10673, "itors": 9862, "ĠtÃ©lÃ©phone": 47159, "weg": 12517, "iston": 47345, "Ġkung": 49304, "Ġintroductions": 48032, "igkeiten": 37545, "Ġessence": 12801, "Ġconce": 10413, "Ġbah": 12913, "ĠTook": 38288, "ĠProcess": 31093, "ester": 3011, "ĠButton": 38435, "Ġmilliseconds": 34184, "Produ": 42370, "èī²": 17673, "ĠÐ¿ÑĢÐ¸Ðº": 25492, "íķĺëĭ¤": 25786, "Ð¾Ð´Ð°": 22758, "ĠìĬ¤íĬ¸ë": 49490, "ĠIndians": 23838, "ì°¬": 29434, "ĠYesterday": 19765, "cker": 9178, "ĦëıĦ": 24798, "âĦ¢": 34933, "ĠSeo": 30877, "Ġmina": 48412, "Ġpue": 26990, "eh": 13301, "ĠMarian": 37497, "ĠVR": 13722, "ĠKag": 48751, "Ġcereal": 26199, "ä»ĸ": 5000, "ĠAny": 2639, "reat": 620, "Ð¼Ð¾ÑĤÑĢÑı": 45753, "Ð¾Ð½ÑĮ": 48325, "ugen": 27915, "unk": 3197, "chem": 17345, "rei": 10271, "Ġpromptly": 48594, "Aw": 36477, "sz": 15453, "Ġinterim": 33500, "Ġalguien": 25814, "Ġarise": 20288, "ĠÐ²Ð·ÑıÑĤÑĮ": 44101, "ĠÅ¼ycia": 44343, "ier": 811, "ĠWolf": 16634, "Ġemotion": 8913, "gren": 45968, "Ġspaceship": 39185, "ĠSociety": 13742, "en": 268, "á»¹": 40085, "ìĹĲëıĦ": 21016, "jas": 19221, "ĠRelig": 33436, "ãģĹãģ¾": 45349, "ĠÑģÑĤ": 3266, "ÑģÑıÑĩ": 21719, "ĠPerry": 17334, "Ġcleaned": 16146, "Ġresponders": 37542, "<|10.58|>": 50893, "ĠÑģÐ²Ð¾Ñİ": 23069, "Ġfuneral": 20231, "ĠRP": 14105, "Ġgain": 6052, "Ġbells": 25474, "Ġthieves": 37057, "ĠAudience": 23517, "Ġ1964": 34314, "gel": 10345, "ĠExpl": 12514, "æĺ¯ä»Ģéº¼": 35851, "orld": 3445, "íķ´ì": 7002, "èıľ": 33025, "cheering": 18700, "ĠSergio": 45078, "Ġclause": 25925, "ìľłë": 49965, "ĠSharing": 49060, "olin": 31178, "ÛĮÙĨ": 32151, "irus": 9619, "Ġillness": 10152, ",": 11, "Ġhy": 2477, "ĠAujourd": 32650, "ĠTriple": 32159, "@": 31, "ĠEve": 15544, "ĠGerman": 6521, "arl": 6843, "ãĥ³ãĤ°": 43017, "ĠØ§ÙĪØ±": 32930, "Ġtend": 3928, "ĠAUDIENCE": 8155, "Ġmeas": 5731, "Ġsailing": 27452, "Ġcounting": 13251, "á»Ļt": 13737, "ĠMember": 16037, "Ġprofesional": 42882, "ü": 184, "Ġsheets": 15421, "ĠTeams": 24702, "Ġmechanical": 12070, "onna": 784, "ĠIsab": 35686, "æĹ¶éĹ´": 44848, "Ġtallest": 42075, "ĠartÄ±k": 22241, "Ġì°¸": 18255, "Ġparle": 18508, "teri": 34345, "Ġqu": 421, "Ġcond": 2224, "Ġtha": 43614, "Ġboleh": 25835, "Ð¶Ðµ": 4757, "Ġcom": 395, "ĠSty": 30415, "Ġvezes": 12925, "ĠRelease": 34278, "Ä±lÄ±": 41039, "umuz": 34884, "ĠbyÅĤo": 14811, "coon": 48092, "isp": 7631, "Ġslash": 17330, "Ġtrustees": 43234, "<|5.84|>": 50656, "Ġpsychology": 15105, "lause": 4512, "Ð¸ÑĨÐ¸": 30321, "Ġinstallation": 13260, "ĠSavannah": 47902, "Ġcarpet": 18119, "ģ¼": 29278, "Ġreflect": 5031, "Ġvemos": 20909, "ĠreprÃ©s": 27961, "ĠNach": 11815, "Ð¸ÑĤÐµÐ»ÑĮÐ½Ð¾": 15884, "âĤ¬": 28197, "Ġblasting": 47134, "Ġbroom": 41544, "ĠÙħÛĮ": 48478, "Ġlum": 24635, "mpre": 6516, "ĠPass": 10319, "Ġë§ī": 14438, "Ġorganisation": 18641, "mercial": 39260, "Ġyourself": 1803, "Ġrude": 18895, "Ġaddressing": 14329, "ĠmÃ¡r": 40331, "ĠScroll": 35395, "Ġsympathy": 33240, "Ġanten": 18858, "Ġtrademark": 31361, "ëĭ¬": 24673, "ÑĢÐµÐ²": 25510, "Ð°ÑĤÑĥ": 29771, "irez": 50231, "Ġchce": 28928, "Ġdelivering": 14666, "å»": 17527, "Ġfight": 2092, "Î»Î·": 26836, "æ¯Ĵ": 46495, "vÃ©": 15797, "ffffff": 47175, "oire": 20378, "íĳ": 36132, "ĠAg": 2725, "ĠSurprise": 36701, "ĠWash": 28891, "ĠíĥĢ": 19840, "Ġtrigger": 7875, "Ġless": 1570, "å¤ĸ": 12022, "que": 1077, "odar": 43211, "ĠKennedy": 16517, "Ġhesitation": 36125, "Ġindepend": 4819, "ĠRuby": 19907, "have": 24284, "Ġstato": 29657, "ujin": 37005, "Ġpatri": 18311, "Ġmets": 37231, "Ð¢Ñĭ": 37206, "Ġpostp": 28973, "Ġiki": 20739, "ĠAirl": 34421, "Ġowed": 41262, "Ġbeg": 4612, "Ġsource": 4009, "emics": 38014, "anh": 50214, "ĠCindy": 32185, "adamente": 27858, "onces": 8498, "Ġresto": 28247, "Ġsevere": 8922, "ĠØ§ÙĦ": 2423, "ĠEc": 28993, "inee": 22036, "rement": 37934, "Ġ×Ĳ×ľ": 28379, "iliation": 22002, "Ġcomma": 22117, "ĠJose": 8635, "Ġexotic": 27063, "Ġoscill": 18225, "bian": 20196, "ĠPine": 33531, "Ġbesteht": 43680, "<|5.86|>": 50657, "<|5.70|>": 50649, "Ġ58": 21786, "Ġhandler": 41967, "ument": 2206, "Ġsession": 5481, "ĠVernon": 47516, "Ġloh": 46957, "Ġexactamente": 48686, "ĠìĹ´ë": 38787, "rau": 48907, "ŀĲë": 45863, "Ġsalon": 27768, "ĠProperty": 48966, "Ġreferee": 43096, "Ŀ¼ëĬĶ": 13182, "ĠRadi": 37806, "ĠGive": 5303, "Ġalgunos": 21078, "ĠHopefully": 10429, "iteit": 45967, "door": 10441, "Ġroots": 10669, "08": 16133, "Ġday": 786, "Ġunclear": 25636, "bare": 30682, "ĠOtt": 24243, "Ġverde": 29653, "mern": 44243, "ĠIst": 12810, "<|10.54|>": 50891, "iens": 24594, "ladÄ±m": 37282, "ä½łçļĦ": 18961, "Ġconex": 49509, "Ġseller": 23600, "Ġbottom": 2767, "Ġdemocrat": 37221, "Ð¸ÑĤÑģÑı": 8254, "Ġhits": 8664, "Ð¶": 1820, "Ġacknowledgement": 47227, "Ġcarr": 15910, "Ġì·¨": 28880, "è±¡": 45007, "×Ļ×©": 16732, "inters": 35388, "pin": 17836, "Ġoverhead": 19922, "ÙĤÙĪÙĦ": 39648, "Ġcalories": 14904, "ben": 1799, "Ġexclude": 33536, "Ġlows": 34794, "Are": 13332, "íĺ¹": 47049, "Ġdonkey": 34834, "Î¯Î±": 13316, "Ġ84": 29018, "Bo": 22493, "Ú¯": 16761, "Ġcrois": 21724, "<|14.52|>": 51090, "<|0.92|>": 50410, "AP": 4715, "ĠAust": 4126, "ĠMill": 7190, "ĠHoliday": 40898, "Ġcome": 808, "ĠHeaven": 13676, "ĠTU": 42408, "toi": 49222, "ĠMB": 28866, "ç¯Ģ": 27694, "ÅĤad": 10358, "quÃ©": 16412, "ĠShane": 25865, "ĠParty": 8552, "Ġencour": 3959, "Ġdys": 15243, "Ġestimates": 20561, "Ġmayor": 10120, "ĠìĦł": 11835, "ĠFunny": 36484, "Ġrests": 39755, "Ġfermented": 38649, "Ġconhe": 15440, "ÑĪÐ¸Ð¹": 24958, "ĠEsther": 37731, "ĠLOL": 15086, "ĠÐ®": 27002, "ĠBuy": 19146, "á»ĩn": 19679, "nym": 12996, "angled": 39101, "Ġl": 287, "arina": 37512, "ĠiÃ§in": 8457, "ĠRemote": 44858, "prises": 19547, "è¨": 5396, "Ġolha": 23550, "Ġrevealing": 23983, "oj": 37224, "ÑĮ": 678, "ĠGaga": 41465, "ÑĭÑĪ": 12533, "Ġ×Ĳ×ķ×ŀ×¨": 38272, "Ġclassy": 43989, "Ġassembling": 43867, "Ġundergoing": 40033, "orage": 29226, "Ġaire": 42885, "Ġprim": 2886, "iedy": 16446, "Ġ1977": 35092, "<|12.72|>": 51000, "INA": 20633, "Ġalley": 26660, "awi": 38402, "oland": 30063, "ĠTiny": 39992, "Ġpequ": 26758, "Ġmicroscope": 29753, "Ð¸Ñī": 22280, "ii": 5597, "ĠBILL": 28062, "Ġ1945": 28253, "ãģ¯ãģĦ": 11050, "Ġmoim": 48569, "Ġreceiving": 10040, "ĠÃİ": 46104, "ĠDAR": 49274, "íķ´": 5302, "Ġfashionable": 40735, "ĠImmer": 42676, "ĠEspero": 41831, "ĠHait": 25752, "Ġseguinte": 32433, "ĠÎķ": 18236, "Ġjack": 7109, "ĠGovernor": 14550, "Ġsupportive": 14435, "fashioned": 37998, "ä½Ĳ": 48361, "inguÃ©m": 25985, "omon": 24488, "ĠQuick": 12101, "Ġembark": 29832, "ĠBluetooth": 20286, "Ø¯": 3215, "aceut": 23645, "Ġgovernments": 11280, "Ġbate": 37936, "ãĤĴ": 5998, "ĠMAYOR": 43967, "Ġrevealed": 9599, "ĠfaÃ§on": 20725, "st": 372, "Ġsailors": 42036, "ĠSha": 14944, "ĠØ§ÙĦØ¯": 32748, "Ġheadlights": 38487, "ê": 166, "ĠÐ½Ð¾Ð¼": 36847, "quiera": 35134, "Ġshortages": 46765, "ĠhÃ¶": 13531, "Ġbrasile": 28435, "Ġscanning": 27019, "Ġswapped": 50011, "Ġyok": 9229, "ĠÑģÐºÐ°Ð¶": 21938, "Ġenrichment": 49900, "Ð°ÑıÐ²": 36933, "ĠVirt": 19447, "Ġintermediate": 19376, "Ġtoo": 886, "iber": 5331, "Ġusage": 14924, "<|su|>": 50357, "ood": 1816, "ĠfarklÄ±": 43953, "Ġgarlic": 9168, "Ġthunder": 19898, "igail": 44582, "Ġmultipl": 12788, "ĠÐ´Ð²Ðµ": 32183, "ĠOpt": 21455, "<|kk|>": 50316, "ĠLooks": 10027, "Ġveya": 49223, "ĠÐĺÐ»Ð¸": 34361, "ì¶ľ": 24591, "Ġpasses": 11335, "ëĿ¼ê³ł": 45060, "ĠChinese": 4649, "ĠMag": 6395, "Ġmik": 23959, "Ð¸ÑĩÐµÑģÐºÐ¸Ðµ": 38578, "Ġpieces": 3755, "çļĨãģķãĤĵ": 41574, "ÑĥÑģ": 7071, "Ġequally": 12309, "worthy": 23727, "<|25.20|>": 51624, "Ġìĸĺë": 49441, "ĠEther": 38636, "ĠBub": 25489, "Ġtoddler": 44348, "Ġexec": 4454, "ĠRadio": 17296, "Ġmeditating": 46850, "Ġhoop": 29749, "Ġmolecules": 13093, "Ġcountryside": 28252, "Ġrebell": 22260, "Ġgreater": 5044, "Ġrealistically": 40734, "zier": 33352, "×Ĵ×Ŀ": 50141, "Ġmentally": 17072, "Ġsost": 41585, "Ġpercent": 3043, "ĠBert": 29594, "Ġdisturbance": 35684, "ĠKontakt": 43396, "İ": 236, "ĠIL": 40413, "ĠÑģÑĥÐ¼": 31372, "Ã¼t": 7695, "nels": 19936, "ĠsÃ¤ga": 28013, "Ġgenres": 30057, "Ġbits": 9239, "activ": 23397, "ĠEmergency": 30524, "Ġethnicity": 33774, "Ġscree": 38323, "ĠÎ¼Î±": 36759, "ressed": 3805, "Ġgehe": 34252, "%": 4, "Ġpolarized": 48623, "ĠHDR": 29650, "ĠRH": 50209, "osit": 9598, "ìĿ´ìħĺ": 41923, "Ġrecommendation": 11879, "Ã³g": 14047, "Ġfringe": 38764, "Ġwholly": 45157, "ĠHJ": 35755, "ĠÑĢÐ°Ð·ÑĢ": 24051, "istani": 46301, "Ġadditions": 35113, "Ġencaps": 38745, "Ġlemonade": 44374, "<|26.70|>": 51699, "ĠmRNA": 50103, "Ġwod": 47751, "Ġay": 7494, "ĠGospel": 23163, "ĠHence": 22229, "ulators": 39265, "Ġratchet": 45885, "ĠFleet": 47821, "ĠentÃ£o": 9071, "ÐµÐ½ÑĤÐ¾Ð²": 31028, "Ð°Ð¶Ðµ": 9475, "Ġhiss": 33182, "Ġwipes": 41228, "<|4.26|>": 50577, "Ġkunt": 34199, "Ġado": 22450, "<|28.08|>": 51768, "Ġíıī": 21967, "Ġallergy": 41505, "ÅĤby": 34635, "pannt": 36424, "Ġbob": 27292, "anca": 40835, "Ġtenido": 33104, "ice": 573, "à¸«à¸¡": 40050, "Ġfundamentals": 29505, "ĠvardÄ±": 36339, "ks": 1694, "ĠÃłs": 23763, "Ġremed": 28718, "ĠSuz": 24232, "Ġgum": 19973, "Ġglauben": 47139, "Ġcaregiver": 44305, ",...": 16007, "Ġvarit": 31289, "Ġsafety": 4514, "Ġwenn": 4797, "ĠÑĥÐ±Ð¸Ð¹": 40636, "Ġfreedom": 5645, "Ġazt": 39566, "Ġyani": 11654, "ĠVog": 46359, "Ġtrying": 1382, "Ġcohesive": 43025, "65": 16824, "Ġveh": 4221, "Ġme": 385, "keln": 32099, "ĠÐ½Ð¸ÐºÐ°Ðº": 23127, "ĠKang": 20360, "ocolate": 5719, "ĠKoll": 11621, "Ġcorpses": 46416, "Ġdelivery": 8982, "Ġantibody": 34507, "Ġtortured": 36166, "Ġarrow": 11610, "Ġdevoir": 48920, "ĠBao": 42099, "Ġratings": 24603, "Ġrij": 47237, "umbai": 33376, "Ð¾Ð¹ÑĤÐ¸": 44213, "ĠEditor": 24281, "Ġefforts": 6484, "Î¹": 1835, "ĠBall": 10744, "ĠCameron": 24962, "<|23.50|>": 51539, "<|19.62|>": 51345, "sho": 31321, "ĠIhre": 26247, "Ġíĸ": 11988, "Ġskins": 27888, "âĤ": 37781, "fel": 29874, "ĠInternational": 9157, "Ġawhile": 22224, "æ´»": 25956, "ĠGeoff": 26119, "Ġquienes": 43091, "Ġexperient": 49611, "ĠKids": 15694, "ĠÎ´ÎµÎ½": 23295, "ĠDell": 33319, "Ð°Ñı": 4251, "outh": 2178, "iovascular": 30313, "Ġpreocup": 23080, "Ġcrossed": 14622, "Ġchoreography": 23482, "Î¼": 4043, "Ġpee": 21343, "Ġawait": 19670, "ãģ£": 2970, "Ġeigene": 38549, "Ġjournalists": 19535, "Ġrevised": 35228, "Ġusando": 29798, "Ġsucking": 38669, "ĠEscape": 42960, "Ġunpl": 32816, "ĠKamera": 42728, "ĠCelt": 44591, "brand": 30476, "Ġlur": 35583, "person": 10813, "Ġroute": 7955, "Ġmutant": 47198, "×Ĳ": 7972, "Ġ1963": 38698, "Ġpuppet": 32107, "bt": 4517, "vit": 10398, "<|14.96|>": 51112, "ĠArchitect": 29306, "Ġmedio": 22123, "Ġveter": 8901, "Ġcomenz": 29564, "<|29.22|>": 51825, "Ġ2015": 7546, "OULD": 50246, "po": 2259, "Ġ''": 12119, "ĠÐ´Ð°Ð»ÑĮ": 22428, "acas": 43786, "osen": 6441, "Ġzur": 7147, "ĠTry": 6526, "Ġtraditions": 15643, "Ġlui": 8783, "adors": 29816, "ĠRussians": 20605, "ĠSenhor": 43792, "ìĤ¬ë¥¼": 27811, "æł": 8987, "ĠtÃ¼r": 39219, "×Ĺ": 7749, "<|0.90|>": 50409, "Ġcontributions": 15725, "BY": 16688, "æŃ¢": 30438, "Ġ[...]": 35467, "font": 12491, "Ġë§¡": 49132, "ĠÃ¸": 43008, "Ġboyfriend": 11457, "ĠÎ¼Î±ÏĤ": 25287, "Ġsecretly": 22611, "Ġkepada": 45598, "Ġplein": 21088, "Ġgrat": 10158, "Ġclassroom": 7419, "Ġkhi": 23526, "ĠJewish": 9246, "Ġsmash": 17960, "ĠíĶĦë": 32051, "ills": 2565, "nelle": 37365, "ĠLis": 30812, "Ġfreelance": 47875, "Ġfandom": 41591, "Ġgrand": 2697, "Ġreaders": 17147, "ĠJC": 49802, "<|12.86|>": 51007, "llers": 20278, "ĠShouldn": 34170, "Ġlowers": 44936, "ĠBIG": 39761, "ĠìĿ´ê±°ëĬĶ": 24535, "ormal": 24440, "Ġfuncion": 14186, "Ġcruc": 28154, "Ġpelig": 43839, "ĠDop": 42657, "Ġdipping": 35584, "Ġratio": 8509, "sequ": 11834, "cir": 23568, "å¼µ": 18889, "Ġevaluated": 25509, "Ġmoms": 25399, "Ġvoice": 3177, "Ġgol": 9988, "Ġsponsors": 22593, "Ð¾Ð¶Ð°Ð»": 18327, "Ġestiver": 46578, "ĠÑĥÐ·Ð½Ð°": 33562, "Ġempieza": 44577, "Ġcambi": 19569, "abel": 18657, "uez": 31221, "ĠZur": 30518, "ģ": 223, "Ð±Ñĭ": 25477, "ĠYi": 16747, "rative": 30457, "ĠBirmingham": 34673, "Ġcompuls": 42773, "Ø±Ø©": 25720, ".\\": 36350, "ĠInner": 36705, "ĠComic": 40945, "rings": 25782, "oles": 7456, "<|1.92|>": 50460, "Ġrare": 5892, "ê²łë": 37244, "Ġketchup": 29301, "Ġspeculation": 27696, "Ġdemonstration": 16520, "ãĤģãģ¦": 38975, "Ġ190": 37609, "Ġalongside": 12385, "ĠMT": 37333, "Ġmajesty": 32146, "bach": 32096, "AND": 8070, "esome": 2988, "Ã¢r": 42648, "Ġprogrammers": 41504, "Ġexpedition": 30359, "Ð¾Ð´": 1435, "Ã¡k": 37165, "oulder": 28792, "egt": 18500, "Ġcose": 30261, "ì£¼ëĬĶ": 35541, "Ġtypically": 5850, "encie": 36220, "isin": 33787, "Ġnaz": 20151, "<|20.74|>": 51401, "Ġaqueles": 49831, "Ġjig": 43716, "ĠÃ®nt": 43990, "Ġneon": 30820, "kiego": 42349, "tails": 39384, "Ġgrowing": 4194, "ĠPhantom": 34689, "Ġwildly": 34731, "chts": 19549, "ieves": 28648, "Ġvariations": 17840, "ĠÐ³Ð¾Ð²Ð¾ÑĢÐ¸ÑĤÑĮ": 32460, "<|11.10|>": 50919, "Ġconting": 27820, "Ġpenalty": 16263, "Ġderivative": 13760, "ĠBald": 27306, "999": 49017, "ĠìĿ´ê±°": 7075, "ĠKauf": 44590, "Ġcommunic": 3363, "ĠTask": 30428, "Ġfertig": 31362, "Ġhous": 4407, "ss": 3810, "å¤¢": 35165, "ĠB": 363, "Ġmarginalized": 32522, "ĠMeg": 9986, "Ġspecimen": 34204, "ĠÐ½Ð°Ð¹Ð´": 41805, "ĠPoints": 44763, "ĠÑĢÐ°Ð·Ð°": 49578, "Ġpot": 1847, "orith": 6819, "Ġfarewell": 35442, "Ġdilemma": 34312, "9": 24, "ĠÐ¸Ð·ÑĥÑĩ": 43264, "Ġofere": 47084, "Ġvra": 6070, "Ġandare": 42742, "ĠÐ²Ð¾Ð½Ð¸": 40727, "Ġangled": 48843, "ĠGh": 20321, "ĠAhora": 18840, "Ġê²°êµŃ": 42335, "Ġhuh": 7020, "Ġkali": 41690, "ç¼": 38109, "ĠLup": 44319, "rir": 10949, "leep": 7927, "Ġimbalance": 43007, "<|12.52|>": 50990, "FFFF": 47427, "Ġbeast": 13464, "Ġbooklet": 48469, "Ġillustrates": 41718, "oses": 4201, "Ġpositions": 8432, "ĠAeg": 46085, "Ġsprink": 30885, "Ġrip": 12782, "ĠìĪĺ": 4446, "Ú": 150, "aller": 22414, "ł¹": 25565, "ĠÑģÐ¾ÑģÑĤÐ¾": 25631, "ĠÐ¿ÑĢÐ¾Ð³ÑĢÐ°Ð¼": 29043, "ings": 1109, "ogens": 35325, "Ġservir": 29463, "ĠDrake": 27465, "Ġprawd": 41175, "Ġp": 280, ",-": 44013, "aking": 2456, "Ġrhin": 49030, "áº·": 19118, "ĠchÃŃnh": 42178, "aniu": 25849, "ĠÐ¼Ð¾Ð½": 32457, "ĠDef": 9548, "Ġmustn": 42818, "Ġblows": 18458, "ĠBj": 49660, "ĠØ¹ÙĦ": 11203, "æŃ¥": 31429, "writer": 23681, "<|16.90|>": 51209, "Ġoc": 10409, "Ð¾Ð¶ÐµÑĤ": 22180, "Ġantib": 11533, "ĠMal": 5746, "lights": 20827, "hero": 16218, "Ġconform": 18975, "Ġnuest": 7717, "ìª½": 16094, "ĠpassÃ©": 24093, "Ð°ÑĪ": 6835, "Ġbridge": 7283, "Ġattention": 3202, "ada": 1538, "Ð¾Ð»Ð½": 20470, "Ġrais": 4000, "Ġannat": 42786, "block": 28830, "Ġcontinent": 18932, "ittens": 39449, "Ġregression": 24590, "ab": 455, "ĠKÃ¶": 43197, "ĠSuddenly": 21194, "Ġbin": 5171, "Ġreplication": 39911, "ĠÐ¿ÑĢÑĭ": 50236, "arr": 2284, "Ġmodification": 26747, "ĠëįĶë": 46389, "Ġoverseas": 16274, "ĠMahar": 48498, "æĩ": 13183, "Ġentreprene": 8354, "Ġciao": 42860, "ĠMARTIN": 36996, "Ġsytu": 28275, "ĠbÃ¡sicamente": 48282, "Ġszer": 36160, "Ġasi": 28644, "icker": 33804, "Ġvisualization": 25801, "Č": 200, "Ð»Ð¸ÑģÑĮ": 31524, "Ġassociated": 6615, "Ð½ÑıÑĤÑĮ": 35824, "Ġtrading": 9529, "Ġpopcorn": 25334, "keep": 16055, "cjon": 45677, "ĠìķĦë¬´": 30702, "umping": 35313, "å¾Ī": 4563, "Ġshowc": 29794, "25": 6074, "Æ": 130, "ĠKurd": 32305, "utches": 49307, "ĠStevens": 41727, "Ġdagegen": 45387, "Ġupdates": 9205, "Ġraining": 18441, "Ġauditor": 33970, "å·®": 21679, "jer": 14219, "ëħĦ": 12092, "ierto": 20747, "udos": 35063, "Ġporch": 35513, "<|28.18|>": 51773, "Ġtheta": 9725, "enzie": 32203, "<|11.62|>": 50945, "à¯į?": 44398, "ĠÙĤ": 12174, "Ġarcade": 25664, "Ġtro": 4495, "Ġintern": 2154, "Ġbibli": 34344, "Ġdevelop": 1499, "plants": 42433, "inent": 11058, "Ġprotocol": 10336, "<|0.70|>": 50399, "Ġmarvelous": 34920, "Ġbenefits": 5311, "Ġuncon": 35847, "Ġquoted": 30047, "isters": 7423, "cuts": 26158, "Ġadore": 32060, "ĵ¤ìĿĢ": 22571, "ë³": 10708, "Ġflights": 21089, "Hold": 42347, "ĠGrande": 28384, "Ġfiller": 34676, "Ġhistories": 30631, "immen": 32076, "miÅŁ": 10510, "Ġirrespons": 38626, "Ġpor": 1515, "çĽ´": 16186, "Fl": 25680, "atsu": 29023, "<|5.72|>": 50650, "ĠHOW": 30561, "rt": 17721, "pg": 49861, "Il": 37961, "Ġimpressive": 8992, "Ġmejor": 11479, "Ġà®İà®©": 17337, "ĠSchmidt": 42621, "epherd": 26449, "Ġgreedy": 28228, "<|22.42|>": 51485, "Ġtheoret": 14308, "Ġ×Ķ×Ĵ": 36386, "Ġrek": 33881, "ĠProvince": 40649, "<|29.90|>": 51859, "ĠÐµÑīÐµ": 9910, "rice": 21299, "ACT": 42936, "êµ¬ëĤĺ": 23816, "Ġpretty": 1238, "Ġva": 2773, "ather": 1172, "ĠInitiative": 26166, "Ġencourage": 5373, "lieÃŁlich": 44697, "ĠkÃ¤n": 48293, "Ġinom": 44839, "Ġrut": 41324, "Ġinevit": 14481, "acak": 10508, "ĠOlympics": 19854, "<|19.26|>": 51327, "ĠLor": 29358, "icans": 34332, "ä¼ļ": 12949, "Ġklar": 14743, "enges": 47077, "Ã¡c": 21563, "Ġcosmos": 41794, "Ġprincipe": 47656, "Ġreveal": 10658, "Ġersch": 41673, "Ġthere": 456, "Ġinfluenza": 36408, "hee": 14600, "Ġsmashing": 43316, "Ġvient": 22876, "Ġcontracting": 36095, "acement": 7621, "ĠGerade": 48175, "Ġpredomin": 21456, "Ġtwelve": 14390, "Ġmicroscop": 30483, "iÄĻcy": 47303, "ĠPsych": 17303, "ĠSignal": 43414, "Ġcm": 14668, "Ġpostponed": 49023, "Ġhitting": 8850, "Ġpom": 12991, "ĠiÃ§inde": 34283, "le": 306, "Ġtapped": 38693, "Ġorgas": 44834, "Ä": 128, "ĠIch": 3141, "omer": 14301, "Æ°á»£ng": 47001, "qu": 358, "Ã¤lt": 15510, "ĠVielen": 22502, "Ä±t": 44610, "Ġsobie": 13652, "Ġbrightest": 36271, "Ġinstance": 5197, "Ġkommt": 10047, "ĠKre": 23625, "Ġpasar": 25344, "ĠìķĦì¹¨": 41812, "Ġseeks": 28840, "ĠHolo": 24298, "ĠRenee": 47790, "ĠÙĪÛģ": 44291, "Ġtester": 36101, "Ġwag": 36854, "ris": 5714, "Script": 14237, "ĠWOODR": 24265, "ĠHamp": 30303, "ldigt": 19341, "ĠItÃŃs": 47806, "ĠÐ¼Ð¸Ð½ÑĥÑĤ": 24498, "ĠlÃ¶": 25209, "ĠëĤ¨ìŀĲ": 35266, "Ġsentenced": 30954, "Ġà®ħà®¤": 35718, "ĠEmir": 38426, "kur": 33503, "JE": 48474, "Ġjurisdictions": 37958, "onne": 22419, "Ġswords": 26474, "Ġfaites": 29902, "ĠnaprawdÄĻ": 20970, "Ġlament": 35888, "ĠLun": 32077, "ĠSpiel": 14266, "Ð½ÐµÐ¹": 14418, "ĠLISA": 42448, "Ġbye": 6543, "Ġinterestingly": 25873, "ĠSEÃĳ": 40677, "æ¬": 5988, "ĠWorks": 27914, "OSH": 26255, "à¸Ħà¸£": 21916, "ĠÐ½ÐµÐ²": 21224,
[...]
