{"Ġritual": 13792, "Ġhasht": 17462, "aks": 5461, "ÑĢÐ°Ð²": 5608, "Ġimperial": 21143, "hÃ¶": 33195, "Ġforth": 5220, "Ġsunny": 20412, "ĠStevens": 41727, "Ġhaga": 46726, "Ġcotton": 13764, "ES": 2358, "Ġoy": 15376, "ĠWhis": 41132, "Ġprinces": 41536, "Gold": 49585, "erson": 3953, "pit": 20144, "Ġprobation": 41821, "ilantro": 41160, "ĠKate": 16251, "mand": 22396, "Ġramp": 12428, "ĠAshe": 45006, "Ġlender": 47500, "ìĨĲ": 45443, "Ġtweet": 15258, "Ġtresp": 46347, "Ġ*": 1853, "atisf": 25239, "ê±°ë¥¼": 30507, "ĠgÃ¶re": 21032, "ĠVer": 4281, "Ġcouples": 20368, "Ġbilmiyorum": 48699, "Ġ×Ĵ×Ŀ": 26611, "Ġsausage": 20526, "urer": 9858, "Ġfixed": 6806, "ĠOMG": 23152, "Ġsmallest": 16998, "yle": 2072, "Ġdatab": 7104, "à¸Ĺ": 11099, "ÏĢÏĮ": 14220, "GHT": 41976, "ĠJews": 11041, "Ġoffers": 7736, "ĠìķĦëĭĪìĹĲìļĶ": 30809, "Ġdiseases": 11044, "Ġconst": 1817, "Ġbriefing": 28878, "Ġsteadily": 36129, "ĠSec": 3306, "issy": 28617, "Ġref": 1895, "cros": 42471, "issez": 43033, "ĠFaith": 23642, "ĠFavor": 34240, "Ġcuá»Ļc": 50138, "Ġnossos": 35378, "ĠTravis": 24430, "ĠÐļÑĤÐ¾": 33953, "Ġconsiste": 49066, "ĠÑģÐ¾Ð´ÐµÑĢÐ¶": 48206, "Ġoverwhelmingly": 42926, "Ġì§ĢëĤĺ": 41672, "Ġchá»ĭ": 45167, "ĠÐºÐ¾Ð½ÑĨÐµ": 38769, "Ġarguably": 26771, "Ġworrying": 18788, "Ġcaregivers": 35440, "Ġcounterparts": 33287, "Ġwhenever": 5699, "ĠBrittany": 41067, "Ġcáº£m": 47593, "ĠSacred": 47074, "ĠDragon": 11517, "Ġawarded": 19100, "Ġexpedition": 30359, "untu": 45605, "Ġbron": 16586, "Ġniche": 19956, "ĠSale": 48922, "Ġrethink": 34595, "electric": 33243, "Ġsic": 33579, "æ³¨": 26432, "display": 35238, "au": 1459, "ĠMumbai": 34309, "Ġmega": 17986, "Ð¸Ð½Ð¾": 31486, "ourd": 21764, "ĠRail": 23494, "ĠÐ¾ÑģÐ²": 46403, "acam": 47190, "Ġkommer": 12589, "Ġgro": 4634, "æł¡": 49684, "Ġunified": 26787, "æĺİ": 11100, "apter": 5446, "æĿĳ": 39553, "ĠRemember": 5459, "ĠKelvin": 36955, "Ġclinical": 9115, "kin": 5843, "ç´ħ": 33487, "ĠÑĦÐ¾ÑĢÐ¼": 22817, "Ġdeflect": 41373, "iert": 4859, "ÅĽniej": 37511, "Ġvaluable": 8263, "ãģĿãģĨãģĿãģĨ": 45422, "Ġhur": 2756, "Ġpremature": 34877, "Ġanthem": 42383, "<|23.64|>": 51546, "<|14.70|>": 51099, "ĠJia": 29242, "Ġcer": 10146, "nya": 7457, "olla": 27160, "Ġgirlfriends": 46558, "<|27.34|>": 51731, "Ġnotice": 3449, "Ġê·¸ëłĩê²Į": 16104, "Ã©d": 7811, "Ġdiscrete": 27706, "ĠBurn": 18328, "Ġ×Ļ×Ķ": 49854, "ĠmÃł": 13901, "Ġanimated": 18947, "Ġusername": 30351, "ĠNad": 23269, "Ġthumbna": 21313, "Ġjumped": 13864, "Ġilleg": 9976, "Ġatmos": 7722, "isode": 14172, "Att": 38151, "ĠìĽĥ": 25014, "Ġfellas": 47242, "ĠEconomic": 25776, "Ġrectangle": 21930, "ĠHarley": 34921, "ĠLambda": 45691, "ĠPH": 16530, "ĠÐ¸Ð¼ÐµÐµÑĤ": 33761, "angan": 17017, "Ġgardening": 31799, "Ġmm": 11169, "Ġise": 40912, "est": 377, "Ġpurposes": 9932, "Ġ66": 21126, "ĠSund": 6942, "ĠMOD": 38113, "itating": 16350, "name": 16344, "ĠfÃ¥": 14251, "ĠðĿĺ": 42341, "Ġbattery": 5809, "ĠWrestleMania": 49014, "<|29.36|>": 51832, "<|19.14|>": 51321, "Ġequal": 2681, "ÑıÑĤÐµÐ»ÑĮ": 37764, "Ġchlorine": 39888, "Dire": 47747, "pared": 45573, "ĠSwiss": 21965, "Ġgleichen": 49069, "Ġface": 1851, "Ġìĸ´ì": 11474, "Ġbill": 2961, "Ġfulfilling": 25800, "Ġbanks": 10237, "Ġfetch": 23673, "voir": 8823, "acÄĥ": 44929, "Ġmounts": 40982, "ĠAUDI": 8029, "ĠìĿ´ê²ĥëıĦ": 42118, "Ġfilled": 6412, "ĠÑħÐ¾Ð·Ñı": 49791, "ĠFranken": 39678, "venue": 29307, "Ġlid": 10252, "Ġincumb": 39854, "Ġburger": 16393, "Ġparadox": 26221, "ĠMedal": 42437, "Ġhomogeneous": 42632, "Ġfiquei": 49647, "Ġclaims": 9441, "ĠUnreal": 34464, "Ġhect": 37358, "ĠÃ¼brig": 32343, "oting": 17001, "×Ļ×¡": 27199, "cry": 46555, "Ġalc": 20005, "ĠIdeally": 40817, "Ġtwor": 46288, "éĢĻæĺ¯": 16600, "ici": 8787, "Ġconduction": 43842, "Ġìĸ¼": 22142, "ëĭĪ": 1425, "<|21.78|>": 51453, "Ġbel": 989, "Ġmeat": 4615, "ĠCheck": 6881, "<|25.30|>": 51629, "Ġcurios": 13625, "æĪĳæľī": 39732, "Ð¸ÑĢÐ¾Ð²Ð°Ð½": 48317, "imoto": 42277, "ĠÄĳáº§u": 32573, "Ġfuckin": 20022, "Ġunm": 19334, "Ġthrust": 24030, "Ġallen": 18440, "ĠFurthermore": 23999, "Ġreacted": 34037, "Ġaliment": 17043, "Ġsympt": 7266, "ĠHidden": 41156, "ĠSham": 42912, "ertime": 37923, "unning": 25589, "agara": 38816, "åķ": 3284, "ĠLana": 48750, "ĠÐ¿ÑĢÐ¸Ð²ÐµÑĤ": 33879, "Ġmommy": 25606, "Ġauxiliary": 43741, "Ã¤ren": 21465, "Ġplayoffs": 41142, "alls": 39655, "ĠÐ±Ð¸": 47334, "Ġimpacts": 11606, "Õ¥": 29092, "W": 54, "<|7.46|>": 50737, "<|startofprev|>": 50361, "BL": 17624, "ĠÑĢÐ°Ð·Ð½ÑĭÐµ": 43059, "Ġë¹¨ë¦¬": 23077, "Ġjunt": 22739, "amos": 2151, "keit": 9238, "utar": 32142, "ãģĿãģĹãģ¦": 25092, "Ġdragging": 24385, "ĠEinstein": 23486, "Ġexponent": 37871, "unÃ¤chst": 42121, "igmat": 46496, "<|10.34|>": 50881, "ĠSmells": 44355, "<|9.34|>": 50831, "asant": 10633, "Ġsomeday": 19412, "ĠEinsatz": 38474, "ĠSnow": 14827, "WOR": 48126, "<|5.80|>": 50654, "Ġembro": 27925, "ĠìĿ´ëŁ¬": 37398, "rive": 8003, "Ġtidak": 18943, "ĠIgn": 24754, "ĠKE": 21887, "Ġunintention": 45514, "å¹¹": 29932, "åĲĦä½į": 22073, "arus": 31241, "Ġspare": 13798, "Ġdislike": 26006, "Ġthe": 264, "ĠRichtung": 33023, "Ð°Ð¹": 3183, "ĠØ§ÙĦÙĬ": 45595, "ĠCOL": 31286, "ranean": 24584, "ahl": 10722, "!!!!": 8153, "ational": 1478, "pt": 662, "Ġcontent": 2701, "Ġsurgeons": 42354, "Ġ×ľ×Ķ": 13995, "Ġslowing": 26958, "Ġphysicists": 48716, "ĠhiÃ§": 15169, "Ġhomme": 35794, "ĠThroughout": 22775, "Ġawaiting": 43759, "Ã©lior": 44795, "ĠcrÃŃt": 39927, "ĠìĦ¤": 30630, "Ġpartially": 18886, "Ã©rÃªt": 44791, "Ġwhale": 25370, "Ġgebaut": 49203, "¿": 123, "ĠëĤĺìĺ¤": 19857, "Ġinteractive": 15141, "ĠKlar": 44893, "Ġrevol": 16908, "Ð½ÑıÑı": 41884, "Ġmerk": 43541, "Ġentropy": 30867, "Ġkann": 4028, "ĠÑĢÐ¾Ñģ": 44935, "ĠÐ¿Ð¾ÑĢÑıÐ´": 36681, "Ġcoses": 31860, "Ġremote": 8607, "Ġacquired": 17554, "Ġpour": 2016, "ĠFore": 9018, "ck": 547, "Ġgases": 21452, "Ġsee": 536, "ĠGarrett": 40266, "<|14.74|>": 51101, "FI": 38568, "Ġgymn": 35760, "cile": 28886, "Ġraging": 44173, "uten": 7886, "Î»Î¿": 32043, "Ġimplic": 10629, "ytt": 29475, "ĠLAN": 37387, "Ġcliffs": 50039, "ĠCoun": 4780, "ĠãģĿãĤĮ": 47765, "ter": 391, "Ø§ÙĦÙħ": 45340, "Ġrepresents": 8855, "ĠìłľìĿ¼": 23090, "ĠmÃ¼ssen": 9013, "é©": 24023, "Ġcuisine": 25257, "Ġalarming": 44043, "Ġpost": 2183, "Ġingl": 35511, "Ġ1919": 46484, "quir": 45568, "Ġcowboy": 39174, "auge": 16558, "eps": 10653, "you": 5616, "å¼ł": 44059, "Ġì¶Ķì²ľ": 40264, "bu": 6021, "ĠKl": 16053, "ĠCrystal": 23489, "ividade": 41121, "ĠJiang": 23458, "Ġjobs": 4782, "acey": 29059, "ensemble": 43004, "ĠBER": 42488, "rost": 27494, "æľį": 27408, "Ġslam": 25617, "Ġstato": 29657, "Ġ×Ķ×ĸ": 32888, "baum": 46641, "Cause": 7585, "Ġbunny": 28588, "ĠÃºnico": 26113, "Ġmigrants": 31263, "Ġcontinent": 18932, "Ġsupers": 37906, "ĠTheir": 6710, "ĠëĮĢë": 17691, "ronics": 37042, "<|22.70|>": 51499, "Ġplag": 33756, "ĠUK": 7051, "Ġstatic": 13437, "£ł": 24037, "Ġstudio": 6811, "ĠMana": 33711, "Ġsont": 4900, "Ġimmigrants": 16598, "Ġaven": 18469, "before": 45301, "Ġchase": 15359, "ĠHP": 12557, "<|23.22|>": 51525, "ĠArsen": 41218, "ĠRest": 13094, "Ġche": 947, "ĠElli": 40612, "Ġstarring": 30701, "ĠíĶ": 8074, "Ġtous": 8317, "Ġeasy": 1858, "ĠPatienten": 46294, "à¸ĭ": 43047, "Ġlisted": 10052, "Ġhose": 20061, "Ġstation": 5214, "ĠÑģÐºÐ°Ð¶": 21938, "Ġê·¸ëŁ°ëį°": 16610, "Ġeither": 2139, "Ġattached": 8570, "Ġaltogether": 19051, "ĠLuca": 42076, "ĠÑĤÐ°ÐºÐ¾Ð¹": 13452, "Ġputa": 46681, "anÄ±": 35869, "Ġsaints": 29546, "Ġkicking": 19137, "Ðĳ": 18172, "Ġparadise": 25919, "Ġë¬´": 27387, "Ġessence": 12801, "fallen": 24425, "zin": 23584, "åĽłä¸º": 34627, "åĲĳ": 24282, "umbles": 12255, "ĠNewton": 19541, "Ġcigarettes": 29244, "ĠFusion": 36721, "Ġinne": 24170, "Ġcelui": 22829, "ĠHeavenly": 38352, "Ġgovernors": 36571, "Ġcess": 47052, "ĠLaughter": 13584, "Ġfam": 1087, "Ġkl": 9671, "Ġdurch": 7131, "Ġmetre": 42431, "ĠClean": 18463, "into": 17246, "ĠBritney": 46161, "Ġtrap": 11487, "Ġlayering": 40754, "iven": 5709, "ww": 4979, "Ġinappropri": 24728, "Ġbread": 5961, "aches": 13272, "å·¦": 21975, "<|12.16|>": 50972, "I": 40, "<|21.76|>": 51452, "mÃ¤": 22437, "Ġsister": 4892, "ĠWare": 49978, "olds": 31518, "ĠVide": 7926, "ĠVikt": 42500, "Ġskal": 16890, "ĠQuÃ¨": 31951, "ĠPict": 23899, "uler": 26318, "ĠPrefer": 48401, "Ġouv": 21157, "Ġupd": 3460, "Ġquin": 42215, "ĠHD": 12149, "Ø±ÙĬ": 16572, "Ġcuidado": 31891, "bru": 7294, "Ġlei": 32791, "otle": 30773, "Ġlicensing": 29759, "Ġpreached": 40001, "Ġsucked": 26503, "elen": 14818, "Ġprzep": 30829, "Ġunin": 43456, "Ġmour": 22235, "ĠJohnny": 15999, "å¤§åĵ¥": 44093, "arespace": 45337, "Ġpants": 10082, "Ġtox": 10357, "Ġmijn": 19884, ".âĢĭ": 14900, "ĠÐ¸Ð´ÐµÑĤ": 40029, "ĠJulie": 18794, "<|24.48|>": 51588, "Ġneglected": 32701, "Ġ68": 23317, "Ġdesapare": 42316, "They": 8829, "ppe": 19833, "ĠfÃ¼rs": 46577, "issible": 41073, "Ġsearching": 10808, "Ġemit": 32084, "Ã¨ncia": 28917, "ĠMart": 5807, "Ġelf": 35565, "ietet": 45531, "omy": 8488, "ĠCit": 18435, "Ġbagus": 48348, "Ġprocedural": 43951, "usting": 11712, "ramient": 37910, "ĠSecurity": 11164, "Ġgroove": 26910, "Ġinstalled": 8899, "Ġcin": 6539, "ç°¡åĸ®": 31995, "Ġchewy": 28139, "Ġíķ©": 32413, "Ġger": 5713, "Ġrealization": 25138, "Ġspacious": 36801, "ĠLoy": 50048, "Ġadul": 26885, "åĢĴ": 30878, "Ġdisp": 4920, "shaped": 23103, "ufact": 5563, "Ġdefic": 19248, "Ġweather": 5503, "ÐĿÐĲÐ¯": 28729, "<|21.58|>": 51443, "ĠPars": 49691, "Ġfalse": 7908, "VER": 9398, "Ġwack": 42138, "Ġì¤": 4855, "Ġgraffiti": 40531, "æĦŁè¬Ŀ": 40143, "Ġextensions": 25129, "ĠÃ¡r": 35349, "ê¹ĮìļĶ": 16474, "ĠVision": 25170, "ĠLiverpool": 32473, "à¸²à¸¡": 33077, "dom": 4121, "Ġtweak": 29879, "ĠTD": 42606, "color": 23851, "ĠWorlds": 43003, "ĠMonet": 47871, "Ġproductive": 13304, "Ð°Ð½Ð¾": 19545, "Ġinequ": 25099, "ongo": 25729, "Ġwestern": 13231, "ĠÄ°s": 45053, "·": 115, "allah": 13492, "ĠPav": 39062, "åª": 44332, "ĠreprÃ©sent": 40509, "comfort": 27289, "Ġcomfortably": 25101, "Ĳë§Į": 25940, "histoire": 29093, "ĠFiona": 42556, "Ġrights": 4601, "<|mg|>": 50349, "Ð¾ÑĢÐ¾Ð²": 19716, "ĠOK": 2264, "ĠMajesty": 10665, "Ġ101": 21055, "05": 13328, "Ġguarante": 14203, "Ġinitiated": 28578, "Ġeach": 1184, "ĠVera": 46982, "Ġë°ĶëĢ": 43841, "igt": 5828, "ĠÐ´ÐµÐ²": 20572, "Ġgeometric": 33246, "ĠChrome": 15327, "Clint": 28243, "ango": 17150, "TIN": 13758, "ĠparlÃ©": 38570, "×©": 5365, "Ġrefusing": 37289, "Har": 49571, "ĠJOSH": 36883, "Ġnortheast": 40984, "Ġdot": 5893, "ĠEveryday": 37689, "Ġcuid": 20770, "Ġuncertain": 11308, "abytes": 24538, "Ġcirculating": 39749, "Cre": 44637, "manuel": 31385, "iscern": 42074, "ĠÐŁÐ¾Ð»": 28183, "Ġoral": 19338, "cas": 16369, "Ġcongest": 31871, "ĠCV": 22995, "Ġbliss": 31522, "ÑĹ": 8045, "bere": 18582, "amente": 3439, "zd": 31278, "ef": 5666, "Ġeditions": 44840, "ills": 2565, "Ġtadi": 42953, "Ġgrooves": 49359, "Ġgera": 41289, "Ġgosp": 37250, "Ġsorgen": 47972, "Ġspaces": 7673, "ĠEle": 8024, "Ġmism": 23220, "upl": 44810, "ĠInfin": 22145, "Ú¾ÛĮ": 36078, "Ð¿Ð¸Ñģ": 19730, "Ġdressed": 12386, "ä¸Ģå®ļè¦ģ": 48161, "ĠmÃºsica": 20091, "Ġicon": 6528, "Ġtrois": 19758, "ĠÙĪÛģ": 44291, "Ġcompetitors": 18333, "ĠBin": 18983, "ĠRes": 5015, "Ġearliest": 20573, "<|21.70|>": 51449, "<|startoflm|>": 50360, "Ġselfies": 34814, "ĠSerÃ¡": 42968, "<|3.26|>": 50527, "Ġexhib": 8144, "Ġëª¨ìĬµ": 27780, "win": 9136, "Ġfui": 27863, "Ġëĥ": 26218, "ĠDOU": 45723, "riet": 20782, "agog": 31599, "ĠìĦłë¬¼": 44956, "Ġdepression": 10799, "Ġfive": 1732, "ctional": 41048, "é¡": 10178, "Ġderecho": 39055, "ÅŁam": 40839, "èĬ": 13778, "ÑıÑģ": 15293, "ĠAgreement": 40572, "Ã¡o": 45202, "Ġzug": 33507, "Ġmesmo": 9082, "Ġpequ": 26758, "Ġcrowd": 6919, "Ġroutine": 9927, "ÐºÐ¾Ð¹": 11565, "Ġcuerpo": 20264, "usa": 20318, "!(": 46824, "Ġ230": 35311, "Ġtinc": 43240, "Ġillustrations": 34540, "Ġdiret": 48196, "Ġauto": 8399, "ãģªãĤĭãģ»ãģ©": 39506, "ĠApple": 6373, "Ġpoisonous": 37376, "istine": 42745, "Ġmart": 12396, "ĠFavorite": 43697, "ĠÑĤÐ¾": 4572, "Ġdecisions": 5327, "ĠmÃły": 45464, "Ġlihat": 45153, "<|7.12|>": 50720, "Ġadv": 1551, "Ġnhá»¯ng": 20136, "Ġsettlements": 35558, "ids": 3742, "Ġconstructor": 47479, "genes": 47986, "Ġconstit": 23079, "è·Ł": 9678, "Ġstumbled": 36668, "Ġdepressed": 18713, "ĠCamp": 9189, "believable": 13729, "Ġ78": 26369, "ĠJanet": 26948, "Ġapproaching": 14908, "ĠBeyond": 19707, "Ġordering": 21739, "ĠWald": 29223, "Ġfury": 48887, "Ġinquiry": 25736, "Ġíķ¨": 19340, "Ġmilk": 5392, "Ġtells": 5112, "Ġprescribe": 49292, "Ġreducing": 12245, "ÅĨ": 43657, "ĠCraw": 37877, "Ġspeakers": 9518, "éĢĻæ¨£åŃĲ": 24842, "ĠGods": 30151, "UA": 35227, "<|23.92|>": 51560, "Ð¾Ñħ": 20976, "Ġwhere": 689, "<|10.76|>": 50902, "è·ĳ": 32585, "Ġels": 10302, "Ġì½ĺ": 43875, "Ġmainstream": 15960, "Ġthought": 1194, "ĠëĮĢë°ķ": 38017, "Ġproton": 31728, "ĠlÃł": 3684, "cellence": 17379, "ÏģÏĮ": 21457, "ĠResident": 29563, "Ġinscription": 49882, "ĠÑĤÐ°ÐºÐ¸Ð¼": 31584, "<|7.58|>": 50743, "<|9.26|>": 50827, "ĠThankfully": 28344, "ĠsÃ¶yle": 16928, "Ġhandwriting": 39179, "ĠTerry": 21983, "Ð¾Ð¿": 3762, "Ġconver": 9652, "Ġcontractor": 26463, "Ġsurge": 18989, "ĠYOU": 7928, "ãģĺãĤĥãģĤ": 31284, "Link": 26822, "ennis": 11307, "ĠìĿ´ë²ĪìĹĲ": 40692, "Ġfictional": 28911, "Ġsetup": 8657, "Sl": 46922, "ĮĢë¥¼": 49946, "ael": 4300, "æķ°": 33188, "Ġpaying": 6229, "Ġim": 566, "ĠLiqu": 32331, "ste": 2941, "rr": 16115, "Ĳľ": 14987, "ternal": 7481, "ede": 4858, "Ġopen": 1269, "<|28.38|>": 51783, "ĠHeart": 13569, "aiah": 23657, "ĵ¤ìĿĦ": 24968, "Ġavaient": 38703, "ĠShepherd": 43395, "imate": 2905, "ynchron": 36420, "osit": 9598, "Free": 45479, "Ġnurturing": 48116, "ĠëĿ¼ë": 44831, "nio": 41084, "ĠÑģÐºÐ»Ð°Ð´": 46185, "Ġconfigur": 22192, "<|8.84|>": 50806, "Ġterra": 26298, "Ġisto": 35835, "Ġenemy": 5945, "annon": 16138, "Ġtwins": 22555, "Ġsolitary": 44155, "ĠStretch": 38817, "ĠCAN": 22931, "Ġkommun": 26275, "Ġcelebr": 3886, "ĠÐ¿Ð¾ÐºÐ°Ð·ÑĭÐ²": 34614, "Ġ(?)": 33426, "Ġsouthern": 13456, "ĠìłľëĮĢë¡ľ": 43795, "Ġê±°ì£ł": 26957, "Ġexplains": 13948, "ĠsÃ¤tt": 29503, "bit": 5260, "æľĥ": 6236, "Ġslee": 12931, "ĠdÃ©couvrir": 47756, "Ġexplosives": 46421, "Ġcriar": 36882, "ĠWright": 25578, "Ġimages": 5267, "Ġconsec": 40526, "tery": 12733, "UI": 46324, "ĠtÃ©lÃ©": 24254, "Ġthem": 552, "uso": 24431, "ĠKiller": 39846, "ET": 4850, "Ġinsists": 50137, "ĠSkillshare": 42991, "<|la|>": 50294, "Ġseparated": 12005, "Ġharmless": 40160, "ĠDaddy": 15323, "ĠÐ¾ÑģÑĤÐ°Ð½": 41633, "Ġcorporations": 17676, "Ġannouncing": 28706, "Ġexiting": 48868, "ĠChel": 24345, "íĬ": 5963, "Book": 19203, "Ġretrie": 19817, "Ġfierce": 25341, "iÃ§Ãµes": 38038, "87": 23853, "Ã¼hr": 11986, "á»ĥ": 9571, "Ġinnovative": 12999, "huh": 18710, "open": 15752, "owiÄħ": 47886, "Ġyards": 18685, "Ġsusceptible": 31249, "³´ë": 17420, "ĠWhats": 22051, "Ġpeoples": 16915, "cong": 40275, "Ġreceber": 42748, "ĠHeidi": 40947, "Ġinclude": 4090, "ĠSwami": 33018, "Ġchanting": 35775, "Ġwhich": 597, "ĠLance": 40493, "ĠSwift": 25539, "Ġknight": 26054, "ĠbakÄ±n": 43307, "immung": 38412, "amoto": 35858, "Ġmisconception": 41350, "<|0.66|>": 50397, "ance": 719, "<|26.28|>": 51678, "Ġdokument": 40858, "Ġonion": 10916, "Ġvendor": 24321, "Ġbothering": 31432, "Ġbeaten": 17909, "æĮ": 8501, "ĠSur": 6732, "Ġainsi": 26552, "ĠJOE": 44114, "Ġbumps": 27719, "ŀ¨": 43369, "cÄħ": 32557, "Ġbeard": 17455, "Ġdecentralized": 32870, "ĠÃ¡": 7352, "fried": 22773, "et": 302, "Ġencounter": 8593, "Ġum": 1105, "Fit": 49901, "Ġvalt": 45912, "Ġtiempo": 11772, "Ġgluc": 19636, "<|2.66|>": 50497, "ya": 3016, "Ġbrothers": 8452, "Ġëĭ¹": 12047, "Ġmill": 1728, "Î¯Î½Î±Î¹": 14738, "Ġeggs": 6466, "ê°ĲìĿ´": 36201, "Ġdopo": 35196, "Ġreference": 6408, "åĭĻ": 39517, "Ġtents": 39283, "Ġris": 2253, "Ġkinetic": 27135, "Ġalways": 1009, "Ġscarf": 29086, "<|14.76|>": 51102, "aroo": 47937, "Ġsqueeze": 13578, "Ãłn": 22476, "Ġëĭ¨": 16818, "ĠUW": 35691, "Ġspinning": 15640, "ĠIsrael": 5674, "Ġleading": 5775, "ĠDÃ¤r": 40291, "Ġpalavras": 46169, "here": 6703, "Justin": 49371, "Ġenqu": 21304, "éĶĻ": 29900, "ansing": 44829, "åºĶ": 44297, "Ġpropio": 40098, "Ġprejudice": 34260, "Ġsigui": 39578, "Ġexplic": 28021, "arla": 34148, "ÑıÐ·": 11124, "ĠNach": 11815, "Ġstitch": 5635, "Ġlett": 20689, "Ġbesl": 47118, "Ġtraded": 27157, "Ø§Ø´": 33599, "Ġ120": 10411, "Ġapp": 724, "Ġquickest": 49403, "anda": 5575, "erne": 48135, "Ġhundreds": 6779, "Ġdeven": 43115, "ĠNatural": 20137, "Ġexported": 42055, "++": 25472, "ĠÑģÑĥÐ¼": 31372, "Ġpolitiques": 46267, "lv": 14574, "entin": 47300, "ĠExpect": 46318, "18": 6494, "ĠStraÃŁe": 43817, "ĠÐ¼Ð½Ð¾Ð¹": 39199, "Ġtranslucent": 48236, "ĠÐ¿ÑĢÐ¸Ðº": 25492, "AU": 2340, "Ġarran": 50235, "èĺ": 31882, "Ġfeel": 841, "ĠìŀĪìľ¼ëĭĪê¹Į": 44489, "blick": 38263, "ĠAppro": 29551, "Ġcelebrities": 23200, "Ð¸Ð¼ÐµÑĢ": 12170, "Ġvi": 1932, "ÏĥÎµÎ¹": 39320, "Ġpigment": 31325, "ĠMay": 1891, "ĠJahres": 44360, "Ġë¶Ģëĵľë": 47358, "ĠDiversity": 44187, "Ġpiel": 46065, "Cor": 29020, "ĠRabb": 36753, "Ġwatching": 1976, "ĠÃ¶r": 39249, "ĠPrincip": 32832, "Ġreliably": 49927, "Ġtraveling": 9712, "ĠÐ¼Ð¾Ð¶ÐµÑĪÑĮ": 46442, "udding": 49797, "Ġmorgen": 36593, "Ġletting": 8295, "agram": 3914, "Ġanalysis": 5215, "Ġgenommen": 38715, "ĠHare": 34836, "ĠMarÃŃa": 48472, "Ġion": 17437, "Ġalike": 20025, "chnitt": 32064, "Ġ\\": 12033, "Ġwinners": 17193, "Ġexpenses": 15506, "aren": 4484, "ĠLal": 47893, "<|18.14|>": 51271, "äºİ": 37732, "Ġcapable": 8189, "<|14.22|>": 51075, "<|10.30|>": 50879, "ĠMilliarden": 44784, "utenant": 21698, "Ġinsert": 8969, "ĠBot": 25486, "Ġspecial": 2121, "ulan": 40701, "Ġmonstr": 47137, "Î¹Î±": 8311, "wer": 1554, "ĠMov": 43756, "nia": 12679, "Ġalmost": 1920, "Ġguaranteed": 18031, "ĠMex": 6496, "Cola": 42441, "Ġminimizing": 46608, "Ġgrowing": 4194, "Ġhet": 3639, "Ġtaking": 1940, "Ġinsects": 20201, "Ġextract": 8947, "<|18.22|>": 51275, "ĠÎ±ÏħÏĦ": 18679, "ĠCommun": 6800, "Ġswitches": 19458, "Ġsurrounding": 11498, "inator": 31927, "ĠSerie": 49135, "Car": 24437, "Ġbare": 6949, "Ġdomest": 39125, "aste": 9079, "Ġjewe": 46534, "ĠWieder": 45742, "ĠOperations": 36381, "Ã©rence": 41635, "<|1.42|>": 50435, "kiye": 31137, "ãĥīãĥ³": 22754, "lerweile": 36055, "âĦ¢": 34933, "Ġì§ĳìĹĲ": 38380, "ãĥĢ": 28651, "Ġsono": 9259, "Ġachei": 44961, "ĠÐ»ÑĥÑĩÑĪÐµ": 21569, "ĠtrÃ¡s": 46189, "Ä±m": 2648, "Ġsymptom": 29370, "ĠpÃ³": 28157, "ĠVernon": 47516, "ĠdÃ³nde": 34264, "preh": 40128, "AJ": 36404, "Ġeffet": 30960, "Ġvenir": 20817, "usp": 22490, "Ġfordi": 47830, "alal": 43753, "Ġ03": 43677, "Ġadoption": 19215, "Ġaz": 7883, "are": 543, "Ġdalej": 34257, "igator": 28895, "Ġë²Įìį¨": 49175, "heads": 29481, "ĠÑįÑĤÐ¾ÑĤ": 11508, "Ġcourtesy": 41704, "ä»ĸèªª": 31592, "ĠFigure": 43225, "ĠBentley": 43147, "Ġpressing": 12417, "ĠChef": 14447, "<|28.92|>": 51810, "Ġchicken": 4662, "ĠRa": 7591, "cision": 40832, "ì¼ĢìĿ´": 26707, "ãħĭãħĭãħĭãħĭ": 15027, "Ġunpack": 26699, "Ġdrawing": 6316, "ÙĬÙĦ": 26895, "ĠSteve": 7466, "Ġtransport": 5495, "ÐµÑģÑĤÐµ": 24076, "BLANK": 37592, "<|28.72|>": 51800, "Ġdogs": 7197, "å¦Ī": 32462, "kah": 37605, "×¨×Ļ×Ŀ": 28096, "ĠPu": 13605, "Ġprogressed": 36789, "Ġinvolving": 17030, "è®©": 33650, "ĠKane": 39161, "ĠÐ¿ÑĢÐ¸Ð´ÑĥÐ¼": 45234, "anza": 20030, "ĠTruck": 44600, "ä¹Łæĺ¯": 22021, "íĪ¬": 40147, "ĠNun": 23696, "Ġfamille": 28123, "ĠìŀĳìĹħ": 40316, "Ġexem": 9659, "ĠAmÃ©rica": 48053, "ĠCurt": 26587, "Ġavent": 36399, "à¤¤": 36158, "Ġmoeten": 26175, "ĠOo": 39308, "Ġgeology": 48788, "Ġyeter": 48398, "ĠDÃ¥": 26339, "ĠElaine": 42322, "Ġara": 15186, "Ġtechnician": 38247, "NO": 12861, "éĥ½æľī": 48121, "Ġally": 23356, "´ì": 1041, "Ã¥r": 6057, "Ġexcit": 13101, "Ġlegitimacy": 41339, "ĠWan": 28932, "aid": 17810, "Ġdomination": 41502, "åĽ½": 16086, "Ġì¢ĭìķĦìļĶ": 22482, "Ġalleged": 26317, "isme": 16415, "Ġalguma": 20259, "Ġheaven": 7162, "Ġdiox": 18982, "Ġparc": 30511, "We": 4360, "Ġhyster": 35915, "Ġprinciple": 8665, "Ġhmm": 16478, "ĠEnemy": 48886, "Ġclones": 43803, "Ġreached": 6488, "Ġparameters": 9834, "Ġpoems": 24014, "Ġbookstore": 43478, "Ġcous": 12304, "avait": 38307, "ĠyanlÄ±ÅŁ": 46763, "ãģĦ": 1764, "Ġjewelry": 19982, "Ġrisque": 37574, "Ð¸ÑĩÐµÑģÐºÐ°Ñı": 49221, "Ġepoxy": 45397, "ivable": 34376, "<|27.44|>": 51736, "Ð¸ÑģÐ°": 50019, "Ġacom": 22298, "Ġcabeza": 34615, "ĠBrus": 32894, "ãģŃãģĩ": 41799, "Ġinv": 1048, "Ç": 131, "ĠLCD": 33158, "ĠFEL": 46943, "ĠBlade": 32230, "Ġfading": 38644, "Ġlaquelle": 35668, "cod": 26560, "Ġasteroid": 33833, "ĠMat": 6789, "Ġalive": 5465, "<|22.96|>": 51512, "Ġakkor": 44439, "adder": 29901, "<|23.66|>": 51547, "<|21.96|>": 51462, "Ġiced": 46091, "atch": 852, "ĠBris": 30554, "Ġlyric": 42409, "ijk": 6940, "Ġregel": 40504, "ĠÑįÑĤÐ¾Ð¹": 14907, "ĠAvant": 44822, "Ġtrading": 9529, "ĠWonderful": 22768, "Ġdag": 15460, "Ġdivorce": 16052, "Ġpet": 3817, "gement": 48122, "ÑĨÐ¸": 3706, "ĠDO": 10699, "Ġaveraging": 47308, "Ġcommissioner": 33678, "Ġsynthes": 26617, "Î´Ïİ": 38022, "homme": 38073, "Ġpyramid": 25950, "Ġcleared": 19725, "ĠTogether": 15911, "Ġkriegen": 46882, "Ġcorrections": 36406, "ĠMater": 19188, "Ġmanually": 16945, "Ġbelo": 13878, "ĠUt": 12555, "Ġtoddler": 44348, "Ġ,": 3182, "Ġweddings": 39617, "Ø¤": 33604, "Ġmedieval": 24078, "ĠNamen": 38771, "Ġfossil": 18737, "osition": 5830, "ĠerzÃ¤hlt": 47110, "Ġmantra": 32094, "Ġenh": 10944, "Ġperipher": 26807, "Ġrelatives": 18201, "Ġpussy": 40169, "Ġslim": 25357, "ĠAj": 25862, "ĠÐ¿Ð»ÑİÑģ": 43342, "ĠDafÃ¼r": 35865, "Ġapartment": 9587, "adelph": 20598, "Ġsharper": 44670, "Ġwill": 486, "ĠdokÅĤad": 45864, "ĠvÃ©r": 46919, "Ġfighting": 5237, "ĠHoly": 6295, "orer": 17618, "ç¾©": 37430, "Ġgrassroots": 39522, "Ġcutest": 46582, "Ġmatrices": 32284, "ĠVill": 14244, "blem": 1113, "æĪĳä¸įçŁ¥éģĵ": 47826, "ÐºÐ²": 27828, "ĠNXT": 38414, "Ġfuss": 34792, "hog": 27084, "ĠDa": 3933, "ged": 3004, "Ġ80": 4688, "Ġdisastrous": 44502, "å¾ħ": 18390, "ĠaslÄ±nda": 34541, "Ġlite": 15100, "Ġfreak": 21853, "Ġexits": 44183, "Ġreopen": 33861, "Ġcling": 35986, "ĠEf": 31840, "Ġdishwas": 35992, "ĠPrincess": 13903, "ÏģÏī": 28684, "Ġoutset": 44618, "ĠÐ¸ÑģÐ¿ÑĭÑĤ": 46212, "Ð²Ð¸Ð½": 36823, "Ġëı¼": 11080, "ĠëĶ": 7378, "Ġ1996": 22690, "Ġverdi": 40243, "ĠAuch": 13382, "ä¾¿": 27364, "<|13.52|>": 51040, "Ġknapp": 40979, "xim": 3081, "ĠMaps": 28978, "æ»¿": 32197, "Ġproximity": 27632, "oz": 15151, "å®ŀ": 24726, "des": 14792, "ĠÐ±ÑĥÐ´ÐµÑĤÐµ": 46872, "ĠApp": 3132, "ÑģÑĤÐ°Ð½Ð¾Ð²": 39834, "ÃŁerdem": 35957, "Ġimporting": 43866, "æ¸ħ": 21784, "Ġplugins": 33759, "ĠCOB": 34812, "Ġknown": 2570, "Ġjazz": 15066, "ÏĥÏĦ": 22156, "íĽĦ": 26799, "Ġsurt": 18622, "Ġinvestigate": 15013, "Ġfound": 1352, "Ġsports": 6573, "ĠAnsch": 45062, "ìķĺ": 9106, "Ġwireless": 14720, "ÄŁa": 38004, "×Ľ×©": 39725, "Ġìĸ´ìłľ": 39247, "ĠOH": 13931, "<|12.02|>": 50965, "Ġfart": 24575, "èī¯": 33950, "Ġbabies": 10917, "Ġperto": 42855, "Ġway": 636, "åİ²": 20644, "Ġcontam": 20463, "ĠHans": 17926, "ìħ¨ë": 44861, "Ġëį°ë": 39267, "Ġdeceive": 43440, "Ġê´Ģìĭ¬": 47229, "ĠÐºÐ°ÐºÐ¸Ðµ": 19971, "Ġupward": 23452, "Ġunity": 18205, "Ġcarte": 31483, "ĠJurassic": 44730, "Ġnotebooks": 43782, "Ġ31": 10353, "cade": 30340, "Ġnarciss": 25771, "Ġpuedes": 19010, "Ġsilly": 11774, "Ġsizz": 43828, "Ġunav": 36541, "ĠczÅĤowie": 36282, "Ð¾Ð»Ð¾ÑĤ": 49652, "Äħ": 1611, "ĠÐ´Ðµ": 36397, "Max": 36025, "Ä±n": 2263, "<|19.56|>": 51342, "ĠMeredith": 29737, "ischen": 6282, "Ġseni": 21897, "Ġpension": 21927, "ĠJeffrey": 28721, "ĠBefore": 4546, "<|13.46|>": 51037, "ĠÄĳi": 13264, "ĠSuppose": 21360, "Ġcelebrates": 47182, "istes": 22368, "ar": 289, "Ġreap": 39178, "Ð½ÑĭÐ¼Ð¸": 15076, ",": 11, "Ġroy": 36364, "ä¹ĭ": 9574, "ĠElectronic": 46921, "renched": 42388, "imagin": 44976, "nten": 14970, "Ġdisrupt": 14124, "ynthesis": 45601, "ĠÐ³Ð¾Ð»Ð¾Ð²": 24721, "Ġooh": 17024, "Ġalk": 37688, "ĠZhen": 27042, "ĠPronunciation": 45496, "ĠØ§ÙĦØ°": 32545, "éĤĦæĺ¯": 25583, "Ġuniverso": 42332, "ĠBecky": 30059, "Ġsuffer": 9753, "Ġbouncy": 49704, "Ķ": 242, "Ġcarboh": 24429, "ĠLos": 7632, "inn": 7729, "ĠSun": 6163, "ĠMama": 17775, "ĠÐ¿Ð¾Ð¿": 10694, "Ġz": 710, "most": 1761, "ĠHeath": 46622, "AA": 5265, "ĠWait": 3802, "Ġque": 631, "<|1.74|>": 50451, "ĠKabul": 48103, "Ġwithd": 12483, "KapÄ±": 37520, "ipples": 37674, "ĠEverything": 5471, "Ġparfait": 36102, "Ø±Ø¶": 43042, "Ġexhibit": 20487, "Ġpelo": 12167, "Ġtechnical": 6191, "Ġgraphic": 14089, "ĠKampf": 45126, "Ð½Ð¾Ð¹": 5007, "Ġrapport": 18018, "Ã¯": 15487, "Ġdela": 21820, "Ġsola": 34162, "Ġsystems": 3652, "Ġregrets": 31214, "Ġkleiner": 39496, "Ġpierwszy": 34016, "ĠÐ¿ÑĢÐ¾ÑģÑĤÐ¾": 8221, "Ġbattle": 4635, "ė": 211, "Ġorchestral": 36244, "åĳµ": 38255, "Ġisolation": 16001, "Ġrelax": 5789, "ĠìĿĮ": 15179, "Ġestava": 15662, "Ġsustainable": 11235, "ser": 12484, "Ġpr": 582, "Ġmister": 26562, "Ġmaior": 15859, "istas": 14858, "Ġnoch": 3514, "ÑĭÑħ": 7205, "ãģ§ãģĹãģŁ": 40882, "act": 578, "ĠÑīÐ¾Ð±": 42899, "Ġversions": 9606, "Ġsimulate": 27817, "Ġrecall": 9901, "ĠÐĹÐ´": 17613, "aln": 39980, "OOO": 44136, "ãģĤãĤĬãģĮãģ¨ãģĨãģĶãģĸ": 24701, "gh": 9030, "Ġinevit": 14481, "Ġregarding": 8595, "Ġruh": 36614, "Ġpouring": 20450, "ĠÐ°ÐºÐºÑĥ": 49381, "Bro": 43295, "Ġmiddle": 2808, "ĠVik": 29465, "Ġahor": 44249, "Ġnavigating": 32054, "ĠSea": 11352, "ĠvidÃ©": 9543, "itic": 44592, "vir": 46551, "owania": 21308, "ĠStatistics": 49226, "Ġimmature": 49539, "Ġdraw": 2642, "nych": 9399, "ĠFe": 3697, "<|28.08|>": 51768, "emi": 13372, "Ġevapor": 26315, "Ġdegree": 4314, "ĠJH": 27473, "Ġê°": 1777, "ĠÑģÐ¾Ð³": 33255, "ãĥĹ": 20953, "Ġwitnessed": 21519, "JA": 27818, "ĠVis": 10410, "Ġplywood": 43633, "ĠTennessee": 21127, "ĠTube": 39313, "ç¬¬ä¸Ģ": 18049, "oof": 29496, "ĠÐ½ÐµÐ¾Ð±ÑħÐ¾Ð´": 31360, "Ġcrops": 16829, "Ġmileage": 43121, "Ġmelod": 32834, "ĠAl": 967, "ifiable": 30876, "Ġmercury": 33307, "Ġflank": 36318, "Ġauthentication": 26643, "æ¨£": 6180, "ĠHunt": 31740, "ĠBBQ": 40969, "Ġstores": 9512, "ĠPhi": 41435, "ĠÐ¿ÑĸÐ´": 26419, "Ġmet": 1131, "Ġhighways": 43747, "ĠHeh": 34984, "Ġdemasi": 35259, "<|21.38|>": 51433, "Ġcares": 12310, "haps": 3591, "omnia": 45438, "daughter": 34633, "<|13.98|>": 51063, "Ġcrois": 21724, "ĠWebb": 49649, "erem": 7333, "ĠÅŁeh": 49755, "cope": 13960, "Ġexatamente": 35937, "Ġdodge": 27238, "Ġdazz": 44078, "Ġvide": 838, "umi": 17800, "ĠÐĴÐ°Ñģ": 37055, "Ġelephant": 19791, "Ġways": 2098, "Ġì¢ħ": 25260, "ĠNS": 15943, "ocket": 31380, "Ġgluten": 24326, "Ġbrill": 8695, "ĠAtari": 41381, "<|3.92|>": 50560, "<|19.80|>": 51354, "ĠquÃ¡": 38338, "ä»ĬåĽŀ": 30551, "riad": 45192, "ĠMitarbeiter": 38324, "Ġidentifier": 45690, "Ġboxing": 24424, "Ġinitial": 5883, "Ġnine": 4949, "ĠChu": 25585, "Ġreservation": 28922, "ĠBROWN": 37705, "ĠBread": 35357, "Ġmonitor": 6002, "Ġmistake": 6146, "ĠRox": 44427, "ĠdeÄŁ": 7725, "ĠCute": 29121, "Ġhamburger": 34575, "Ty": 22464, "Ġconfessed": 41428, "çĻ¼çı¾": 38927, "Ġnod": 15224, "Ġkind": 733, "Ġpurchased": 14734, "ĠPerform": 19351, "ĠPam": 23532, "ĠTech": 13795, "<|18.36|>": 51282, "ĠNF": 13576, "éĽ": 6306, "åı¥": 34592, "íģ¬": 12504, "Ġrall": 31552, "Ġbandwidth": 23647, "Ġallt": 23612, "Ġwarm": 4561, "auso": 32310, "Ð¡Ð¢": 40752, "ĠEsper": 24142, "Ġantes": 11014, "Ġrecognizable": 40757, "ãģĪãģĪ": 39643, "Ġsewn": 46946, "<|8.06|>": 50767, "Ġpopular": 3743, "<|18.52|>": 51290, "art": 446, "Ġanderen": 11122, "dro": 45869, "<|5.64|>": 50646, "ĠROM": 41678, "good": 21753, "ĠCovid": 14633, "Ġmagist": 48894, "Ġhunter": 22970, "zek": 19878, "aba": 5509, "ą": 193, "ĠaixÃŃ": 40217, "Ġprecisamente": 44901, "æĪĸèĢħ": 31148, "Ġkepada": 45598, "ĠeducaciÃ³n": 48861, "ĠÐ²Ð¸Ð´Ðµ": 12921, "ìį": 33064, "Ġetap": 47634, "Ġroommates": 46886, "Fine": 41415, "Ġoder": 4513, "Ġparting": 46607, "æ¸": 9592, "ĠIndividual": 37292, "ĠíĿ": 14473, "Ġmentions": 23844, "rencies": 25000, "90": 7771, "ĠSinger": 44184, "Ġhypotheses": 49969, "entimes": 15760, "ë§": 3468, "ĠìĺĪë": 22551, "Ġhypertension": 46172, "Ð": 140, "ĠëĲĺëĬĶëį°": 36436, "Ġrelig": 4039, "Ġoutdated": 36313, "Ġpneumonia": 43097, "åįķ": 47446, "General": 46302, "Ġnave": 39376, "Ġbackwards": 12204, "ĠØ£": 5551, "ĠHarris": 17426, "Ġstun": 11885, "Ġdakika": 34323, "Ð¾ÑĢÐ°": 22889, "Ġteenager": 21440, "ĠJeg": 17119, "Ġmilit": 19142, "Ġassemble": 22364, "Ùĭ": 14111, "Ġcomplexity": 14024, "iber": 5331, "<|13.34|>": 51031, "ĠCyr": 33146, "Ġglucose": 23997, "Ġperiod": 2896, "Ġtun": 4267, "Ġimpul": 41767, "Ġdiferentes": 17686, "mÃ¤ÃŁ": 32450, "gos": 18674, "ÑĢÑĥÐ¿": 17451, "ispering": 35237, "Ġheater": 30408, "ĠBehind": 20475, "Ġdisappe": 6657, "Ġ===": 7793, "ĠLovely": 33925, "Ġsymbolism": 47061, "rou": 13122, "Ġweigh": 13843, "Ġcrochet": 9387, "ĠHAR": 19819, "ĠUnit": 27894, "èī": 12531, "æ³ģ": 30772, "eting": 9880, "Ġspinal": 28022, "á¹Ľá¹£á¹ĩa": 35501, "Ġurgency": 29734, "Ġissued": 14379, "ĠKarma": 39063, "Ġvents": 40048, "ĠëĨĢë": 29873, "Ġerste": 20951, "Ġ×©×Ķ": 19208, "ĠFC": 27168, "Þ": 154, "Ġsummers": 46474, "rad": 6206, "Ġnozzle": 28998, "Ġtraz": 37481, "Work": 28846, "ĠGW": 36704, "ĠDeutschen": 45070, "Ġsenses": 17057, "Ġpipes": 21882, "videmment": 22639, "Ġlooking": 1237, "Ġpositiv": 40806, "col": 8768, "Ġalgun": 9813, "Ġjoint": 7225, "åŃ": 8052, "ĠOhh": 21847, "Ġtror": 22109, "Ð¾Ð»Ð¾Ð²": 34293, "ĠStudios": 23005, "ĠÐ¿Ð¾ÐµÑħ": 49519, "Ġpri": 1790, "éĴ±": 39623, "Ġoysters": 42296, "Ã©rt": 33672, "Ġbuscando": 46804, "Ġcivilians": 26073, "Ġmamm": 19033, "ĠCampaign": 38256, "ĠíķĺëĬĶëį°": 29600, "uper": 12879, "á»ĳ": 7863, "Ġfocal": 26592, "Ġexhale": 19652, "Ġnostra": 34311, "Ġsweetie": 40508, "ĠBeethoven": 38651, "aving": 6152, "Ġprofess": 2668, "YAN": 25326, "Ġbroad": 4152, "imasu": 47029, "Ġhandmade": 39446, "<|21.08|>": 51418, "ĠÎ¼ÎŃ": 27730, "áº·t": 38248, "ĠìĪĺë": 22297, "ĠEmily": 15034, "Ġvoltar": 36291, "Ġmusi": 37587, "ĠSwitzerland": 23312, "Ġfeeling": 2633, "Ġemotionally": 17991, "ĠPerez": 47317, "schaft": 37363, "Ġconsig": 40233, "ĠMinistry": 19720, "handed": 25407, "Ġpeeled": 39033, "Ãĳ": 35763, "íĺķ": 17453, "Ġquer": 7083, "uela": 16079, "Ġsnowball": 46143, "Ġprimo": 38671, "ingen": 12343, "ìľ": 2472, "Ġcalor": 31575, "ĠBulgar": 31125, "idelity": 33343, "Ġtourists": 20273, "Ġfoss": 14090, "ĠHanÄ±m": 37182, ",</": 18531, "Ġbecom": 2683, "Ġdifferenti": 27372, "Ġ98": 20860, "Ġexchanges": 27374, "ĠParticip": 35247, "Ġprobiot": 45710, "<|27.66|>": 51747, "Ġdesperation": 48980, "Ġdelighted": 18783, "Ġcurso": 31085, "<|13.60|>": 51044, "aver": 20655, "ĠHEL": 38856, "ised": 2640, "Ġsettlers": 43798, "ĠPolitik": 29847, "ĠStir": 23353, "ìĭľê³ł": 24303, "ĠSTR": 43013, "Ġbuffet": 42904, "Ġquartz": 48280, "Ġrocks": 10989, "oup": 1250, "icaÃ§Ã£o": 37823, "Ġtaste": 3939, "Ã¶z": 26698, "ĠAAA": 34347, "Ġcontamin": 27562, "<|7.42|>": 50735, "Ġmast": 27055, "Ð½Ð°ÐºÐ¾": 32088, "ï¿½ï¿½": 25804, "Ġdeploying": 34198, "ciamo": 42052, "ĠâĻªâĻª": 9061, "ĠYo": 7616, "IA": 6914, "Ġê±°ê¸°": 25191, "chnet": 46248, "Ġtitre": 44161, "Ġbeiden": 23446, "<|ha|>": 50354, "ANE": 29348, "als": 1124, "ĠRespect": 39079, "logo": 38212, "Ġleveling": 40617, "ĠÅŁeyler": 28863, "Ġtremendously": 27985, "ÐºÑĢ": 22274, "Ð¾Ð»ÑĮ": 2765, "<|8.36|>": 50782, "Ġtop": 1192, "Ġyearly": 39102, "ĠGuan": 41431, "ĠSAND": 44097, "Ġscattered": 21986, "ĠFach": 38213, "icem": 46343, "Ġintelligent": 13232, "aca": 6628, "Ġtranslated": 16805, "ì²ł": 39432, "Ġdispos": 15885, "Ġkingdom": 10231, "ĠÐ²ÑĸÐ´": 16947, "Ġgim": 27071, "Ġwan": 46930, "ĠDrop": 17675, "Ġfaction": 37249, "ĠSign": 13515, "Ed": 27061, "ĠTale": 49846, "ĠConnie": 49558, "Ġpedest": 20497, "Ġ-": 359, "ĠinformaciÃ³n": 21660, "ãģľ": 20258, "ĠCatalunya": 46039, "amer": 13530, "Ġ105": 33705, "ĠÐ¼Ð¸Ð½ÑĥÑĤ": 24498, "Ġdisconnect": 14299, "Ġaggressively": 32024, "ĠrÃ©alitÃ©": 35677, "ĠSanto": 49639, "guard": 27547, "Ġpublicity": 37264, "ì§¸": 18211, "],,": 43192, "Ġelectrod": 44216, "ĠBON": 48524, "ull": 858, "Ð°Ð½Ð½Ñı": 23521, "ioni": 15273, "pp": 427, "ĠFan": 18564, "Ġexploration": 16197, "´ëıĦ": 48157, "Ġseas": 22535, "Ġcommand": 5622, "Ġcours": 25452, "ĠEfendimiz": 50120, "Ġdrugs": 7766, "ĠAdvance": 44425, "Ġsuspense": 47803, "Ġangles": 14708, "Ġmerde": 45772, "ĠStu": 25203, "Ġeyes": 2575, "í": 169, "Ġencompasses": 49866, "Ġsuperfic": 23881, "Gu": 25627, "ius": 4872, "Ġprimarily": 10029, "ĠlÃ¤sst": 29335, "Ġvoted": 13415, "OS": 4367, "Ġdab": 28964, "Kap": 35372, "Ġrepresent": 2906, "Ġeggplant": 43018, "Ġanecdote": 49845, "ĠOrange": 17106, "Ġgebracht": 40744, "Ġcurly": 32066, "Ġdeixar": 19701, "alta": 37896, "Ġ280": 41229, "Ġobe": 36346, "Ġgorgeous": 12291, "irring": 30845, "ĠAprÃ¨s": 29265, "ĠìĤ´ìķĦ": 46978, "ĠUCLA": 42862, "Ġpressures": 23573, "ĠTesla": 13666, "Ġunf": 3971, "ijah": 32630, "Ġcompetence": 39965, "Ġlobbying": 47142, "Įëį°": 50158, "Ġhanno": 26595, "Ġreduces": 18081, "ierz": 34602, "eton": 26342, "commun": 25451, "Ġscaling": 21589, "CROSSTALK": 39721, "Ġtale": 17172, "rÃ¤": 11397, "Ġjugar": 37692, "Ġraised": 6005, "Ġjap": 48330, "tim": 31208, "ĠÑģÑģÑĭÐ»": 41480, "Ġopaque": 42687, "ĠëĦĪ": 12963, "áº¯t": 31454, "ĠëŃĶê°Ģ": 20729, "ĠYour": 2260, "ise": 908, "ahi": 27783, "Ã³j": 18999, "Ġderivatives": 33733, "lan": 8658, "æ¼Ĥäº®": 29019, "ĠPrÃ¤sident": 27513, "Ġbuds": 33916, "Ġlung": 16730, "Ġworthless": 34857, "Ġfahren": 25593, "ĠKern": 40224, "vak": 43506, "<|10.84|>": 50906, "mals": 34978, "Ã¨mes": 27164, "happy": 17888, "orta": 36403, "ĠDas": 2846, "Ġ×Ĳ×": 4142, "Ġdrafted": 36288, "ĠIsh": 42854, "ĠÐºÑĢÐ°Ñģ": 15826, "Jim": 36806, "Ġshut": 5309, "With": 20943, "à¸µà¹ī": 18074, "Ġsquirrel": 28565, "Ġclinics": 27252, "ĠgÃ©nÃ©r": 45622, "Ġshroud": 50077, "ometimes": 45890, "Ġhoe": 19709, "believ": 12230, "UN": 3979, "éĽ¨": 35339, "¦¬": 2250, "Ġnin": 9616, "åĺ": 10756, "Ġë¨¸ë¦¬": 27089, "Ġvivo": 30689, "ĠsÃ¥dan": 40989, "Ġanthrop": 22727, "Ġ×ŀ×¡": 32904, "ĠMummy": 46569, "Ġnarrow": 9432, "Ġessentially": 4476, "Ġusually": 2673, "azuje": 43317, "Ġë§Įë": 8165, "Ġbins": 41275, "Ġconcert": 8543, "Ġantibiotics": 26922, "Ġtu": 2604, "ĠAlban": 41547, "funded": 43589, "Ġrule": 4978, "itus": 30973, "ĠKollegen": 23713, "ĠRich": 6781, "ĠGrad": 16710, "Ġbuddies": 30649, "ĠEnvironment": 35354, "ĠNicht": 22629, "ê²łë": 37244, "ĠEssa": 22818, "ĠDemocratic": 14928, "lle": 2447, "Ġregime": 13120, "Ġtires": 13885, "Ġclears": 47033, "ĠLevel": 16872, "Ġsupplied": 27625, "<|3.10|>": 50519, "ĠÐ¿Ð¾Ð»ÑĥÑĩÐ°ÐµÑĤÑģÑı": 33451, "Ġconfusion": 15075, "çĶŁæ´»": 49958, "rained": 31774, "mana": 14524, "Ġeventually": 4728, "Ã¤ndig": 38861, "Andrew": 38805, "ĠAfrica": 7349, "Ġmankind": 21220, "itional": 2628, "Ġmalf": 41318, "Ġgospel": 14943, "ĠMarkt": 39774, "Ġeta": 32415, "Ġgid": 19805, "Ġauth": 6979, "ĠPalestinian": 28202, "Ð¸Ð·": 5572, "ĠHomer": 42273, "iencies": 31294, "zcz": 43771, "Ġslog": 49760, "Ġgour": 46651, "Still": 47156, "ÑĥÐ¶": 5726, "Ġmany": 867, "ĠÐ¿ÑĢÐµÐ´ÑģÑĤÐ°Ð²Ð»Ñı": 39412, "Ġsets": 6352, "ĠcÃ¢mera": 43640, "ĠFinish": 31583, "Ġtorpedo": 46764, "Ġvan": 3161, "Ġadvisors": 29136, "Ġcollar": 20672, "ãģ": 487, "×ĸ": 20316, "Ġtrazer": 44776, "Ġexpensive": 5124, "etter": 27296, "Ġa": 257, "Ġplayground": 24646, "Ġsanity": 47892, "ĠCNN": 24859, "ĠZak": 46546, "æ¯": 7256, "Ġbroader": 13227, "ĠHungarian": 38034, "ihood": 34262, "ĠVÃ¤": 45199, "ĠìķĬìĿĦ": 32112, "Ġmetric": 20678, "<|15.62|>": 51145, "kt": 2320, "Ġexact": 1900, "Ġambition": 22814, "ĠlÃ¤nger": 40935, "×Ļ×Ł": 15938, "ĠDemocr": 7141, "Ġpromoted": 21162, "ĠVar": 14662, "ĠKin": 27950, "Ġchim": 18375, "ĠÐ³Ð¾": 6778, "Ġscholarly": 39589, "éĻ½": 46806, "ĠAmelia": 42814, "ĠÐĿÐ¸Ðº": 28448, "ĠTool": 15934, "js": 25530, "ĠëĶĶ": 25158, "Ġãģ¯ãģĦ": 48159, "ĠÏī": 46653, "Ġsmo": 24101, "ĠUltimate": 26570, "Ġheadache": 23520, "éĽĨ": 26020, "ĠSan": 5271, "Ã§ek": 19088, "ĠAnat": 42628, "Ġmulheres": 43244, "<|24.18|>": 51573, "Ġoffline": 21857, "<|6.84|>": 50706, "Ġimpost": 47804, "Ġ~": 11938, "bild": 16248, "ÐµÐ½Ð½ÑĭÐµ": 29643, "Ġquint": 40006, "ĠtaÅŁ": 37276, "ush": 1498, "Ġbaskets": 42853, "SPEAKING": 37414, "Ġvest": 15814, "Ġincremental": 35759, "ĠBarn": 21605, "Ġcann": 12361, "Ġexclude": 33536, "QU": 26078, "Ġtaught": 5928, "ĠíĻľ": 42194, "Ġspeaker": 8145, "ĠGum": 48862, "ĠKitchen": 23135, "PI": 31701, "ÑģÑĤÐ²Ðµ": 24966, "esearch": 10177, "Ġhoo": 30663, "Ġmorally": 38622, "Mad": 33432, "ìģ": 15404, "atson": 23939, "ĠAh": 2438, "Ġclothes": 5534, "Ġdiarrhea": 41282, "Ġextraction": 30197, "ĠÏĥÎ¿Ïħ": 43455, "Ġdancing": 8898, "ĠEmir": 38426, "ĠJur": 27544, "Ġsteak": 17009, "Ġalles": 7874, "<|7.90|>": 50759, "Ġvorbei": 38881, "<|17.14|>": 51221, "ĠQuad": 29619, "Ġvamp": 20017, "ĠÃ®n": 15351, "plus": 18954, "ĠiÅŁi": 45377, "ä»ĺ": 41469, "Ġwitnesses": 20217, "Ġtarget": 3779, "Ġlaufen": 41647, "Ġbelieve": 1697, "èĦ": 27067, "ĠÐ·Ð°": 4396, "ĠLetter": 43426, "ĠOch": 13128, "ÑħÐ¾Ð´": 5280, "å¯¦": 10376, "Ġforms": 6422, "Äĵ": 19222, "ieur": 20679, "ĠHold": 6962, "ĠÑĥÐ±Ð¸Ð¹": 40636, "Ġdynamic": 8546, "ĠsaÃºde": 39937, "ÐµÑĤÐµ": 10524, "Ã¨t": 18177, "Ġtransformed": 16894, "ĠHarmon": 40599, "<|4.32|>": 50580, "av": 706, "Ġpersecuted": 49903, "arry": 25516, "Ġwrinkles": 34822, "<|1.34|>": 50431, "Ġnodes": 13891, "ĠpaÃŃses": 23070, "<|28.74|>": 51801, "Ġmotorcycles": 46813, "Ġkick": 4437, "ĠSyrian": 24081, "Ġsectors": 18373, "Ġriv": 28745, "Ġappreci": 3616, "Ġloosen": 26169, "Ġexcessive": 22704, "uz": 3334, "Ġsolemn": 46694, "Ġmen": 1706, "bra": 6198, "ĠNas": 16151, "ĠColombia": 22677, "Ġforcing": 19030, "Ġdawn": 18192, "ĠSty": 30415, "ĠÃªtes": 18935, "payer": 38443, "olan": 23754, "Ġauss": 5730, "Ġshad": 5744, "Ġsyner": 33781, "çĽ´": 16186, "ĠZucker": 34032, "ĠOs": 8875, "Ġcuenta": 17868, "sembly": 19160, "Ġnau": 35616, "Ġgalax": 26285, "ĠâĻª": 931, "ĠBarbie": 33884, "Ġbaked": 19453, "ĠSouthwest": 31708, "Ġterrifying": 18106, "Ġschon": 4981, "ĠsitÃ¤": 26838, "Ġpreventing": 19965, "Ġod": 3611, "<|25.80|>": 51654, "Ġdesignation": 40838, "íķ´ì": 7002, "Ġdeepen": 45806, "ĠÐ´Ð°Ð»": 22500, "ĠFed": 7772, "Ġcontacting": 41482, "Ġket": 14979, "ĠGeb": 24984, "ITA": 40829, "Ġhm": 35481, "Ġsocial": 2093, "åĵĪ": 10595, "ource": 2948, "Ġprocess": 1399, "Ġputting": 3372, "Ġkept": 4305, "oughs": 34445, "ĠÐ½Ð°Ñĩ": 8970, "ÙĦÙħ": 19528, "Ø§Ø¦": 16373, "aining": 3686, "She": 9526, "Ġmetaphor": 19157, "Ġclassics": 36110, "ĠTreat": 20298, "Ã©ch": 30606, "Ġdirecting": 26979, "Ġmesure": 37981, "Ġì¤ĳìļĶ": 24851, "à¸Ńà¸¢": 19245, "kon": 18295, "etta": 16593, "ãĥ³ãĥ": 14121, "ullie": 27206, "Ġfeed": 3154, "ĠStrom": 39126, "inky": 22998, "Ġcomun": 11040, "asti": 24080, "Ġanni": 31164, "Ġgoals": 5493, "Ġreferendum": 31957, "Ġdisput": 37669, "Ġstead": 23721, "ĠhÃ¤tten": 33278, "mit": 3508, "Ġminor": 6696, "Ġpesso": 6818, "Ð°ÑĪÐ°": 34461, "Ġevil": 6724, "Ġdisregard": 44493, "ê³³": 39364, "ĠChall": 14398, "Ġlil": 36532, "fficiency": 49086, "ĠÑħÐ¾Ñĩ": 13057, "ĠKen": 8273, "Ġscraps": 45204, "Ġchlor": 18178, "ĠFry": 31822, "Ġregional": 10964, "ĠÐ²ÑģÐµÐ¹": 43419, "ĠÐ¼Ð¾Ñı": 33691, "ĠhjÃ¤l": 42822, "Ġmuffin": 48400, "ĠÏĦÎ·": 10013, "Ġharness": 19700, "ker": 5767, "ĠÐ¿Ð°Ð»": 40415, "Ġdisplays": 20119, "ĠLewis": 17412, "Ġroup": 48485, "ĠMarketing": 27402, "ide": 482, "uer": 5486, "ĠAustrian": 41507, "jet": 7108, "Ġtinha": 13574, "Ġswe": 2484, "ĠMedium": 38915, "ĠBishop": 30113, "Ġmentally": 17072, "fry": 35299, "Ġpartido": 41310, "á»¥c": 37664, "ãģĦãģ¾ãģĹãģŁ": 25910, "ĠStack": 37649, "ĠÐ¿Ð¾Ð´Ð³Ð¾ÑĤÐ¾Ð²": 49914, "pop": 13872, "ways": 942, "ĠÑģÐ¾Ð·Ð´": 20247, "Ġ1944": 35133, "Ġchiar": 47454, "kus": 35080, "Ġinfluencing": 40396, "Ġsurrendered": 48802, "çŃ": 7973, "ĠNinja": 25566, "ĠGar": 7995, "Ġmarsh": 21653, "Ġproceedings": 37254, "ĠÐ¯": 4857, "creat": 35546, "Ġeyebrow": 35875, "ĠExc": 9368, "ĠKÃ¼": 30726, "Ġalltid": 45861, "ĠPues": 22386, "ĠÐ¾Ð´Ð½Ð¸Ð¼": 50096, "Ġsalmon": 18518, "ĠÐ¾ÑĤÐ½Ð¾": 22079, "ĠMens": 7364, "Ð¿Ð¾Ð»Ð¾Ð¶": 37251, "Ġwhats": 29625, "Lee": 39548, "Add": 36189, "Ġstrawberry": 20440, "Ġpojaw": 30655, "Ġrevolutionary": 22687, "Ġvolume": 5523, "ìĹĲìļĶ": 16239, "ìĹĪëĭ¤": 41741, "ĠAp": 8723, "anie": 7155, "works": 18357, "Ġiyi": 16173, "ãĥŁ": 23196, "ĠSou": 31458, "Ġshave": 25544, "ÑģÑĮ": 6131, "ĠBaba": 22529, "ĠÎ´ÎµÎ½": 23295, "Ġpoly": 6754, "ĠÑįÐºÑģÐ¿ÐµÑĢ": 40404, "Ġ?": 2506, "Ġslower": 14009, "mez": 19917, "ON": 1928, "ĠFl": 3235, "ĠNom": 31272, "ħĦ": 35530, "ĠØ¢Ù¾": 46201, "ĠWar": 3630, "Ġta": 1846, "ç¬¬äºĮ": 19693, "ĠSquare": 16463, "Ġdies": 2714, "rition": 32938, "ĠtÃ©c": 25564, "Ġenact": 25909, "ĠYas": 30557, "Ġchicks": 42214, "łĩê²Į": 4591, "Ġmanure": 48020, "ĠìĹ¬ê¸°ìĹĲ": 37138, "Ġflew": 15728, "Ġcounty": 9928, "ĠDeaf": 31389, "Ġkomme": 31194, "ract": 1897, "ä¿º": 37334, "Ġannoy": 8759, "ĠHoje": 34104, "Ġemba": 32660, "Ġextraord": 10149, "Ġwashes": 48616, "ãĤĮãģªãģĦ": 48535, "600": 15707, "vy": 11869, "Ġì¢ĭìķĦ": 10805, "Ġfis": 36609, "quito": 14856, "<|16.18|>": 51173, "Ġmotors": 25035, "Ġchanging": 4473, "etric": 17475, "ĠtÃ¤n": 19790, "°ë¥¼": 38220, "Ġ1947": 40417, "ĠSpiel": 14266, "Ġë¶Ģë¶ĦìĿ´": 47820, "Ġcelery": 37643, "'.": 5004, "orse": 18699, "è·": 6563, "ĠÐ¸Ð½ÑĤÐµÑĢÐµÑģÐ½Ð¾": 33333, "Ġeconom": 2520, "cend": 21153, "ìħĺ": 18952, "ĠÑģÑĤÐ°Ð»Ð¾": 39633, "Ġproceeded": 39053, "frage": 40449, "ĠDou": 13200, "orama": 32988, "Ġgent": 16108, "Ġvalor": 15367, "ĠÑĢÐ°Ð·Ð¼ÐµÑĢ": 41813, "Ġrien": 13355, "Ã¤llet": 44535, "Ġtrain": 3847, "xic": 47228, "<|16.02|>": 51165, "Ġmemo": 35900, "Ġvoter": 21722, "Ġdumping": 42224, "Ġpipeline": 15517, "ìĶ¨": 25416, "ĠWrestling": 43508, "Ġdeactiv": 45428, "Ġtapa": 42097, "à°": 19135, "uju": 45652, "fi": 13325, "Ġmeva": 40530, "Ġradar": 16544, "Ġignorant": 29374, "ielle": 16033, "Î±Î¹": 5074, "Ġvampire": 28592, "Ġmateix": 42770, "Ġcorridors": 46920, "Lu": 45908, "ĠRICHARD": 45302, "Ġtigers": 47949, "Ø±Ùģ": 28480, "Ġitem": 3174, "ĠRings": 38543, "ĠÑģÐ»ÐµÐ´": 15363, "ÑģÑĤÐ²Ñĥ": 42104, "Ġkarma": 28396, "ĠÑħÐ¾Ð»Ð¾Ð´": 39726, "including": 50010, "ĠMalays": 21543, "ogram": 12820, "ĠktÃ³rego": 46951, "ĠÐ²ÑĭÑģ": 19361, "Ģë": 2366, "iander": 29317, "ĠNil": 47398, "Ġpits": 40312, "Ð²Ð¸Ð´": 42172, "ĠìĥĿê°ģìĿĦ": 30852, "ĠRabbi": 32768, "Ġvoluntary": 28563, "Ġruns": 6676, "iente": 8413, "ĠDazu": 34667, "Ġcomercial": 43163, "Ġdiminished": 40206, "ĠìĿ´ìķ¼ê¸°": 37576, "¨¼": 48150, "ĠWithout": 9129, "<|21.10|>": 51419, "ĠVere": 33110, "Ġorth": 19052, "ĠÑĥÑģÐ»": 24636, "imme": 20380, "Ġalred": 41290, "Ġaffirm": 21260, "Ġlawyer": 11613, "Ġrooftop": 41027, "ĠCay": 38287, "<|20.08|>": 51368, "Ġidentity": 6575, "Ġsegments": 19904, "Ġinception": 49834, "Ġreceived": 4613, "Ġzur": 7147, "inding": 9245, "ilingual": 38219, "Ġpear": 37320, "ĠÐºÐ°ÐºÐ°Ñı": 29334, "è§Ģçľ¾": 39368, "ĠSeven": 14868, "ĠBloody": 46877, "Ġconsol": 16054, "Ġauc": 23788, "Ð½Ð¸Ð±": 23302, "OLD": 33203, "Ġlaps": 24971, "ĠGateway": 48394, "Ġministre": 31122, "Ġengag": 46730, "Ġmegap": 34733, "ixÃ²": 12672, "Ġstarred": 39438, "Ġworship": 9965, "verts": 36999, "Ġsurrounds": 44576, "ĠÅ¼ycie": 43202, "Ġwatermelon": 26097, "cono": 45846, "ĠNARRATOR": 10160, "Ġevento": 40655, "ĠEggs": 42486, "anyon": 28070, "Ġsensing": 30654, "ĠMarg": 20000, "Ġ45": 6905, ")...": 40144, "Ġtung": 41880, "asive": 23686, "Ġdeeds": 24539, "aru": 16870, "ancies": 32286, "ĠëŃĲ": 7034, "Ġhospital": 4530, "ãĥł": 32026, "ĠMorning": 17967, "ĠLin": 9355, "opot": 45225, "ĠwÃ¼rde": 11942, "ĠOÄŁlum": 41783, "ĠÐ³ÑĢÑĥÐ¿Ð¿": 29311, "Ġcheating": 18309, "Ġlot": 688, "bage": 9742, "come": 1102, "Ġzijn": 8004, "ëĮĢ": 14173, "pty": 39420, "ĠìĹ´ìĭ¬íŀĪ": 31939, "Ġtyp": 2125, "Ġposso": 22501, "ÑĢÑĥÐ¶": 15449, "Ġ1999": 19952, "ĠnÃ©": 7024, "Ð½Ð¸ÑĨÑĭ": 48902, "ĠÐ½Ð¸Ð¼Ð¸": 42371, "feh": 33865, "Ġadversity": 40018, "é»": 6173, "Ġaquatic": 44020, "...</": 41341, "ĠÐ»Ð¸Ñĩ": 29936, "Ġrevenir": 44899, "å¿Ļ": 48839, "Ġboiling": 16208, "è½ī": 32739, "84": 25494, "Ġinteraction": 9285, "ãģĤãĤĬãģĮãģ¨ãģĨãģĶãģĸãģĦãģ¾ãģĹãģŁ": 38538, "Ġanimales": 45102, "hesia": 42464, "Ġheart": 1917, "Ġdemographic": 26331, "á»ĥu": 40328, "Ġchocolates": 42018, "iness": 1324, "ĠrÃ©ussi": 46171, "acia": 28000, "ĠÐ¹": 24540, "ì´ī": 44221, "irst": 653, "IST": 19756, "Ġbullying": 25633, "ĠÐ¿Ð¾ÐºÐ°": 17770, "imm": 6753, "Ġ×Ĳ×ł": 49553, "orie": 17473, "ĠNab": 45366, "įĶëĭĪ": 39638, "Ġobjetos": 49605, "Ġgiorn": 36937, "Ġpopcorn": 25334, "éģł": 34489, "icos": 9940, "cra": 39302, "Ġimperative": 32490, "ĠFields": 48190, "ĠGibson": 42250, "Ġopens": 9870, "ĠÐ¼ÐµÐ¶Ð´Ñĥ": 24098, "Ġpractices": 7525, "ĠTips": 36887, "ung": 1063, "ĠNeden": 46565, "RC": 28437, "ĠHier": 10886, "Ġerreicht": 46250, "Ġinvolves": 11626, "Ġregulation": 15062, "Ġrising": 11636, "rench": 4442, "Ġvá»Ľi": 18916, "pet": 7275, "Hmm": 40527, "Ġmultiplic": 17596, "Ġdrone": 13852, "chaft": 7118, "Ġmans": 18868, "Ġcomfortable": 4619, "Sun": 42455, "Ġcaso": 9666, "Å¡e": 42717, "ĠFried": 17605, "Ġinduce": 41263, "Ġreasonably": 23551, "Ġtea": 5817, "ĠAnti": 27757, "word": 7462, "Ġattempted": 18997, "ĠWOR": 30029, "Ġyesterday": 5186, "Ġwykor": 43606, "ĠìĦ¸": 11605, "Ġinserts": 49163, "ĠCats": 40902, "Ð°ÑĤÑĮÑģÑı": 8525, "Ġfour": 1451, "aign": 4897, "Ġheraus": 25089, "Ġ1974": 33422, "ier": 811, "Ġtri": 1376, "Ġcryptocurrency": 28809, "ĠÑĩÐ¸ÑģÑĤ": 44459, "om": 298, "ingers": 40180, "Ġseized": 33912, "ĠRefer": 36889, "resso": 29652, "Ġpride": 10936, "stellung": 30016, "Ġsalts": 50191, "<|28.44|>": 51786, "ĠÃºtil": 49191, "Ġolsa": 44655, "Ġglaub": 23210, "ĠItal": 8158, "OSSTALK": 39624, "Ġelements": 4959, "verted": 18537, "à¸į": 49541, "Ġtal": 4023, "Ġlicenses": 32821, "nect": 1569, "Ġvind": 20168, "<|17.30|>": 51229, "ĠN": 426, "Ġcombining": 21928, "Ġcorn": 9046, "Ġdumped": 32131, "Ġendeavors": 49608, "ĠRelig": 33436, "kelt": 25798, "Ġai": 9783, "ĠÐ´Ð°": 8995, "Ã¸r": 15499, "Ġtensor": 40863, "ĠDeutsch": 12699, "Ġillnesses": 30791, "ĠBrother": 8904, "agÄĻ": 40748, "ĠDiana": 21470, "Ġreass": 19486, "<|17.42|>": 51235, "ì¸µ": 44284, "Ġcaut": 21130, "Ġà®ļ": 14337, "Ġclarify": 17594, "Ġscreenshots": 40661, "Å¼e": 2875, "important": 41654, "Ġdeclared": 15489, "ĠSAM": 9617, "Ġfacility": 8973, "Ġmu": 2992, "ĠGuang": 35815, "ĠkÄ±": 25470, "Ġblow": 6327, "isma": 14795, "å£ĵ": 45964, "ÙĦØ§Ùħ": 37440, "Ġcomplicado": 49850, "Ġtrouver": 23546, "¦½": 18306, "éĩįè¦ģ": 24928, "Ġvolleyball": 35887, "ĠConsidering": 33854, "ĠKÄ±z": 36223, "çĻº": 44756, "<|26.10|>": 51669, "ffe": 16349, "ĠApache": 46597, "rer": 9797, "ĠLOL": 15086, "íĬ¼": 29312, "lio": 19987, "Ġdrones": 23823, "Ġutilis": 33643, "ĠTiny": 39992, "<|23.08|>": 51518, "Ġnotifications": 13426, "ĠAngela": 20848, "ĠKurt": 26168, "Ġimpedance": 36264, "ĠInnovation": 27092, "éº": 3994, "ĠShel": 24415, "ĠInstit": 33897, "Ġdirection": 3513, "ĠBella": 29133, "ĠHitler": 19038, "ãĤ¸": 14655, "ĠìłĪëĮĢ": 48811, "Ġrapping": 44333, "ìłĲ": 15046, "ĠSpirit": 7218, "Ġboun": 15521, "ail": 864, "Ġinad": 42148, "ĠÐ·Ð°ÐºÐ»ÑİÑĩ": 49613, "<|15.68|>": 51148, "ĠMount": 8426, "essential": 48143, "Ġestavam": 43711, "licht": 20238, "æ¨Ĥ": 34043, "Ġdist": 1483, "Ġsquats": 45055, "dert": 49799, "Ġdaring": 43128, "Ġgroups": 3935, "Ġleast": 1935, "ĠLD": 33936, "Ġë³¸": 19387, "omme": 15117, "Ġkilometers": 13904, "ĠClaudia": 36785, "zus": 16236, "kraft": 47288, "ĠHud": 27767, "Ġdownwards": 39880, "ĠChristine": 24038, "ĠHolo": 24298, "Ġhp": 34064, "Ġrapidement": 37757, "Ġbrake": 13997, "Ġalla": 11591, "Ġinjection": 22873, "12": 4762, "Ġrooted": 25277, "<|2.12|>": 50470, "ÑĥÐ´": 2955, "Tok": 18797, "Ġadventure": 9868, "ĠÑĤÐµÐ»": 15619, "ĠÐ·Ð°Ð´Ð°Ñĩ": 38793, "sections": 40329, "Ġjogo": 20068, "Ġvocals": 28441, "Ġà¤ķ": 31970, "Ġteachings": 21037, "chlossen": 29002, "Ġambitious": 20239, "ĠsÃ¤ger": 37607, "turn": 33886, "Ġexclusively": 20638, "Ġkeys": 9317, "ĠdaÃŃ": 48113, "Ġbracelets": 48795, "Ġsix": 2309, "Ġalma": 32634, "ĠTrick": 43367, "Ġearlier": 3071, "enta": 8938, "ĠÐĵ": 7247, "kelijk": 43976, "Ġ?]": 16587, "Ġdensity": 10305, "Ġcolor": 2017, "ë°ĺ": 49905, "ĠAur": 26945, "Ġjudiciary": 49987, "ĠÑįÑĤÐ¾": 2691, "iedz": 15338, "Ġstiffness": 37759, "à¸ģ": 6223, "Ġsalt": 5139, "ĠgÃ©nÃ©ral": 27796, "Ġdrought": 22900, "Ġroku": 19451, "ĠCarla": 41325, "ĠArgu": 48560, "Ġreviews": 10229, "Ġnewspapers": 20781, "Ġbeef": 9256, "æħ": 12358, "Ð¾Ð½ÑĮ": 48325, "ĠfarklÄ±": 43953, "Ġgo": 352, "Ä±mÄ±z": 13990, "Ġcirca": 45972, "ãģĵãģĵ": 23509, "ĠFourth": 23773, "<|8.26|>": 50777, "Ġbrute": 47909, "Ðļ": 8169, "ĠPremium": 34881, "Ġkne": 32704, "Ġvillain": 17906, "Ġproduk": 33699, "Ġtransitioning": 33777, "........": 18097, "ĠBelle": 31905, "ëĬ¥": 16102, "icano": 38028, "Ġmonkey": 17847, "Ġvessels": 20117, "Ġprata": 45895, "ĠBio": 26840, "Ġphysi": 21265, "Ĥ´": 22485, "ieht": 39850, "ĠÐºÐ¾Ð¼Ð¿ÑĮÑİÑĤ": 48488, "Ð½ÑıÑĤÑĮ": 35824, "Ġboundary": 12866, "Ġdespair": 25763, "Ġlevels": 4358, "ĠLAUGHTER": 46760, "Ãºn": 9453, "Ġluckily": 22880, "usion": 5704, "Ġcurved": 24991, "ĠEconomy": 48223, "Ġarmored": 41879, "ĠYue": 30166, "orith": 6819, "Ġbloom": 26899, "pannt": 36424, "ĠÑĤÐ°ÐºÐ¾Ðµ": 18292, "Ġupgrade": 11484, "ĠOff": 6318, "ĠÐ²Ð°Ñģ": 10655, "Ġinvited": 9185, "Ġsunk": 40564, "ĠGot": 5803, "Ġfeh": 34741, "Ġcheated": 28079, "ĠMmm": 12146, "Ġpatron": 21843, "Ġ160": 21243, "olo": 7902, "Ġmuchas": 16072, "ĠMatrix": 36274, "jek": 27023, "Sch": 31560, "Ġstake": 10407, "<|13.66|>": 51047, "<|7.94|>": 50761, "Ġdisent": 37313, "Ġcor": 1181, "ĠMeans": 40290, "Ġcoward": 30776, "Ġspricht": 42088, "ĠÐ¼ÐµÐ½Ñı": 6885, "Ġstate": 1785, "Ġdepressing": 36355, "<|10.90|>": 50909, "ĠAa": 21460, "<|4.80|>": 50604, "Ġsweater": 26550, "Ġbri": 33713, "ĠsÅĤ": 15116, "<|24.08|>": 51568, "Ġexperiencing": 11139, "ĠíĻķìĭ¤íŀĪ": 50149, "ĠZen": 22387, "ĠLouis": 9763, "Ġtienes": 20716, "Ġdisast": 42103, "Ġsecure": 7144, "ords": 5703, "Ġfascinating": 10343, "Ġretard": 42073, "åįģ": 20145, "ä½łåľ¨": 41410, "ĠÐĴÑĤÐ¾ÑĢ": 49732, "Ġsubsidi": 48296, "Ġseventy": 25662, "Ġoverwhelmed": 19042, "Ġpharm": 13105, "ĠRif": 48549, "Ġnumerator": 30380, "åĽŀä¾Ĩ": 46556, "Ġíĺķ": 12459, "Ġjumping": 11233, "SE": 5879, "ĠLISA": 42448, "Ġpandemia": 33245, "ĠIdaho": 36628, "Ġconduc": 45095, "ĠForm": 10126, "Ġê°ĻìķĦìĦľ": 48084, "Kelly": 44688, "Ġrecommend": 2748, "ĠUniverse": 18307, "Ġfeas": 21781, "ÑĬ": 8515, "ĠespaÃ±ol": 31177, "ĠtÃº": 15056, "Ġgland": 43284, "Ġsentimental": 42823, "Ġpersuade": 31781, "ĠKristin": 42189, "Ġkinderen": 48935, "è®²": 39255, "ĠUltra": 20925, "æ²¡": 10062, "ĠëĦ¤ê°Ģ": 41714, "ĠÄĲ": 13055, "roph": 11741, "Ġsigu": 21152, "Ġviewer": 16767, "Ġremo": 4595, "Ġsends": 14790, "ĠaÃ§Ä±k": 33282, "Ġsensations": 36642, "ĠEck": 46354, "itect": 5739, "ÎµÎ¹": 6452, "ĠTechnical": 35512, "mies": 38374, "Ġlacked": 41481, "ĠTest": 9279, "Ġlever": 12451, "Ġmental": 4973, "Ġloser": 24606, "ĠÈĺi": 41820, "Ġhump": 47093, "ãĤ§": 28571, "éĻ¢": 38358, "Ġinstallment": 39413, "Ġpriorities": 15503, "Ġtodo": 5149, "Ġtiers": 40563, "orean": 25885, "Ġdiagnose": 36238, "Ġit": 309, "Ġhappy": 2055, "Ġman": 587, "ĠÑĢÑĥÐ±Ð»ÐµÐ¹": 40851, "Ġmant": 10845, "Ġcasi": 22567, "Ġseize": 33413, "ãģ¨": 3193, "ĠSlo": 22497, "<|3.72|>": 50550, "ĠÐĶÐ°": 9149, "atl": 48630, "lls": 43909, "ĠCentury": 28555, "Ġregulatory": 18260, "ĠTold": 48220, "Ġphysique": 37058, "Ġcommer": 5906, "Ġsubm": 8286, "Ġsolem": 43519, "umuz": 34884, "ÏģÎ·": 33281, "Sh": 7774, "limited": 18692, "ĠÐĹÐ´ÐµÑģÑĮ": 23367, "ained": 3563, "Ġdire": 1264, "Ð½Ð¸ÐºÐ¸": 18994, "ĠSole": 48073, "Ã¿Ã¿Ã¿Ã¿": 31607, "ĠBridge": 18917, "Su": 46413, "ĠLunch": 44958, "æ¯Ķå¦Ĥ": 36757, "ieso": 32272, "Ġmillions": 6803, "ĠthÃ¬": 17510, "Ġpouco": 13920, "ĠinformaÃ§Ãµes": 42542, "ĠTwist": 47016, "ĠImmedi": 32157, "ĠMT": 37333, "Ġsane": 45610, "ĠParis": 8380, "Ġradish": 31136, "unge": 27588, "ĠHae": 44245, "Ã¡r": 20335, "Ġthá»ĥ": 24491, "Ġla": 635, "Ġinfilt": 29085, "Ġnode": 9984, "Ġanticipate": 21685, "ÃŃda": 39080, "ĠFreddy": 31445, "Ġtekn": 32533, "Ġtril": 26120, "OOOOOOOO": 40466, "ĠMode": 20500, "Ġdestac": 46393, "ĠÃ§Ä±kt": 34462, "ĠMusic": 7609, "ĠLuther": 20693, "isce": 49596, "Ġappetite": 23996, "æĢķ": 21164, "anti": 11520, "ÐºÐ»Ð°Ð´": 41634, "Ġovernight": 13935, "Ġdifficult": 2252, "ĠHamp": 30303, "ĠÑĤÑĢÑĥÐ´": 36853, "usu": 41083, "<|15.20|>": 51124, "Ġfoolish": 23478, "Ġidentifies": 34597, "ĠThousands": 40535, "Ġupdates": 9205, "Ġbureau": 35343, "Ġoutfit": 11263, "ĠÐĿÐ°Ð¿ÑĢÐ¸Ð¼ÐµÑĢ": 39645, "Ġpassenger": 18707, "Ġì§Ģê¸": 46253, "ĠUnder": 6974, "riÃ¨re": 22166, "ches": 3781, "Ġtwo": 732, "Ġê²½": 9537, "ggi": 22771, "ħ¸": 37524, "Ġcho": 1586, "ĠÐ¿Ð¾Ð¹": 31671, "Ġcient": 31590, "elp": 28591, "ĠbÃ¶yle": 11018, "ĠLittle": 8022, "ishment": 30273, "<|6.86|>": 50707, "<|az|>": 50304, "SA": 8886, "Ġwart": 45124, "Ġcriteria": 11101, "Ġ5": 1025, "Ġsubstantial": 16726, "ĠSaying": 34087, "Ġestado": 18372, "Ð°Ð»ÑĮÐ½Ð¾Ð¼": 49980, "ĠÐ²Ð¸Ð´Ð¸ÑĤÐµ": 41904, "ĠWitcher": 47383, "ĠRepe": 24927, "Ð¾Ð·Ð¼Ð¾Ð¶Ð½Ð¾": 33968, "Ġave": 3472, "Ġtattoos": 28662, "Ġmeditate": 29989, "Ġpure": 6075, "ĠeconÃ³m": 33537, "Ġaluminium": 35239, "Ġfeaturing": 19742, "laf": 33037, "ĠSmile": 38499, "Ġwatch": 1159, "Ġarch": 3912, "ĠJuly": 7370, "Ġathletic": 22496, "ossip": 27971, "ĠMonkey": 34862, "ative": 1166, "Ġdri": 1630, "Ġsunrise": 33675, "rum": 6247, "Ġgard": 5628, "every": 21825, "prene": 7844, "bol": 17460, "laimed": 22642, "Ġvost": 28944, "zept": 32082, "omos": 40934, "Ġvegetarian": 25739, "vest": 5571, "ĠìłģìĿ´": 48660, "Ð¿ÑĢ": 39263, "Ġinvite": 7980, "ĠÐ¿ÑĢÐ¸Ð»": 34770, "dist": 42649, "ĠCapt": 9480, "ĠFr": 1526, "Ġmargins": 30317, "Ġpee": 21343, "ĠBox": 15112, "ĠNada": 40992, "ignant": 36818, "ĠPalestine": 33030, "Ġ1960": 16157, "atcher": 49871, "Ġtrov": 35449, "Ġcultural": 6988, "GR": 23971, "Ġalm": 18667, "æĢİéº¼è¾¦": 42511, "ÑĥÐ½Ð´": 40278, "Ġrecept": 15263, "ĠDylan": 28160, "ĠÑģÐ¸Ð»ÑĮÐ½Ð¾": 31350, "ĠLoop": 45660, "Tell": 36152, "Ġvault": 27134, "ĠUkraine": 14081, "Ġclicked": 23370, "~)": 25010, "Ġqueste": 35455, "ĠLeader": 22650, "¸ë": 1397, "she": 9611, "Ġwolves": 30404, "Ġzweiten": 39943, "Ġmenstru": 38827, "Ġabundant": 30657, "Ġexciting": 4670, "ĠpoblaciÃ³n": 42769, "Ġbush": 19910, "Ġhop": 3818, "reme": 5301, "Son": 40710, "ĠOdd": 43630, "Ġë³´ì": 7842, "Ġqueria": 27955, "ayÄ±m": 16797, "Ġlah": 26532, "ĠMongo": 48380, "ziÄĻkujÄĻ": 29769, "Ġjump": 3012, "ĠÐºÐ¸Ð»": 37028, "Ġspinach": 27784, "igue": 16831, "ĠGuerra": 45725, "ĠsiÃ¨cle": 40830, "Ġdiscl": 17092, "Ġmerchant": 32267, "èŃ·": 48289, "Ġnour": 22683, "Ġbank": 3765, "Ġinteresante": 36396, "Ġbeside": 15726, "ĠLev": 28471, "Ġevents": 3931, "Ġsimult": 13899, "43": 17201, "ĠquestÃ£o": 28477, "Ġcompressor": 28765, "ĠBere": 17684, "Ġ[\"": 29799, "Ġpatio": 42924, ")]": 8245, "Ġscrut": 28949, "ĠKnow": 10265, "Ġparticul": 21861, "Ġnota": 36192, "Ġpond": 17384, "Ġstrategic": 10924, "Ġì±Ļ": 49414, "urd": 10752, "Ġodds": 17439, "ĠEnc": 29584, "ĠÑĹ": 27902, "Ġcooper": 13414, "Ġbond": 6086, "Ġwielu": 40437, "ĠVladimir": 31669, "Ġsurf": 9684, "ĠÐŀÑĩÐµÐ½ÑĮ": 34062, "60": 4550, "ìķ¡": 46461, "<|22.00|>": 51464, "Ġsung": 18829, "Ġguests": 9804, "Ġunemployment": 17438, "ĠSim": 3998, "ĠOttawa": 40767, "ĠSteel": 26038, "ĠAlum": 33134, "ĠÑĢÐ°Ð±": 41499, "ĠVerfÃ¼gung": 43026, "ĠÑĨÐµÐ½ÑĤÑĢ": 46536, "ĠIns": 9442, "itty": 10016, "Ġelabor": 16298, "Ãªter": 37754, "Ġê°ĻìĿ´": 16358, "Ġnotor": 46772, "road": 8417, "chau": 33276, "illion": 11836, "ĠhÃ¶": 13531, "gom": 30851, "ĠKlim": 25136, "eline": 5440, "oot": 6259, "Ġsollten": 29096, "sky": 25810, "Ãºblica": 36638, "ĠLion": 21704, "ingly": 12163, "ĠKas": 28059, "ĠVeronica": 43498, "ÐºÑĥ": 4401, "ĠTokyo": 15147, "chant": 24628, "blowing": 43788, "reibt": 31174, "ater": 771, "urity": 3051, "Ġfresh": 4451, "ena": 4118, "Ġessays": 35123, "Ġmass": 2758, "ounded": 37706, "Ġrhythmic": 46967, "ĠÑĤÑĢÐµÑĤÑĮ": 45305, "Ġsatisf": 5519, "Dam": 37442, "ligen": 35158, "ĠpuÃ²": 26526, "jat": 44254, "ĠLip": 27475, "Ġbrittle": 49325, "ĠHir": 23192, "ĠUV": 17887, "Ġcorpses": 46416, "Ġillust": 8490, "ä½łåı¯ä»¥": 42766, "Ġrelativity": 45675, "Ġestablishment": 20971, "<|21.00|>": 51414, "Ġsulfur": 33831, "Sal": 39013, "ĠÚ©": 7565, "Ġdrowning": 37198, "Ġunderstandable": 25648, "áºŃn": 27410, "ÐºÐ¸Ð¹": 8583, "ispers": 31018, "Ġagencies": 9504, "ĠpÃºblic": 15392, "Ġleagues": 48429, "lam": 4326, "ĠArchives": 39258, "ĠPhil": 7777, "Ġconcerns": 7389, "Ġcreation": 8016, "å¯Ł": 47550, "ĠPeninsula": 40922, "ĠìĹĲë": 44428, "Ġleftovers": 43011, "ÑĢÑĥÑĪ": 28841, "çĽ®": 11386, "hÃ©sitez": 45587, "Ġlungs": 19467, "<|29.70|>": 51849, "Ġasc": 15526, "Ġdevastated": 34880, "Ġhamb": 25172, "Ġreside": 40134, "Ġexcluded": 29486, "Ð±Ð¾": 18670, "Ġrotation": 12447, "ê±´": 10619, "asting": 30587, "ĠArgent": 15183, "ept": 5250, "<|18.58|>": 51293, "ocratic": 38883, "<|17.20|>": 51224, "Ġenlightened": 36975, "ÏģÏĩ": 30332, "ÏĮÏĦÎµ": 48545, "Ġberries": 29898, "ĠAbend": 36194, "Ġcol": 1173, "Ġbilateral": 38772, "ĠInterview": 35599, "ither": 1839, "Ġrefill": 42533, "Ġopener": 43850, "Ãłi": 21971, "Ġparam": 6220, "Ġhvis": 45427, "Ġbezel": 37179, "Ġnegotiations": 20476, "Ġbukan": 31794, "ĠKenn": 12369, "ailleurs": 19400, "ĠOz": 29843, "ĠARM": 45209, "ĠETF": 37436, "Ġprev": 12642, "Ġfail": 3061, "Ġá»": 40132, "æ²": 3308, "æ°´": 15590, "ÐµÐ½Ð½Ñı": 25568, "Ġenclosed": 42089, "masÄ±": 23477, "ÑĢÐ¾Ð´": 10004, "ĠNÃ³s": 27626, "ĠØ¨Ø¹": 45030, "çĹĽ": 28737, "ĠHealthy": 37733, "ĠReality": 33822, "Ġmultic": 30608, "°ķ": 21697, "lect": 1809, "ories": 2083, "elines": 9173, "avier": 25384, "Ġrzeczy": 26297, "EO": 6004, "ÐµÐ¼ÑģÑı": 40811, "âĢĵ": 5815, "ÐµÑĢÐ±": 41934, "pas": 20990, "ĠÑĦÐ¸Ð·": 44662, "Ġvel": 14610, "ĠDowntown": 49255, "Ġinvers": 21378, "Ġpublicly": 14843, "Ġlogically": 38887, "©´ì": 41735, "èĲ¬": 14099, "Ġaccur": 5771, "å¤§æ¦Ĥ": 32044, "ĠVerf": 24583, "<|18.18|>": 51273, "hos": 17631, "Ġë¶ĦìľĦ": 49712, "à¹ĩ": 12055, "ĠÐ¿ÑĢÐ¸ÑĪ": 22448, "ĠKanal": 38643, "imo": 6934, "ĠAdventures": 48818, ".âĻª": 40847, "Ġjudgment": 12216, "Ġnumbered": 40936, "inton": 12442, "eleri": 44501, "Ġkul": 27576, "çľ": 2862, "<|9.98|>": 50863, "ĠiPhone": 7252, "ĠÐ½Ð°ÑĩÐ¸Ð½Ð°": 21995, "<|0.64|>": 50396, "Ġtranslator": 35223, "Ġ×¤": 13323, "<|20.74|>": 51401, "Ġbevor": 37591, "ĠChron": 34038, "Ġdoll": 2722, "ĠTek": 27821, "ĠGravity": 49478, "ĠPAR": 21720, "Ġgiving": 2902, "Ð°ÑĨÐ¸Ð¾Ð½": 44379, "ĠrÄĻ": 41197, "Ġincur": 35774, "un": 409, "Ġthat": 300, "ĠÐ±Ñĥ": 21646, "Ã´": 2851, "ÐµÑĪÑĮ": 7815, "ĠAbd": 27548, "Ġcrowds": 26070, "Ã¡ticas": 44997, "ĠProtection": 25981, "Lilly": 49387, "Ġgelernt": 49224, "ĠÐ·Ð°ÐºÐ¾Ð½": 25206, "Ð°ÑĤÐµÐ»Ñı": 41330, "ĠÐ¾Ð´Ð¸Ð½": 13319, "ĠGra": 8985, "Ġtouchdown": 34459, "Ġshifts": 19201, "Ġsatisfaction": 18715, "Ġgift": 5306, "ĠZoe": 38234, "Ġslider": 26046, "Ġprol": 24398, "Ġriding": 9546, "bil": 15384, "ÑģÑĥÐ´Ð°ÑĢ": 42384, "Ġkingdoms": 44171, "Ġsubstrate": 27585, "ĠEscape": 42960, "gam": 33815, "Ġwagon": 34453, "Ġaspir": 20003, "Ġmelon": 41722, "ĠBare": 43957, "Ġhits": 8664, "Ġberm": 50001, "Ġneat": 10654, "performance": 50242, "Ġdiscussions": 11088, "ĠTurns": 29524, "Ġemoji": 31595, "Ġvida": 7644, "ëĬĲë": 37908, "ĠZig": 50004, "åĬł": 9990, "ãģĪãģ£": 40919, "ĠCroatia": 50186, "chts": 19549, "Ġdisrupted": 42271, "ufen": 19890, "ìĿ´ëĬĶ": 20813, "Ġhairs": 26525, "Ġsweating": 25438, "Ġirgendwie": 20759, "llÃ¤": 17370, "æ¢Ŀ": 31106, "Ġstaging": 41085, "Ġhello": 7751, "ĠKenneth": 33735, "<|22.58|>": 51493, "Ġslow": 2964, "hÃ£": 36320, "ician": 9027, "ict": 985, "Ġconcern": 3136, "Looking": 47711, "Ġthousands": 5383, "\",": 2566, "ĠauÃŁer": 39428, "ÄĻt": 46788, "Ġwind": 2468, "ĠLu": 5047, "Ġcog": 46521, "Ġoffshore": 34567, "onner": 38885, "ĠColumb": 13056, "ogi": 27202, "Ð¼Ðµ": 30522, "Ġblank": 8247, "rica": 15192, "Ġben": 3271, "Ġpointless": 32824, "Æ°Æ¡ng": 24605, "Ġthinkers": 37895, "Ġ×ŀ×ŀ×": 41764, "ãģµ": 18100, "Ð½Ð¸ÐºÐ¾Ð²": 22122, "Ġroast": 12904, "ullen": 32516, "herical": 34340, "ĠWard": 23794, "ĠInform": 34301, "Ġmolto": 16394, "ĠTerr": 36591, "ĠÙĪØ£": 36725, "ĠMilan": 32874, "<|2.18|>": 50473, "<|22.16|>": 51472, "ĠMozart": 42653, "Ð°ÐµÑĤÐµ": 17670, "<|22.76|>": 51502, "ssÃ¤": 18403, "Ġpersever": 29917, "Ġunexpectedly": 40452, "mbre": 20014, "aleb": 26053, "caster": 42640, "Ġbeaches": 27560, "Ġunto": 16521, "owym": 31691, "ĠtakÄħ": 31069, "Ġtestimon": 30963, "ĠTiger": 22025, "ĠGos": 41272, "Dis": 38742, "æŃ£": 15789, "Ġcran": 39685, "Ġfue": 9248, "Ġrecommendation": 11879, "Ġtsun": 34550, "Ġbasement": 16893, "Ġobjetivo": 29809, "ĠWilliams": 12929, "nahmen": 24221, "Ð°Ð²Ð°Ð¹": 46745, "ìĹĪìĸ´ìļĶ": 22415, "Ħ¸ìļĶ": 25918, "ĠÐ¾Ð³ÑĢ": 21517, "Ð¾Ð»Ð°": 44342, "fl": 3423, "ĠGiant": 29391, "ñ": 173, "Ã±as": 32448, "ĠhÃ¥": 24367, "irus": 9619, "Ġidentities": 24239, "ĠyÃ¼zden": 33454, "Ġassociates": 36914, "Ġblast": 12035, "ĠSEN": 47770, "Ġeres": 30065, "Ġwebcam": 39490, "apt": 2796, "Ġ;": 12562, "ĠDocument": 37684, "Ġclamp": 17690, "Ġwes": 38384, "these": 42678, "ISA": 26183, "Ġdiv": 3414, "ĠAdult": 47987, "isconsin": 17659, "×ľ×Ĳ": 29521, "ÐºÑĢÐµÑĤ": 48503, "Ġfamilies": 4466, "Ġplu": 44373, "ìĸ": 1528, "ĠnÃ¥gon": 25418, "Ġmereka": 23171, "ĠÐ½ÑĥÐ¶Ð½Ð¾": 12264, "leye": 46303, "ĠForgive": 34060, "Ġweaknesses": 24381, "Ð¸Ð²Ð°ÐµÑĤ": 25337, "Ġpassing": 8437, "Ġwhistles": 49282, "ĠCarm": 44530, "ricular": 42750, "guy": 39344, "ĠTed": 14985, "Ġdip": 10460, "Ġseb": 48049, "otzdem": 23934, "usi": 33016, "Ġreferred": 10839, "ĠExodus": 44472, "Ġtransformative": 36070, "oon": 4106, "ĠÐĲ": 3450, "Ġradiator": 41345, "ĠTrek": 25845, "ĠHerren": 20810, "Ġveteran": 18324, "<|23.78|>": 51553, "Ġhttps": 34426, "Ġslut": 41496, "Bill": 49783, "Ġtear": 12556, "Ġarrangement": 17620, "LED": 23459, "amel": 16103, "inch": 12415, "ĠApps": 32231, "ĠÐ»ÑİÐ´Ð¸": 15850, "Ġsell": 3607, "Ġprze": 8325, "Ġdoch": 9243, "Ġappoint": 7602, "ucha": 26042, "ÙĪÚº": 31320, "Ġfavored": 44420, "Ġdrei": 16809, "ĠÑģÐ¸Ð½": 47079, "ĠÐ»ÐµÐ³ÐºÐ¾": 39995, "otte": 13079, "Ġtemple": 10184, "Ġdozens": 18431, "ĠKens": 33265, "Ð¾Ð»Ð¾Ð´": 16574, "ĠAlien": 32396, "Ġshotgun": 24734, "ê°Ģ": 1453, "Ġrefresh": 15134, "Ġcomposer": 26003, "ĠThursday": 10383, "Ġfan": 3429, "Ġassisted": 30291, "acaks": 23825, "cious": 4139, "Ġrecurs": 20560, "ä¸º": 13992, "ĠJoin": 19642, "Tube": 41173, "ĮëŁ¬": 39530, "ucking": 33260, "ĠGrid": 42905, "eredith": 28714, "Sad": 47801, "Ġmas": 2300, "Ġcriticize": 31010, "Ġcontractors": 28377, "Ġ60": 4060, "ĠFloyd": 28494, "Ġquestionnaire": 44702, "<|my|>": 50346, "<|18.80|>": 51304, "<|18.40|>": 51284, "Ġíĥľ": 28808, "$": 3, "lement": 3054, "Ġnaught": 13138, "Ġproclaimed": 49091, "Ġapo": 50165, "Ġmanipulate": 20459, "ĠinvestigaciÃ³n": 48919, "ĠBeth": 14011, "<|5.38|>": 50633, "è£Ŀ": 44453, "Ġdignity": 19672, "fir": 42382, "ĠPuerto": 21472, "ancer": 28347, "Ġmiej": 18522, "icken": 3830, "Ġgreens": 22897, "iar": 9448, "ĠcompliquÃ©": 44290, "ÑĤÑĮÑģÑı": 14706, "Ġsu": 459, "ĠolduÄŁu": 30588, "Õ": 145, "Ġmiles": 6193, "ĠGottes": 49569, "Ġrut": 41324, "Ð½ÐµÐ¼": 23977, "<|23.38|>": 51533, "Ġíĺ¼": 31523, "Ġprophets": 27297, "Ġyar": 23793, "PA": 10297, "Ġscriptures": 29969, "ĠIN": 6892, "RIA": 41125, "fast": 7011, "Ġshadows": 14740, "Ġtransf": 22666, "Ġendlich": 32574, "!)": 5700, "ĠHai": 24055, "ĠCindy": 32185, "Mer": 45757, "Ġredund": 27830, "Ġservants": 21705, "Ġcustomer": 5474, "epy": 46983, "ol": 401, "Ġsoprattutto": 50002, "ilty": 11544, "ĠWeil": 18665, "ãĢľ": 17583, "Ġcursor": 28169, "icket": 20551, "Ġapproximate": 30874, "Ð¸Ð½Ð¸": 20303, "Ġliquidity": 33131, "ĠStef": 43421, "Ġmyst": 9111, "redit": 20046, "Ġ1966": 39157, "ĠLegends": 28103, "irrel": 24704, "ĠTry": 6526, "leader": 47716, "idad": 4580, "Ġdangers": 27701, "healthy": 26767, "ĠKatrina": 42550, "ĠKry": 37747, "Ġblonde": 30043, "Ġmeetings": 8410, "ĠkÃ¶n": 4798, "ĠGeorget": 33932, "iÃ§Ã£o": 16661, "Ġinland": 47009, "icy": 2632, "post": 23744, "Ġslope": 13525, "ust": 381, "Ġwij": 24770, "Ġmajors": 31770, "Ġmultiplier": 44106, "ual": 901, "ĠÑģÐ´": 48001, "VEN": 29016, "Ð¾Ð³Ð¾": 2350, "ĠÃ©videmment": 24724, "Ġturbines": 44947, "Ð¾Ð´Ñĭ": 40445, "Ġlettuce": 25542, "ÑĢÐ°ÑĪ": 21635, "Ġescri": 30598, "Ġautant": 34081, "ulars": 42891, "Ġëª¨ë": 8941, "ĠGreater": 38410, "Ġcust": 14884, "Ġpastel": 38100, "Ġcarbohydrates": 36817, "ĠdÃŃa": 12271, "ĠBoost": 43902, "ĠCancer": 26127, "icular": 14646, "ĠBase": 21054, "Ġleader": 5263, "Ġold": 1331, "Ġsurtout": 19903, "Ġ1930": 22350, "ĠObi": 48533, "à®¾": 5036, "åĦ¿": 22933, "Ġshowing": 4099, "Ġattendance": 24337, "´ì§Ģ": 24289, "rone": 26446, "ĠkÄ±z": 15225, "<|30.00|>": 51864, "Ġleaned": 48874, "re": 265, "Ġprotons": 40270, "Ġdownward": 24805, "ĠíķľêµŃ": 21045, "ĠSanders": 21734, "Ġ28": 7562, "tak": 49771, "Ġfondo": 38101, "Ġhomelessness": 28791, "Ġdancer": 21621, "ĠsÃ¤": 15316, "Ġzo": 5721, "<|25.22|>": 51625, "ĠÐºÐ¾Ð¿": 42399, "ĠDenn": 19027, "ĠROI": 49808, "Ġanger": 10240, "ĠëĤľ": 19252, "Ġtwisted": 23057, "ĠDeck": 38196, "Ġcommerce": 26320, "Ġfiber": 12874, "kien": 42134, "åı«": 19855, "Ġearthquake": 18778, "16": 6866, "ĠEQ": 33580, "Ġzombies": 24230, "Ġdetached": 42050, "Ġamazon": 47010, "yun": 21505, "apat": 22602, "ìĭľì£ł": 37822, "Ġpreaching": 25381, "<|16.38|>": 51183, "Ġìŀłê¹": 24155, "cciones": 35560, "Query": 35550, "ub": 836, "ymm": 32497, "ĠSTEVE": 40878, "Ġchapters": 20013, "Ġgerade": 12117, "Ġtables": 8020, "alous": 11553, "drive": 45524, "Ġchefs": 30191, "ì§ĢëĬĶ": 20508, "Fr": 40305, "Ġvak": 31647, "Ġwhe": 3966, "Ġanxious": 15166, "æīĢä»¥": 7239, "He": 5205, "iot": 6471, "Ġhast": 6581, "degree": 34368, "ahr": 5398, "×¢×Ŀ": 49661, "ĠRechts": 36597, "Ġ)": 7273, "Ġtilde": 45046, "Ġinterpretation": 14174, "ĠGur": 33716, "Ġintertw": 44400, "ĠÐŁÑĢÐ¸Ð²ÐµÑĤ": 38932, "Ġreactor": 20628, "×Ļ×ĺ": 27762, "Ġsentiment": 16149, "useum": 5816, "Ġdictionary": 25890, "Ã¡g": 21099, "Ġmoistur": 21531, "rig": 7065, "Ġintestine": 42446, "ĠWords": 32857, "ĠDNA": 8272, "Ġvanish": 43584, "ĠDo": 1144, "Ġpartir": 13906, "uc": 1311, "ĥĲë©´": 35482, "elijk": 19592, "ĠÑģÑĬ": 27223, "ĠTime": 6161, "Cu": 35222, "ĠMitchell": 27582, "Ġraise": 5300, "ause": 5241, "Ġëī": 32086, "pace": 17940, "<|ps|>": 50340, "ĠFirma": 50206, "Ġtang": 10266, "ĠnasÄ±l": 16963, "Ġcure": 13698, "á»ı": 21920, "Ã±": 2791, "Robert": 47960, "Ġ×ŀ×Ĺ": 42644, "ĠIndian": 6427, "Ġhalf": 1922, "<|2.70|>": 50499, "Ġcloves": 39139, "ĠWave": 28530, "æ¥½": 35479, "<|16.36|>": 51182, "Ġhalo": 46268, "Ġdev": 1905, "OUR": 29127, "bands": 30014, "Ġmonte": 35437, "Ġquestioning": 21257, "ĠDoctors": 39090, "Ġbo": 748, "Ġtoda": 11687, "Ġenvol": 49995, "ãĤĮãģ¦": 26638, "INDISTINCT": 43248, "Î®ÏĤ": 42647, "Ġmobil": 15891, "ĠScriptures": 46522, "ĠCheese": 23738, "Īë": 2196, "ÅĤych": 47655, "ÑĤÑĭ": 16759, "ĠHim": 5920, "Ġply": 35318, "³ĳ": 44504, "ĠPharise": 47742, "ĠCanton": 44170, "Ġdifference": 2649, "ë§Ī": 15017, "Ġshares": 12182, "Ġpattern": 5102, "ieux": 35371, "Ġleve": 33076, "Ġult": 3725, "ĠCody": 34524, "Ġthemed": 33920, "Ġasteroids": 50230, "Ġinterfere": 23946, "Ð±Ð¸": 34843, "Ġfiller": 34676, "Ġradical": 12001, "God": 18358, "ĠÃ©s": 5960, "acional": 13608, "Ġmalfunction": 50229, "ĠLanka": 42765, "Ġdenk": 21285, "Ã¼nst": 36656, "Ġcrec": 31668, "ä¾ĭãģĪãģ°": 46629, "Ġstars": 6105, "×": 147, "ĠToni": 41374, "Ġenvelop": 33860, "ĠtakÅ¼e": 23306, "Ġgere": 18635, "Ġidiot": 14270, "Ġwal": 21346, "Ġchá»": 23579, "sis": 17122, "Ġchcia": 26497, "?-": 38337, "Ġfiles": 7098, "Ġtaped": 45673, "êº": 44008, "ĠAngel": 14902, "Ġinduct": 31612, "Ġdere": 15969, "aque": 23179, "ĠPlayStation": 20599, "ç§Ĵ": 20956, "ĠDist": 9840, "Ġwor": 469, "Ġestimated": 14109, "ĠÎºÎ¬Î½": 31492, "Ġhindsight": 44357, "Ġvamos": 5295, "Ġadopted": 12175, "Ġdisable": 28362, "mer": 936, "vez": 10941, "ĠAst": 12884, "Ġannih": 40430, "ĠPowers": 47278, "Ë": 135, "Ġschme": 46459, "Ġsig": 4556, "math": 24761, "Ġê¸¸": 25222, "ALK": 24477, "Ġnames": 5288, "Ġprojecting": 43001, "asty": 9820, "Ġkonnte": 24058, "ĠBrazilian": 23435, "Ġresist": 4597, "ath": 998, "Ġmultiplayer": 27325, "ARA": 26715, "ĠÐ½Ð°Ð³": 30584, "Ġoverturn": 42865, "Ġkaik": 30381, "Ġswipe": 28170, "ember": 1304, "Å«": 19056, "ìĿ´ì": 3946, "ĠIsn": 6998, "Ġrealm": 15355, "å¥¹": 15555, "<|11.46|>": 50937, "Ġuno": 8526, "Ġgit": 18331, "ilot": 31516, "Ġì¦": 19220, "ĠRB": 40302, "ĠAutob": 49909, "Ġreefs": 50054, "ĠAdobe": 24862, "mingham": 34164, "Ġseal": 12185, "ĠCr": 4779, "Ġpracticing": 11350, "cream": 30277, "Ġprocessed": 18846, "Ä±k": 4157, "ĠWendy": 21850, "vad": 29886, "ouver": 19677, "ĠmÃªs": 41400, "ienced": 47592, "indruck": 41824, "!\".": 35323, "Ġtweets": 25671, "aso": 35281, "App": 9132, "ãĥī": 11195, "Mac": 34355, "Ġlighting": 9577, "Europe": 32293, "ertos": 45152, "Ġsava": 44908, "ĠLazar": 49273, "ĠëĤĺìĺ¤ë": 49397, "Ġëĭ¤": 4279, "Ġfog": 13648, "Ġrevis": 20767, "ĠSchritt": 33062, "ĠProb": 8736, "high": 21454, "v": 85, "Ġ×Ķ×¦": 43691, "Ġjemand": 21717, "Ġdrying": 22709, "Ġbeeps": 27722, "ĠCambodia": 47347, "ĠNatÃ¼rlich": 33172, "Ġdeciding": 17990, "Ġabsorption": 27557, "Ġexpose": 19219, "stein": 9089, "ĠJared": 24160, "Ġmisconceptions": 50012, "amentos": 28775, "ĠMatch": 26178, "asha": 12137, "ĠpÃ©riode": 44703, "Ġshown": 4898, "Ġmortar": 33956, "Ġantioxid": 33369, "ĠÐ¢ÑĥÑĤ": 35358, "Ġguid": 6489, "Ġwanting": 7935, "Ġries": 23932, "Ġperfekt": 49134, "ĠkaÅ¼": 21912, "ë°©": 27630, "ihu": 44344, "Ġflawless": 45693, "íķ´ìļĶ": 15788, "Ġqueda": 23314, "Ġ×Ľ": 7127, "La": 5478, "Ġcombust": 21161, "ª": 103, "ĠAccording": 7328, "åĪĹ": 43338, "Ġenrollment": 22420, "Ġtes": 20018, "ĠìŀĪê³ł": 18683, "ĠSurf": 43124, "ĠRussia": 6797, "Ġservi": 37076, "Ġsize": 2744, "á»Ŀ": 21270, "Ġfait": 3887, "Ġsimplistic": 44199, "chae": 44521, "Ð°Ð¿": 4219, "ĠjÃ³venes": 45110, "asking": 47211, "Ø«": 12984, "×Ĳ×©": 35932, "×ķ×ĵ×Ķ": 41403, "Ġumas": 46010, "Ġdoctoral": 41419, "Team": 38588, "Ġcurrency": 13346, "Ġlower": 3126, "ĠprÃ³prio": 36394, "Ġlogo": 9699, "Ġinsec": 18851, "Ġeats": 18109, "ĠCreator": 28208, "ĠAhhh": 27185, "<|19.12|>": 51320, "onut": 40075, "olf": 7491, "ĠÐºÑĢÐ°": 38585, "Ġhops": 47579, "ĠHalf": 15917, "Ð¸Ð½": 2599, "Ġfortun": 10506, "vÃ¤nd": 30499, "JI": 43038, "ĠPres": 2718, "Ġvulnerable": 10955, "ĠÐºÐ¸Ð½Ð¾": 49874, "Ġbitten": 34608, "Ġnause": 34735, "èħ³": 49595, "ĵ¤ëıĦ": 46313, "Ġinvented": 14479, "ĠProducer": 33034, "Ì": 136, "ĠKazuto": 38031, "ĠJap": 35642, "helm": 48319, "IGN": 38455, "ĠBaptist": 32410, "ÑĸÐ»": 35432, "§Ģë": 28719, "Õ¸": 30165, "Ġskept": 19128, "ĠConnecticut": 29433, "ãĢİ": 16553, "entar": 32067, "ĠÐºÐ°Ð¶": 22129, "Ġtissue": 12404, "Ġbusca": 37492, "Ã¼cke": 37383, "zyst": 36049, "Ġgenre": 11022, "ĠCharge": 40546, "ĠÐ¿Ð¾Ð»Ð½Ð¾ÑģÑĤÑĮÑİ": 36392, "otted": 11252, "ĠMarkus": 45041, "stoff": 23636, "Ġreopening": 39542, "Ġpreparations": 34122, "Ġriches": 35777, "Ġê´ľì°®": 18286, "Ħ": 226, "Ġnoodle": 21873, "chieden": 40433, "È": 132, "ĠBP": 40533, "Ġbonus": 10882, "ĠNorweg": 31783, "ĠÏĥÏĦÎ·Î½": 31766, "Ġheightened": 46154, "control": 40905, "ĠSite": 34027, "Ġconsulting": 23682, "Ġëĭ¤ë¥¸": 16435, "ĠAustin": 15356, "Ġimpose": 26952, "ĠkÃ¶t": 32629, "Ġ240": 26837, "ieth": 38449, "ĠJaneiro": 44711, "ĠÄĳÃ¢u": 35433, "ĠØ¨ÙĨ": 44945, "fte": 16268, "ÏģÎ¿": 11904, "Ġtyre": 44087, "Ġviscos": 38297, "Ġdisturbance": 35684, "Ġê³Ħ": 10603, "ween": 1259, "ĠìķĮëł¤": 38654, "Ġelectronically": 49677, "ÑģÐºÐ¾Ð¼": 29166, "ĠChristina": 25466, "ĠImperial": 21395, "Ġenerg": 10575, "<|17.28|>": 51228, "szy": 7706, "idor": 29718, "Ð»Ð°Ð´": 10396, "Ġfoster": 17114, "Ġgimm": 37214, "ĠVO": 15216, "Ġincorporating": 33613, "ĠWeather": 34441, "Ġlados": 40301, "ĠÐºÐ¾": 3898, "ĠAgain": 3764, "colo": 46086, "XT": 20542, "Ġerr": 45267, "ÅĤe": 19827, "Ġwaar": 16618, "ĠAwak": 25274, "<|15.60|>": 51144, "anche": 22806, "DER": 30500, "Ġdropdown": 47599, "ĠìŀĲê¸°": 37257, "Ð¾ÑģÑĮ": 8049, "Ġisot": 38018, "ĠTuesday": 10017, "Ġaman": 42943, "çĶ»": 27126, "ĠÐ¿Ð¾Ð´ÑĥÐ¼": 38664, "Ġkamera": 43246, "rees": 4856, "Ġjack": 7109, "all": 336, "Ġregistered": 13968, "ĠÑĢÑĥÑģ": 27198, "Ġbrace": 38458, "empor": 11840, "Ġelegant": 21117, "ĠÏĥÎ±ÏĤ": 34981, "ĠÃ¼ber": 4502, "archy": 13988, "Ġuso": 22728, "Ġbrid": 16362, "Ġvintage": 23050, "ITCH": 43071, "Ġakhir": 49843, "Ġsurve": 11463, "Ġdanach": 37784, "ienen": 22461, "Ġcontenido": 47117, "attan": 21135, "Ġcircumst": 7982, "osaurs": 23244, "Ġrodz": 28607, "ĠdiffÃ©": 14397, "ĠIndones": 13942, "Î½Î±": 11658, "Ä±nt": 42234, "aho": 25825, "Ġhistoire": 31202, "ĠdemÃ¡s": 34682, "ĠColumbus": 31258, "weight": 12329, "Ġapt": 29427, "ĠÐĴÐ¾": 24334, "Ġmuitas": 25705, "Ã¼cks": 41687, "<|17.90|>": 51259, "éĥ½æĺ¯": 22796, "Ġprescribed": 29099, "Ġwinter": 6355, "Ġshine": 12207, "ì²´ê°Ģ": 39881, "Ġrepublic": 18535, "ĠDone": 18658, "ÄŁer": 19119, "Ð¿Ð¾Ð»": 14539, "ĠBugÃ¼n": 48017, "ĠHospital": 15645, "ĠÐ¸Ð½ÑĤÐµÑĢÐµÑģ": 15033, "Ġtaxpayers": 38205, "Ġlimiting": 22083, "Ġsecurities": 38597, "Ġwys": 27062, "ĠFire": 7652, "ĠdespuÃ©s": 15283, "Ġfolks": 4024, "Ġpostp": 28973, "ĠHund": 43361, "ç¾İ": 9175, "Ġswoje": 29489, "uÃ©s": 12430, "Ġdah": 16800, "Ġcompare": 6794, "Ġwykon": 46702, "ĠSoph": 18921, "Ġprz": 6541, "Ġlithium": 32180, "Ġë³´ìĭ": 23531, "Ġ25": 3552, "orry": 2005, "<|8.42|>": 50785, "Ġaisle": 30916, "ohl": 12768, "Ġnearby": 11184, "Ġhaz": 11008, "ĠTal": 10516, "ĠÐ¸Ð·Ð¼ÐµÐ½": 30345, "åĵªè£¡": 37054, "cn": 16279, "ĠAnglo": 49570, "Ġtowels": 32819, "Ġsums": 34499, "Ġconstruir": 38445, "ĠPP": 37369, "erves": 9054, "ĠReserve": 26049, "çº": 16853, "×ł×¡": 47203, "æģŃåĸľ": 42179, "ĠNacht": 31133, "Ġgra": 1295, "BI": 11291, "Ġem": 846, "Ġë³´ëĤ": 39833, "Ġarbitr": 19071, "ĠFit": 29263, "HH": 7499, "íĭ": 13473, "Ġkolay": 44999, "pract": 42559, "ĠNintendo": 11578, "olin": 31178, "Ġkoska": 49139, "ĠAnimation": 44635, "Ġresponse": 4134, "ĠëģĿëĤ": 34907, "ĠØ£ÙĬ": 36632, "teri": 34345, "ĠÎµ": 5958, "Ġcrunchy": 24942, "ĠNixon": 31130, "ĠOwen": 32867, "ĠBlake": 23451, "Ġdevelopment": 3250, "Ġgr": 677, "Sud": 42545, ",,": 20387, "ĠJudith": 45395, "ĠÑįÑĦÑĦ": 33607, "<|23.60|>": 51544, "Ġgeez": 46108, "Ġë¹ł": 28117, "ĠNokia": 43980, "Ġdiscret": 25656, "æŃ¡è¿İ": 21315, "ĠKiev": 48559, "êµ¬ë": 11545, "Ġweight": 3364, "Ġgener": 1337, "ĠBurger": 28936, "Ġfez": 21714, "ray": 3458, "Ġavez": 11766, "ĠReid": 46912, "ðŁ": 4222, "ĠRama": 39828, "Ġìĸ¼ë§ĪëĤĺ": 36093, "Put": 37594, "ðŁĺ": 13125, "Ġgrupos": 33758, "Ġediting": 10000, "Ġprestige": 42531, "ems": 9097, "Ġmio": 29908, "pelled": 33000, "Ġspoilers": 32237, "ĠìĿ´ë": 2892, "Ġelev": 7701, "plan": 16554, "ĠCould": 7497, "èĸ": 27746, "Ġcookies": 13670, "ĠMass": 10482, "AKI": 23225, "ĠAssistant": 14890, "ĠWit": 42299, "Ġautobi": 45747, "ADA": 45852, "ĠëłĪë": 43927, "igi": 19789, "ieties": 19084, "founded": 49547, "ĠConsider": 17416, "Ġ×Ķ×Ľ": 29561, "ĠÐ¯Ðº": 46116, "å°±": 3111, "Ġkant": 44055, "ĠOm": 9757, "ĠHear": 30685, "ĠBrand": 11119, "ò": 174, "Ġkeywords": 21009, "ĠÃºltimo": 21013, "ĠÐ´ÑĢÑĥÐ³Ð¸Ðµ": 32108, "ÙĤÙĪÙĦ": 39648, "ĠÐºÐ¾ÑĤÐ¾ÑĢÑĥÑİ": 32355, "ĠPak": 11543, "ĠÑģÑĩ": 23812, "bud": 18281, "ĠíĻľëıĻ": 45638, "ĠfÃ©": 34271, "Ġn": 297, "illas": 20243, "Ġspikes": 28997, "Ġsymbolic": 25755, "san": 11491, "Ġdobrze": 28335, "Ġê°Ģê¹Į": 44913, "ĠAllan": 45902, "Ġrez": 48060, "Ãºde": 34458, "ĠDisc": 19839, "Ġungef": 31831, "Ġspl": 4732, "Ġtrig": 35386, "Ġà¶": 35139, "æĶ¾å¿ĥ": 39619, "ĠSherman": 45130, "Ġantig": 44417, "Ġor": 420, "ĠRN": 45702, "Ġkald": 27110, "ĠÐŁÐ¾ÐºÐ°": 38401, "åı°çģ£": 29152, "zial": 17787, "ort": 477, "comb": 38763, "ĠGill": 27709, "ITY": 28853, "ateurs": 25929, "ĠÐ³Ð¾Ð²Ð¾ÑĢÐ¸ÑĤ": 25083, "ARRY": 49968, "Ġelectronic": 10092, "Ġdemonstrate": 11698, "Here": 17685, "Ġinfluenced": 15269, "ĠtÃ©lÃ©phone": 47159, "Ġdesper": 10679, "ampoo": 25168, "ÑĥÐºÐ¸": 43188, "fact": 44919, "ĠDen": 6458, "ĠÐ¾Ðº": 11423, "Ġniez": 33511, "Ġwirklich": 9696, "ayÄ±": 18376, "ĠCompanies": 44031, "ĠÐ·Ð½Ð°ÑĩÐ¸ÑĤ": 24013, "machine": 46061, "Ġchased": 33091, "Ġsembla": 49277, "guru": 32266, "ìľ¨": 41759, "ĠmÃ¡ximo": 38876, "ĠRust": 34952, "elles": 19787, "Ð¾Ð»Ñı": 41332, "ĠÃºltimos": 33013, "ìĦ¼": 48107, "ĠVil": 35653, "ĠÐ»ÑİÐ´ÑıÐ¼": 45930, "Ġsyntax": 28431, "otic": 9411, "Ġarchety": 41852, "ĠktÃ³ry": 9913, "ĠBrain": 29783, "Ġ2019": 6071, "uchi": 30026, "ĠMil": 7036, "Ġdisadvantaged": 46826, "ĠDepending": 22539, "ê°Ģì§Ģ": 26683, "normal": 23157, "Ġdying": 8639, "Ġshaving": 36481, "Ġdischarge": 21718, "Ġhide": 6479, "è¾Ľèĭ¦": 46472, "Ġpunches": 34103, "Ġhonestly": 6095, "ĠShift": 28304, "Ġfe": 579, "Ã¥ng": 16906, "Ð»Ð°Ð½": 41915, "ĠBud": 6384, "idel": 16189, "Ġspot": 4008, "ĠArabic": 19938, "Ġlaunching": 18354, "Ġcoefficients": 31994, "Ġìķ": 1298, "nova": 39486, "eg": 1146, "ĠCola": 48037, "iley": 12062, "Ġsurrounded": 13221, "Ġsubtit": 30706, "itte": 9786, "<|26.34|>": 51681, "dess": 13628, "Ġgly": 22633, "imas": 17957, "ĠHenry": 11085, "fendimiz": 46658, "lah": 14918, "Ġrepository": 25841, "Ġlanguage": 2856, "erry": 5318, "called": 11880, "ĠprÃ³ximo": 21177, "Ġl": 287, "ĠLIN": 19763, "Ġì°¨": 15391, "Ġpunto": 14326, "Ġcoworkers": 43465, "ĠDos": 33474, "Ġsemana": 20205, "Ġebenfalls": 48977, "read": 2538, "Ġremind": 4160, "Ġprix": 31061, "tles": 23995, "ĠRegina": 48407, "Ġportrait": 17126, "ĠSamsung": 13173, "ĠBubble": 43072, "HAM": 47035, "ĠëĴ": 14749, "Ġclone": 26506, "Ġautomotive": 32866, "ÐµÐ²": 3515, "ĠÐ±Ð»Ð¾Ðº": 42222, "Ġhiking": 23784, "ĠINTERVIEWER": 49667, "Ġabord": 48727, "ĠÐ¿Ð¾ÑĤÐ¾Ð¼": 16873, "ĠEgypt": 9582, "Ġdowntime": 49648, "Ġ46": 17835, "ĠÑĢÐ°ÑģÑģÐºÐ°Ð·ÑĭÐ²": 33446, "ĠAlpha": 20588, "Ġpearl": 20287, "Ġbuck": 14894, "Ġwie": 3355, "arken": 38962, "ĠJul": 7174, "ĠPat": 4379, "ashed": 12219, "Ġrests": 39755, "Ġdre": 22540, "Ġsempre": 9553, "íķł": 7999, "Ġfragen": 39129, "Ġunter": 8662, "Ġprovides": 6417, "æ®": 15976, "Ġgels": 39196, "ĠMost": 4534, "Ġneo": 41977, "Ġpurity": 34382, "Ġpositively": 25795, "Ġmisery": 32309, "ï¿": 5341, "Ġentry": 8729, "azy": 33235, "ĠØ§ÙĦØ®": 33962, "Ġjuvenile": 38486, "anking": 29411, "ä¸Ķ": 20334, "Ġabusive": 32828, "Ġassass": 16475, "tschaft": 22165, "ĠbÃ¥": 32758, "Ġape": 44315, "ĠÑģÐ¼Ð¾ÑĤÑĢ": 17726, "ĠEntscheidung": 44667, "Ġ+": 4667, "pla": 29684, "oped": 27277, "ÐµÐ½Ð½Ð¾Ð¹": 36203, "Ġalso": 611, "Ġpainter": 26619, "abyte": 34529, "ĠLÃ¤nder": 43441, "Ġmakeup": 6567, "Ã¤hlt": 43376, "vik": 42252, "Ġsocialism": 36112, "usted": 6589, "ĠìķĬ": 6718, "ĠModel": 17105, "afft": 29445, "Ġeinfach": 7281, "Ġspawn": 17088, "jor": 2337, "ĠHDMI": 30811, "altet": 39931, "Ġbore": 26002, "giggling": 45856, "Ġaccident": 6398, "ĠVol": 8911, "Ġhotter": 32149, "ĠìĨĶì§ģ": 40279, "ĠlÃ¤h": 49383, "FF": 6345, "Ġestos": 12585, "ĠÐ´Ð¾Ð²": 20124, "White": 47589, "ĠRico": 22643, "ĠConsole": 44152, "ĠNebraska": 27171, "ont": 896, "ãĤĤãģĹ": 49412, "bod": 47466, "Ġpush": 2944, "ĠÐ¡Ð¾": 40156, "ãģ©ãģĨ": 18395, "ĠOkey": 38544, "Ġsuddenly": 5800, "Ġpodia": 46689, "Ġthroughout": 3710, "ĠBlockchain": 48916, "Ġstrings": 13985, "ĠKu": 20311, "Ġunknown": 9841, "Ġconverter": 33905, "ĠAu": 12160, "Ġkwest": 42035, "DO": 26649, "Ġander": 49466, "ĠÐ²ÐµÑĤ": 45010, "Ġcape": 30414, "aczy": 14691, "Ġwhichever": 24123, "build": 11516, "ĠogsÃ¥": 23864, "Ġkontroll": 47107, "<|11.42|>": 50935, "chio": 31033, "ĠStorage": 36308, "ĠIS": 6205, "Ġhumming": 34965, "<|9.08|>": 50818, "ĠEngineers": 43950, "ĠGod": 1265, "Ġcorrespond": 6805, "ĠÑģÐ´ÐµÐ»Ð°Ð»": 40653, "ãĤĵ": 3225, "Ġorder": 1668, "Ġhizo": 28803, "Ġproceso": 29314, "agon": 6709, "ÃŃz": 44551, "ĠMissouri": 21334, "okee": 49319, "Ġprogrammers": 41504, "ÑĨ": 1814, "Ġrecession": 24828, "Ġcausa": 23667, "ounter": 47489, "<|19.44|>": 51336, "ĳ×ľ": 23602, "ĵ±": 22205, "Ġpeng": 17289, "Ġcolon": 8255, "ĠÐ¼ÐµÑģÑĤÐ°": 43956, "Ð¾Ð¿ÑĢÐ¾Ñģ": 16307, "Ġë°ĳ": 37734, "Ġobjet": 14964, "Ġprinci": 3681, "Ġlover": 18009, "ĠÎ¤": 20838, "hen": 2932, "ĠÐ¿ÑĢÐ¾Ð±": 15122, "oga": 9833, "Ġnormalmente": 38217, "ĠAmen": 14092, "ê°ĲìĿĦ": 47004, "prise": 8900, "ĠStella": 45073, "ĠWay": 9558, "Ġpelvic": 40959, "hake": 34593, "Ġindustry": 3518, "ĠwiÄĻcej": 26004, "Ġescrever": 44909, "Ġsession": 5481, "Ġplaying": 2433, "Ġspared": 49577, "ÉĻn": 36769, "buster": 41148, "Ġcoupled": 29482, "×ķ×ł×Ļ×Ŀ": 47210, "een": 10685, "ĠÐ¿ÑĢÐµÐº": 28939, "Î¼Î±": 11656, "Ġharassment": 25836, "Ġinstallations": 41932, "Ġpurchasing": 20906, "ĠëıĪ": 26963, "ĠHao": 36702, "ĠMcCain": 49725, "Ġopacity": 41693, "ä½¿": 22982, "Ġdign": 15308, "Ġcomparing": 15763, "Ġshred": 21567, "åĵĪåĵĪ": 15964, "Ġìĭ¬": 21923, "Ġë°©ìĨ¡": 35429, "ãģªãĤĵãģ§ãģĻ": 42255, "ĠÐºÐ¾ÑĤÐ¾ÑĢÐ¾Ð¼": 39818, "Ġsilicone": 28778, "ĠiÃ§er": 33913, "iren": 18833, "Ġwok": 40022, "Ġoutras": 22221, "Ġverdict": 33957, "Ġhills": 21379, "ĠINT": 43140, "ĠÑģÐ¿Ð¾ÑģÐ¾Ð±": 23677, "Ġcoffin": 38361, "Ġworkouts": 28300, "Ġpackets": 30364, "Via": 46477, "ĠÎµÎ¯Î½Î±Î¹": 15974, "Ġempath": 27155, "Ġ|": 18362, "Ġverder": 47196, "ĠMinecraft": 21029, "Ġescuela": 47817, "Ġfeels": 3417, "ëĭµ": 23884, "å¹´åīį": 49947, "ĠÑģÐ¼ÐµÑĢ": 39997, "Ġib": 39073, "Ġselections": 47829, "Ġcameraman": 46858, "ĠSuddenly": 21194, "ĠëĲĺê³ł": 30597, "ĠMÃ¶glichkeit": 30662, "ĠÑĢÐµ": 15492, "Ġtendon": 46479, "Ġabnormal": 32847, "Ġseizure": 42522, "ĠHelp": 10773, "áº¥": 6785, "Ġversucht": 36064, "ŃĲ": 4381, "liest": 16850, "cc": 1914, "ĠPed": 16689, "Ġexistence": 9123, "edere": 36395, "<|11.84|>": 50956, "Ġmars": 30517, "<|24.86|>": 51607, "Ġbeasts": 37386, "Ġverschied": 22263, "ĠPardon": 32392, "Ġrequested": 16436, "rien": 27378, "afar": 47030, "Ġpaar": 16509, "ca": 496, "Ġstereo": 29029, "Ġcertificates": 32941, "Ġspinner": 44849, "iciary": 38801, "Ġwildly": 34731, "ĠmÃ©d": 16978, "Ġfunktioniert": 26160, "Bo": 22493, "<|13.00|>": 51014, "ĠKosten": 47391, "ìĤ°": 16551, "ĠÎ¼Î±": 36759, "Ġinverted": 38969, "Ġyoungsters": 49068, "erca": 36127, "noÅĽÄĩ": 23293, "Ġrefused": 14654, "Ġadded": 3869, "ÐµÐºÑģÑĤ": 34879, "ĠNÃ¤": 32731, "viamente": 23347, "Ġchocolate": 6215, "Ġdisclaimer": 40896, "<|km|>": 50323, "roc": 24174, "Ġprevail": 46059, "lara": 17736, "ffect": 11259, "Ġcomprised": 38062, "<|28.50|>": 51789, "Ġrooft": 34460, "aiser": 34786, "Ġpodemos": 12234, "Ġisolated": 14621, "ĠìĶ": 13479, "Ġviolet": 46480, "Ġstuffing": 36046, "ì£¼": 5836, "camp": 24640, "ĠAbst": 46853, "Ġsupermarket": 25180, "Ð¾Ð½Ñĩ": 48446, "<|11.30|>": 50929, "Ġexpense": 18406, "PP": 17755, "Ġpermitir": 46865, "<|19.24|>": 51326, "Ġdistrict": 6566, "<|17.10|>": 51219, "Ġsubjected": 32153, "nÃ©": 15055, "Ġfacade": 46261, "Ġmanchmal": 32092, "Ġtumb": 42994, "Ġjudicial": 26581, "ĠAction": 16261, "ĠBlo": 9865, "ĠciÄħ": 42398, "Ġhabil": 36565, "ĠÐ¿ÑĢÐµÐ¿": 47510, "ĠZuk": 20991, "ylie": 34579, "ĠSOUND": 45383, "ĠSever": 19635, "ĠsjÃ¤l": 30700, "ĠLoad": 48408, "ãĥľ": 37626, "Ġecology": 39683, "Ġstopped": 5936, "Ġà®ĩà®°": 26277, "ait": 1001, "ĠÐļÐ¾Ð³Ð´Ð°": 23128, "è¢": 19688, "ĠvÃ¤": 12099, "Ġrebuild": 16877, "Ġgestures": 28475, "Ġanticipation": 35979, "ìĸ´ì": 2782, "zas": 24561, "ĠLife": 7720, "Ġoverdose": 42206, "ĠÐ¿ÑĢÐ¾ÐµÐºÑĤ": 32275, "ĠDelaware": 37655, "áº§": 11161, "Ġinsult": 15285, "ĠÐ½Ð°ÑĪÐ°": 48513, "ł¤ê³ł": 18914, "Ġfalou": 28443, "ĠMira": 28394, "Ġ2050": 38308, "ĠRoose": 27349, "Ġobstruct": 45579, "è³ª": 43450, "ãģĿãģĨãģ§ãģĻãģŃ": 46210, "Ġturbul": 27462, "Ù¾": 27779, "Ġë¹¨": 46954, "ÐĴÐ¾ÑĤ": 42262, "Ġpoorest": 44925, "Ġbatht": 40708, "Ġpouvoir": 14874, "ĠTell": 5115, "Ġfright": 15545, "Ġhybrid": 13051, "oi": 4869, "áº£ng": 45815, "ĠÐŁÐ¾Ñģ": 18689, "Ġrein": 6561, "Ġnaked": 15791, "Ġmieux": 20401, "Ġì½Ķë¡ľ": 29716, "Ġpur": 1864, "ĠÐ½Ð¾Ð³": 31538, "<|ne|>": 50313, "<|5.30|>": 50629, "ê°Ķ": 31170, "eni": 15711, "Ġphysiology": 43585, "Ġcrap": 12426, "å¹": 3509, "ĠZeiten": 48334, "Ġfelt": 2762, "Ġvert": 6509, "Ã¼rÃ¼": 26481, "zing": 8781, "Ġ12": 2272, "Ġpose": 10774, "<|13.36|>": 51032, "Ġregardless": 10060, "ĠRunning": 28136, "ä¸įäºĨ": 47225, "Ġdisguise": 32751, "Ġinterpre": 17489, "ĠMontgomery": 34715, "Ġburned": 13490, "ĠHana": 47946, "Ġpub": 1535, "ving": 798, "Ġeconomy": 5010, "ĠBree": 49188, "Ġunlucky": 38838, "ĠTeen": 33297, "ĠBij": 41809, "father": 11541, "Ġsentences": 16579, "ĠLP": 38095, "cias": 12046, "ìĿĮ": 5654, "ion": 313, "Ġnehmen": 19905, "å¿µ": 33679, "ĠJag": 9014, "Ġattent": 30980, "ĠmÃ¤nnisk": 45220, "ĠÑįÐºÐ¾Ð½Ð¾Ð¼": 41800, "olut": 2308, "Ġtutti": 19822, "ĠdÃ¼ÅŁ": 12856, "gression": 13338, "ĠmiÄĻdzy": 33964, "ĠLaura": 13220, "Ġclo": 20123, "Ġìŀłê¹Ĳë§Į": 33805, "ĠØ": 1357, "ĠÐ¾ÑĢÑĥÐ¶": 46802, "ĠÐ·Ð²ÑĥÑĩ": 48031, "ĠÐ¿Ð¾ÑģÐ¼Ð¾ÑĤÑĢ": 19240, "Ġako": 43567, "Ð²ÐµÑĤ": 10828, "Ġflakes": 35392, "Ġplace": 1081, "llah": 31884, "å³¶": 32880, "ĠTolkien": 48824, "Ġfear": 4240, "Ġdok": 25037, "Ġub": 26709, "Ð½Ð¸": 1903, "Ġganz": 6312, "Ð½Ð¸ÑĤ": 47264, "ÑĢÑĭ": 10461, "áº»": 40956, "ĠÐ²Ð°ÑĢÐ¸Ð°Ð½ÑĤ": 42442, "ĠInto": 23373, "ĠnÃºmer": 12803, "Ġimported": 25524, "Ġë³Ģ": 25575, "cÃŃa": 31298, "Ġfrost": 19623, "ĠCake": 36773, "ĠLib": 15834, "oner": 32949, "atted": 32509, "Ġcheap": 7084, "skin": 45299, "ĠpÃ¤": 32232, "Ġperfect": 2176, "inos": 15220, "Ġterror": 8127, "<|16.96|>": 51212, "Ġabge": 37301, "Ġlinha": 33768, "ĠMimi": 46709, "Ġfeder": 38024, "Ġzest": 37889, "iÅŁ": 9496, "Ø¨Ø±": 26890, "ĠHEY": 43821, "Ġfol": 3339, "Ġstyling": 27944, "Ġdropping": 13601, "Ð°ÐºÐ¾Ð²": 34119, "Ġparole": 26783, "yards": 48905, "à®ªà®Ł": 35032, "Ġew": 43364, "ĠÃ©taient": 25999, "Ġ97": 23399, "Ġoli": 24072, "Ġdistinctive": 27766, "Ġfashion": 6700, "ĠÑĩÐ°Ñģ": 13562, "Ã©sus": 49776, "Ġwollten": 46019, "Ġbili": 20709, "Ġessent": 47056, "Ġaroma": 28687, "ä¹Ŀ": 43145, "ĠHorse": 33208, "ĠkÃ¤ytt": 49811, "Ġbow": 4503, "Ġmuscles": 9530, "Ġtape": 7314, "ÃŃve": 38059, "<|14.34|>": 51081, "atz": 10300, "size": 27553, "enseful": 30398, "Ġestablished": 7545, "»Ĳ": 37191, "Ġviewing": 17480, "ĠÐ²Ð¾Ð½Ð¸": 40727, "ĠÐ¿ÑĢÐ¸ÑĢ": 41640, "jd": 37109, "ÐµÐ½ÑĤ": 5243, "Ġpis": 26584, "Ġlimits": 10406, "Ġdl": 37873, "Ġmentioned": 2835, "cible": 32128, "Ġproperty": 4707, "unky": 25837, "Ġhalten": 27184, "Ġrespects": 24126, "Ġhumano": 30985, "Ġrevealing": 23983, "ĠEngine": 7659, "ĠKamera": 42728, "Ġconvenience": 19283, "voorbeeld": 39006, "æĸ¯": 30758, "ada": 1538, "Ġtakich": 29607, "istry": 5980, "Ġtiring": 35182, "Ġbon": 4428, "Ġlongtemps": 32437, "ĶìĿ´": 17793, "ĠChung": 38314, "iche": 9304, "èĢħ": 12444, "Ġunfortunate": 17843, "lares": 19415, "Ġhackers": 39766, "Ġconscious": 6648, "ĠTrustee": 34373, "Ġpele": 41615, ";;": 35746, "æıĽ": 36338, "Ġmelting": 20493, "cakes": 18853, "Ð°ÑĤ": 2134, "ĠPhoto": 39175, "Top": 50118, "Ġfunniest": 42681, "Ġoluyor": 23597, "Ġprefer": 4382, "imore": 21917, "ĠÐ¿ÑĢÐ¾Ð²Ð¾Ð´": 33924, "(": 7, "isexual": 38505, "Ġsul": 17603, "Ġjourn": 17598, "Ġveio": 41164, "Ġkole": 18303, "Ġlapt": 9183, "onte": 10219, "Ġtries": 9898, "Ġvibration": 20006, "Ġfrontal": 34647, "Ġoutrageous": 38685, "Ġvandaag": 41901, "Ġstrang": 24404, "ÑĤÐ¸Ð²": 22325, "ĠKopf": 28231, "Ġnered": 28085, "ork": 1284, "Ġer": 1189, "Ġ1971": 34578, "ĠGG": 42240, "ĠìĤ¬ì§Ħ": 29899, "Ġpratic": 33852, "away": 10318, "Ġ×Ĳ×ķ×ª": 23601, "ks": 1694, "Ġrelevant": 7340, "Ġgast": 17898, "ysÅĤ": 39508, "Ġestoy": 15796, "Ġvaz": 37533, "Ġcontributing": 19270, "įĶë": 12890, "punk": 27133, "Ġhes": 10453, "olÃ©": 47530, "ĠÐ±ÑĥÐ´ÑĥÑĤ": 20393, "Ġsharp": 8199, "ĠGrund": 13941, "IF": 12775, "Ġletters": 7825, "Ġcro": 4848, "Ġuna": 2002, "Ġoo": 32685, "eres": 9931, "Ġconnecting": 11015, "Ġcai": 46523, "ĠTaliban": 26478, "Ġmerch": 12618, "Ġtavalla": 50132, "Ġanar": 37378, "æ³¢": 30806, "Ġnevertheless": 26924, "ĠRES": 46926, "Ġmujer": 32032, "Ġ110": 20154, "ĠÐ¾ÑĢÐ³Ð°Ð½Ð¸Ð·": 34254, "Ġtwin": 18397, "ĠGreen": 6969, "ĠPatricia": 34307, "Ġsuicide": 12308, "ĠSitting": 43129, "Ġdesp": 4887, "Ġreconciliation": 31281, "eil": 30684, "72": 28890, "Ġwichtig": 13621, "áº¯c": 30838, "<|18.48|>": 51288, "ĠSR": 20840, "amps": 23150, "Ġblows": 18458, "ĠÎ¹": 47467, "osaur": 18955, "Ġsmoked": 27205, "Ġegg": 3777, "Ġdiction": 22352, "ÑĢÐ¾Ð¿": 26090, "Ġleuk": 32665, "ĠÐ§ÐµÑĢ": 39659, "Ġtteokbokki": 47025, "ÃŃan": 11084, "<|0.46|>": 50387, "UC": 23967, "Ġglo": 3114, "<|24.64|>": 51596, "Ġ123": 34466, "Ġinterconnect": 26253, "ĠrÃ©fl": 48438, "zej": 16920, "Ġsogar": 19485, "Sen": 38340, "Ä±rd": 43983, "ests": 4409, "íĸĪìĬµëĭĪëĭ¤": 14892, "ìŁģ": 42095, "ĠÑģÐµÑĢÑĮÐµÐ·": 47065, "chluss": 41372, "agen": 4698, "Îµ": 2080, "Ġdirt": 11483, "Ġprotections": 29031, "Ġnegatively": 29519, "ĠÐŃÑĤÐ¾": 6684, "ĠPCB": 42065, "ĠSicht": 36615, "Ġemer": 4345, "Ġrelativ": 21960, "CE": 4969, "ÑĢÐ¾Ðº": 32948, "ĠIst": 12810, "èģ¯": 43942, "entry": 48766, "Ġadvances": 25297, "Ġextras": 40961, "ĠTab": 14106, "Ġsteam": 11952, "ĠLeague": 11199, "Ġshades": 20639, "xo": 49050, "ĠNFL": 24817, "Ġattendant": 39339, "ĠCrist": 23199, "<|22.38|>": 51483, "Ġglued": 28008, "ĠRosie": 40521, "Ġerect": 34201, "Ġappointment": 13653, "ĠHannah": 21754, "Ġthrow": 3507, "ãģ«ãģª": 22615, "Ġbeans": 12010, "ĠResponse": 43937, "ĠÃ¶z": 27010, "ĠÐ½ÐµÐºÐ¾ÑĤÐ¾ÑĢÑĭÐµ": 43876, "Ã¥": 1330, "Ġsignaling": 38639, "Ġneces": 11909, "ĠWilliam": 6740, "urb": 16659, "æĿ¿": 43664, "Ġíı¬": 17101, "Ã¶h": 23817, "Ġcorrecting": 47032, "éĥ½": 7182, "Ġbegged": 47653, "Ġniveau": 19144, "ĠExport": 50130, "<|15.48|>": 51138, "ajes": 29362, "ssa": 39516, "Ġlinked": 9408, "Ġmagari": 49932, "ĠSat": 5344, "à¸ļ": 10196, "Ġlanz": 38363, "Ġinfused": 50083, "Ġacceler": 10172, "ĠTONER": 36557, "chemistry": 48353, "Ġreligion": 7561, "Ġrespecting": 41968, "uzz": 16740, "Ġoversight": 29146, "mis": 45634, "ket": 5758, "Ð»Ð°Ð²": 22810, "ĠUFC": 48072, "ĠNacional": 36623, "Ġbr": 738, "Ġrockets": 28361, "geois": 49670, "ĠëĮĢíĨµëł¹": 39567, "ĠEthiopia": 39445, "Ġmeet": 1677, "å±ķ": 43491, "urgence": 44607, "Ġtare": 49423, "Ġdrum": 10206, "ĸìĹĲ": 28216, "Ġcy": 3185, "Ġãģ§ãģĻ": 26063, "Ġreverb": 41829, "Ġtransact": 46688, "Ġassistant": 10994, "Ġas": 382, "nahme": 32796, "Ġgolpe": 42032, "Ġmadre": 32966, "ĠÑģÐµÑĢÐ´": 38479, "inters": 35388, "~~~": 20409, "Ġpalette": 15851, "Ġcounsel": 10351, "ãģ§ãģ¯": 16719, "acho": 46574, "ĠJahren": 13080, "ĠAPP": 22513, "Ġbac": 6857, "iverse": 5376, "Ġcons": 1014, "ĠSP": 8420, "Ġintestines": 44429, "Ġsuiv": 20751, "acs": 44937, "Ġtrial": 7308, "eri": 16310, "Little": 42929, "intendent": 27563, "Ġrhy": 8740, "Ġspong": 50013, "Ġtightened": 49673, "ĠService": 9561, "íķŃ": 43359, "Ġknowing": 5276, "Ġê²°êµŃ": 42335, "Ġwholesale": 43982, "Ġpropos": 7532, "<|11.58|>": 50943, "ĠKathleen": 41648, "<|ja|>": 50266, "Ð½Ð¸Ñĩ": 27996, "Ġdock": 20929, "ACT": 42936, "Ġaccording": 4650, "Ġaltijd": 29191, "çĤº": 6344, "~!!": 45361, "Ġcircul": 12515, "ĠÐ¸Ð´Ðµ": 26547, "cze": 9680, "Ġtaper": 36277, "Ġanimation": 9603, "ĠÐºÐ¾Ð¶": 40107, "Ġëªħ": 18284, "ĠTax": 23263, "Ġcontrols": 9003, "Ġrigid": 22195, "ĠÐ»Ð¸Ð±Ð¾": 31100, "Ġgam": 8019, "å¹³": 16716, "ĠNonetheless": 45437, "Ġmoyens": 47040, "Ġline": 1622, "Ġmetic": 41566, "Ġlament": 35888, "Ġpersec": 23783, "Ġvikt": 26737, "åĪļ": 49160, "Ã©ration": 27901, "Ġtenim": 36012, "ĠEstoy": 49651, "ĠSay": 6463, "ĠSai": 27987, "Ġ×ĳ×": 6044, "ĠMeyer": 47207, "ĠOptim": 35013, "Ġtraveler": 46138, "ç¿»": 42716, "Ġtryna": 49597, "Ġuplift": 45407, "Ġtasting": 26223, "istors": 46976, "Ð¾ÑĤÑĮ": 32040, "ĠÐ½Ð°Ð²ÐµÑĢÐ½Ð¾Ðµ": 31159, "ization": 2144, "ĠAngeb": 44301, "Ġprediction": 17630, "Ġinterrupt": 12729, "ĠBobby": 19573, "Ġcrappy": 36531, "Ġparse": 48377, "expl": 23040, "Ġhere": 510, "Ã¼cken": 26037, "UNKNOWN": 47774, "Ġeverytime": 46162, "<|22.04|>": 51466, "Ġsecuring": 33640, "ĠÐºÑĥÑĢ": 28975, "Ġjsem": 47784, "æĬĬå®ĥ": 42061, "Ġset": 992, "Ġkosten": 44115, "ĠMango": 48588, "ĠìĿĳ": 21712, "ĠEuros": 46662, "Ġë°Ķë¡ľ": 15965, "Ġmultiplication": 27290, "ĠRyan": 9116, "Ġstandalone": 37454, "VR": 44358, "Ġalmonds": 40973, "¢ÙĨ": 48506, "Ġpuck": 47181, "Ġglobe": 15371, "Ġpretended": 45056, "halt": 20731, "Ġearn": 6012, "Ġhumili": 29981, "Ġenvisioned": 47733, "SI": 20262, "Ġheavily": 10950, "instant": 48142, "ìŀĪ": 8425, "Ġeuch": 10403, "ãģĬé¡ĺãģĦãģĹãģ¾ãģĻ": 32420, "ãģĦãģĨãģĵãģ¨": 39773, "Ġalone": 3312, "ĠBoy": 9486, "Ġrestroom": 41286, "Ġìĸ´ëĶ": 41802, "ĠSBS": 41788, "ĠJon": 7745, "nels": 19936, "ĠÎ³Î¹Î±": 17321, "Ġmoy": 32018, "itudes": 16451, "×ķ×¨": 8843, "Ġsyrup": 17852, "quÃ©": 16412, "ÏģÎµ": 27672, "Ġ^": 18956, "Ġtv": 16364, "ĠÐºÐ¾ÑĢ": 11384, "áº¥y": 13417, "Pre": 42844, "Ġspins": 31587, "Ã©c": 9062, "Ġask": 1029, "ĠÑĥÑĩÐ°ÑģÑĤ": 40970, "Ġspec": 1608, "Ġidentical": 14800, "was": 6569, "ĠJoy": 15571, "å®Ł": 33197, "ĠFrancis": 19648, "ĠHands": 21369, "Ġtoughest": 35037, "ĠJP": 34336, "Ġwithdrawn": 48151, "Ġhanging": 8345, "ĠAren": 15464, "iej": 7764, "Ġweapon": 7463, "culos": 32397, "Ġminers": 35640, "Ġsophisticated": 16950, "hora": 7013, "Ġlingu": 21766, "ĠÑįÐº": 13817, "ĠehkÃ¤": 47559, "duc": 8117, "ĠHubble": 42317, "ĠÐ²Ñĭ": 2840, "ken": 2653, "ĠvardÄ±": 36339, "<|10.40|>": 50884, "Ġteammates": 20461, "<|6.82|>": 50705, "<|29.82|>": 51855, "ĠìĪ¨": 33354, "ĠTÃ¼rk": 36673, "Ð³": 1906, "Ġeffect": 1802, "Ġupstream": 33915, "ĠFuel": 46837, "Ġhundred": 3262, "×ķ×¡": 24622, "ĠPersonality": 44523, "ĠTensorFlow": 37624, "Ġcult": 2376, "Ġstart": 722, "ĠfÃ¼hren": 35498, "Ġtraject": 18257, "Young": 36605, "ĠGeneva": 37285, "Ð½Ð¸Ð±ÑĥÐ´ÑĮ": 23561, "Ġenormously": 39669, "ĠViktor": 46844, "ë©´": 21448, "Ġsubt": 7257, "ĠÐ¢": 3200, "Ġeig": 9728, "Ġmystical": 40565, "Ġunsafe": 35948, "Ġì£¼ìĦ¸ìļĶ": 34067, "Ġlorsque": 40629, "oule": 26757, "ĠEnergie": 35309, "ĠBurton": 46011, "ĠFederation": 27237, "Ġincomplete": 31709, "ĠKonst": 44200, "Pl": 33710, "Ġimprison": 24146, "Ã¤hÃ¤n": 24965, "Ġconnectors": 31865, "ĠHighway": 30911, "Ġreactors": 41649, "Ġdabei": 14967, "Ġrighteousness": 26407, "Ġtelef": 40616, "illed": 6261, "<|9.76|>": 50852, "Ġ01": 23185, "Down": 34402, "Ġtapped": 38693, "zÄħ": 8925, "Ġker": 19377, "Ġrenewed": 30228, "ĠAccount": 24558, "Ġromantic": 13590, "colored": 42820, "Ġlineup": 26461, "å±Ģ": 34703, "ĠÐ¼Ð°ÑĤÐµÑĢÐ¸": 32835, "an": 282, "ĠíĮ": 6950, "Ġvoud": 39520, "Ġtransfer": 5003, "paper": 22104, "ĠSpl": 19788, "ĠktÃ³ra": 19456, "ĠÐ¿ÑĢÐ¸Ð±": 31436, "icorn": 23115, "LER": 30494, "<|10.80|>": 50904, "ĠSupport": 18073, "ĠBib": 31520, "ĠUnderground": 47569, "Ġlethal": 34562, "Ġsans": 12177, "Ġoleh": 50051, "Ã¤rke": 37355, "Ġripped": 22780, "ĠScary": 45504, "Ġcharges": 12235, "Ġgrate": 46214, "ĠHause": 26217, "hell": 21288, "ĠfrÃ¥gor": 48306, "Ġinterfer": 25799, "uating": 32438, "ĠÎ´Î¹Î±": 38744, "ĠHamburg": 34118, "Ġextrem": 4040, "Ġsar": 13782, "Ġsala": 37596, "rill": 37480, "ĠWhereas": 13813, "è¾¹": 40503, "Ġsondern": 11465, "ĠMorocco": 38782, "Ġ650": 38566, "ÑģÑĤÑĢÐ°": 40871, "Ġoutput": 5598, "ĠseÃ±ora": 41094, "ĠÐ²Ð°Ð¼Ð¸": 24166, "Ġsag": 15274, "low": 14107, "Ġseus": 17004, "Ġhors": 11912, "ordre": 48981, "Tre": 46009, "Ġregistering": 47329, "Ġstaying": 7939, "<|7.52|>": 50740, "ĠrÃ©pond": 26027, "<|25.32|>": 51630, "Ġbillion": 5218, "ĠEurop": 12201, "Ġseniors": 21069, "pciÃ³n": 39859, "Ġtussen": 50119, "NT": 30817, "Ġpip": 8489, "<|20.38|>": 51383, "Ġmates": 31488, "ĠObviously": 7580, "Ġcartoon": 18569, "Ġ×©×ł": 30222, "Ġforum": 17542, "èĩªçĶ±": 45233, "Ġcounter": 5682, "Ġvirtuous": 48918, "ĠÙ¾": 21453, "ìĭ¤í": 41712, "Ġhomework": 14578, "Ġkitchen": 6525, "é¦ĸåħĪ": 36490, "à¹ģ": 11851, "Ġmucho": 9824, "Ġdetail": 2607, "Ġdistintos": 49337, "mÃ¤n": 43946, "Ġgrill": 16492, "Ġtrucs": 33505, "Ġsixteen": 27847, "Ġdestroys": 36714, "bows": 21118, "Ġherb": 22662, "Ġataque": 46166, "ĠLyn": 15214, "Ġlag": 8953, "ĠJoining": 40229, "osos": 33894, "Ġë§¡": 49132, "ĠDaf": 31582, "ĠStro": 42196, "via": 11617, "Ġtails": 28537, "ĠcÃ¡ch": 45762, "Ġsciences": 17677, "ĠTF": 40964, "Ġlesbian": 30253, "Is": 6802, "ĠMÃ¤d": 49182, "ĠmÃ³w": 13489, "å¤ĸ": 12022, "Ġgla": 8771, "Ġglare": 49159, "ĠCrow": 27072, "Ġserving": 8148, "Ġopposing": 27890, "?</": 27381, "Ġrestrict": 7694, "Ġprise": 49468, "eless": 4272, "ĠPlaid": 30030, "It": 3522, "ruption": 11266, "Ġministers": 26220, "Ġadjacent": 24441, "Ġìĸ¸ìłľ": 43790, "Ġbezpie": 47153, "Ġpupil": 44533, "ĠMilton": 40778, "ĠCra": 11138, "Ġ108": 41342, "Ġtremendous": 10048, "ĠScroll": 35395, "ĠUniversal": 22617, "Ġmontage": 40184, "ortune": 27172, "Ġteenagers": 23618, "ĠPRE": 44164, "Ġalgebra": 21989, "ĠCreate": 20248, "ĠÐ·Ð´ÐµÑģÑĮ": 9087, "ĠTJ": 46402, "ĠForce": 10580, "ĠEltern": 29101, "Ġretail": 10800, "ÃŃss": 36375, "©Ķë": 29698, "Ġproduit": 35703, "Ġheal": 10526, "åĪĿ": 28727, "qui": 18170, "Ġreferences": 15400, "ughter": 2395, "Ġ1965": 33809, "Ġdriver": 6787, "ĠTH": 3578, "Ġgames": 2813, "ÐµÐ´Ð¸Ð½": 30741, "two": 20534, "Ã¼ber": 12670, "åĨįè¦ĭ": 30177, "Ġbroke": 6902, "çļĨãģķãĤĵ": 41574, "ĠcÃ´t": 16857, "Ġstrongest": 16595, "ĠMine": 11620, "Ġfusion": 23100, "æī": 3416, "cro": 23401, "ĠTara": 32182, "Ġprawd": 41175, "Ġshortest": 31875, "Ġpierws": 27623, "<|25.60|>": 51644, "<|24.02|>": 51565, "Ġpump": 5889, "roz": 27857, "Ġnest": 15646, "<|26.32|>": 51680, "ardeÅŁ": 21027, "Ġworkflow": 20993, "Ġwurden": 21105, "ÙĨÙĬ": 22653, "waÄĩ": 25234, "Ġesf": 41614, "<|3.48|>": 50538, "uction": 27549, "Ã¤tze": 30179, "Prof": 43227, "ä½ł": 2166, "Ġresponders": 37542, "ĠPhoenix": 18383, "Ġfascinated": 24597, "Ġacknowled": 15195, "Rich": 44654, "Ġmovements": 9981, "Ġbeacon": 41669, "ĠÑģÑĤÐ°Ð»Ð°": 44503, "Ġknock": 6728, "Ġbetter": 1101, "Ġferm": 26558, "cill": 7383, "Ġaccepting": 17391, "×ķ×ŀ×": 36722, "Ġadvoc": 7915, "Ġbranding": 27279, "enda": 7639, "ĠÐ¸ÑĤÐ¾Ð³": 36745, "ments": 1117, "orld": 3445, "ilo": 10720, "fore": 845, "ĠSolutions": 36295, "por": 2816, "Ġstealing": 19757, "Ġaujourd": 14023, "uses": 8355, "Ġdesenvol": 28683, "Ġforever": 5680, "æĪĳåĢĳçļĦ": 33641, "Ġhash": 22019, "andel": 26406, "ĠÐ³Ð¾Ð²Ð¾ÑĢÐ¸ÑĤÑĮ": 32460, "ĠNICK": 32175, "Ġged": 19238, "Ġnuovo": 49348, "Ġcomo": 2617, "ĠÑį": 1704, "Americans": 34860, "ĠWarriors": 40161, "Ġwhen": 562, "ĠMach": 12089, "?)": 4827, "ĠHungary": 32380, "Ġderivative": 13760, "Ġìī": 18804, "Ġteaser": 35326, "<|19.70|>": 51349, "<|28.32|>": 51780, "Ġwater": 1281, "aska": 13400, "ĠSlim": 47428, "Ġbumped": 42696, "ĸ×Ķ": 7889, "table": 23811, "Ġtolerant": 45525, "<|13.06|>": 51017, "Ġrefund": 29384, "Ġcompet": 2850, "reon": 12751, "Ġpresets": 41865, "Ġtrabajando": 40473, "ĠHamb": 27551, "Ġconstant": 5754, "<|2.32|>": 50480, "ĠnajwiÄĻ": 48636, "Ġdeck": 9341, "íķĺ": 2240, "ĠíĨµ": 17006, "Ġexpresses": 39204, "ÙĦÙĥ": 23275, "idy": 38836, "Ġcose": 30261, "åŃ©": 36269, "Ġsponsoring": 30311, "Ġeffective": 4942, "ines": 1652, "ĠZap": 34018, "Å¾e": 29913, "ĠÐ²Ð¸Ð´Ð½Ð¾": 41239, "ĠÐ¼Ð¾Ð¶Ð½Ð¾": 8885, "æĥľ": 48199, "related": 12004, "ĠSystems": 27059, "ocking": 31730, "Ġ×Ķ×Ļ×Ĳ": 35422, "Ġgalaxies": 28755, "Ġinspection": 22085, "Ġcompensation": 19644, "Ġ--": 1350, "ĠThinking": 24460, "Ġtastes": 8666, "ĠEigen": 30586, "Ġoverth": 30998, "Ġbuilds": 15182, "Ġentonces": 13003, "Ġaudio": 6278, "Ġpacking": 20815, "ä»Ĭå¤©": 12074, "Ġowning": 29820, "Ba": 33407, "æĺ¯éĢĻæ¨£": 49603, "Ġcoord": 14230, "Ġimperson": 38147, "Ġprueba": 48241, "ulsive": 32657, "ĠfranÃ§ais": 21425, "Ġadvised": 26269, "×Ļ×¦": 37528, "Ġdistingu": 11365, "Ġkonst": 34208, "ĠPowder": 35781, "Ħľ": 3556, "ĠBoom": 15523, "Ġinstruct": 7232, "ĠÐ¿ÑĢÐ°ÐºÑĤÐ¸ÑĩÐµÑģÐºÐ¸": 38086, "ĠActiv": 28550, "enk": 32160, "Ġwid": 5274, "ãģ¾ãģĽãĤĵ": 30250, "Ġautonomy": 27278, "Ġë´Ĳ": 15507, "Ġopposed": 8851, "ĠMeinung": 36519, "ĠCaesar": 26678, "ĠbÄ±rak": 24179, "Ġskilled": 19690, "agt": 7665, "ĠBolsonaro": 46710, "platz": 34755, "Ġcannabis": 26066, "Ġteleport": 28050, "Ġprogressively": 46667, "ĠëįĶë": 46389, "HAEL": 21413, "rÃ©e": 37735, "æķ": 7017, "Ġsitio": 40621, "ĠWOODR": 24265, "ĠOtherwise": 10328, "Ð°Ð´Ð¸": 18389, "Ġgreed": 29230, "Ġfellowship": 24989, "Ġvilla": 46473, "7": 22, "Ġpolish": 20452, "second": 27375, "Ġ\"...": 21642, "Ġ1949": 46476, "ìĬ¤íĬ¸ë": 48404, "ĠLord": 3257, "Ġhomicide": 49411, "Ġawak": 13726, "Ø¥": 28814, "maya": 24600, "Ġobra": 22798, "Ġdispar": 14548, "aczego": 39329, "ĠÐºÐ°ÑĩÐµ": 28595, "Ġacordo": 49392, "Ã©f": 38821, "Ġbathtub": 42901, "ĠGI": 26634, "Ġverify": 16888, "Ġmodest": 25403, "Ĵ": 240, "ĠFellows": 40011, "Ġacceptance": 20351, "ĠSchul": 21223, "Ġprettier": 36825, "ĠHindi": 36225, "Ġgeliyor": 29776, "emp": 15970, "Ġog": 5360, "kten": 47120, "jÃ¤": 38476, "ĠTada": 39303, "Ġdelic": 29831, "ĠBrend": 25425, "Ġese": 10167, "Ġplanned": 8589, "rak": 11272, "Ġscaff": 40889, "ient": 1196, "Ġcrater": 38981, "Ġë°ľ": 13825, "weet": 10354, "Ġtad": 29622, "ĠSana": 29200, "Ġíķłë": 44148, "Ġlip": 8280, "ĠlÃłm": 22319, "Ġsolo": 6944, "ãģĻ": 2659, "ĠId": 11506, "dles": 21915, "Ġutter": 17567, "ĠÐ¾ÐºÐ¾Ð»Ð¾": 40573, "Ġbarley": 47761, "oded": 12340, "ĠEins": 22790, "rz": 19390, "Ġgraves": 31664, "Ġrespons": 2914, "Ġinvestigators": 27079, "Ġllev": 27124, "Ġallegations": 29259, "ĠPere": 49349, "<|7.02|>": 50715, "Ġobserved": 13095, "Ġaboard": 27488, "ĠÑģÑħ": 42755, "Ġprogramme": 14001, "Ġattach": 5085, "ß": 155, "Ġcontinents": 38598, "ĠKnock": 34017, "Ġfreeze": 15959, "é¬": 32506, "Ġrankings": 36550, "Ġanticipating": 40568, "Ġexpected": 5176, "Ġabsorbed": 20799, "Ġvase": 44065, "ä»£": 19105, "ĠBorder": 36985, "Ġë³µ": 30696, "ĠSc": 2747, "Ġav": 1305, "ĠGiul": 38679, "Ġconsoles": 28948, "Ġpromote": 9773, "anych": 34644, "Ġbal": 3119, "ÑĢÐ¾ÑģÑĤ": 46155, "ĠStates": 3040, "ĠìĥĪ": 31184, "<|1.08|>": 50418, "Ġincidence": 41726, "Ġmanager": 6598, "Ġgap": 7417, "Ġmindful": 14618, "Ġactivism": 29040, "Ã¼rd": 39717, "Ġperiodic": 27790, "Ġbiting": 32912, "ĠJohannes": 48455, "Ġpessim": 37399, "ĠDal": 17357, "alez": 37646, "Ġpads": 19179, "ensen": 32934, "iin": 31463, "Ġdirty": 9360, "Ġfuels": 24616, "winning": 32960, "ity": 507, "Ġnot": 406, "Ø³": 3794, "ĠSapp": 46814, "ĠLey": 36794, "ĠCorporation": 26464, "estial": 33741, "ĠestÃ©": 34584, "å·±": 17200, "Ġvont": 14362, "ĠJulius": 47666, "Ġgates": 19792, "Ġhyung": 33216, "Ġsoi": 46098, "atura": 19660, "ĠGedanken": 44612, "Ġconfirming": 42861, "Ġphoto": 5052, "venes": 41541, "IG": 10489, "phonetic": 43226, "<|6.26|>": 50677, "<|20.18|>": 51373, "Ġshare": 2073, "Ġsticking": 13465, "tx": 38773, "Ġthickness": 14855, "Ġkiller": 13364, "Ġbrainstorm": 35245, "ĠWing": 28785, "ĠSimilar": 10905, "Ġtheta": 9725, "Ġincluso": 24018, "Łī": 24502, "Ġsorte": 25559, "ĠBened": 39753, "ĠNiss": 36009, "Ġcontinu": 2993, "ĠÐ¼ÐµÑħ": 48182, "Ġdeployment": 19317, "Ð¸ÑĤÑĭ": 43608, "ĠChile": 22238, "stag": 37077, "ĠÐ²Ð¾Ð·": 8918, "Ġgarder": 47167, "ĠÐ¾ÑģÐ¾Ð±": 21244, "Ġpoliticians": 14756, "arsh": 7064, "Ġfeud": 36377, "Ġharmony": 19410, "ä": 160, "ĠJab": 40319, "<|8.34|>": 50781, "Ġìĸ´ëķĮ": 43884, "Ġsenza": 36208, "ĠGreetings": 20032, "Ġnet": 2533, "Ġoperate": 9651, "nuts": 29251, "inken": 35061, "Ġwarp": 36030, "Ġì¿ł": 37855, "All": 7868, "ĠChad": 22268, "ĠMorrison": 33767, "uencia": 47377, "Ġsynergy": 50163, "ĠErfahrung": 49318, "Ġaspects": 7270, "ĠëĴ¤ìĹĲ": 40856, "Ġdisciplines": 21919, "ĠDOT": 50142, "lich": 1739, "Ġwoah": 37116, "Ġexceeds": 43305, "BLEEP": 34542, "ĠbÄ±": 19902, "Ġduplic": 17154, "ĠBat": 10066, "Ġdiferencia": 38844, "ĠHart": 21414, "Ġtrainers": 35393, "Ġboxer": 47252, "isst": 45802, "Ġnatives": 47964, "Ð¸Ð»Ð°ÑģÑĮ": 19522, "arnt": 18045, "ĠÐ·Ð°ÐºÑĢÑĭ": 43993, "heiro": 20267, "Ġstripes": 27308, "ĠVirgin": 9281, "ĠGovernor": 14550, "ĠSven": 49787, "nor": 19048, "Ġrzecz": 36833, "Ġtricky": 12414, "ĠjÄħ": 35692, "Ġribbon": 20921, "Ġexpiration": 39657, "ðŁĺĤ": 47951, "Ġsmashed": 33269, "ĠÛģ": 12138, "Ġplata": 30780, "Ġtornar": 41283, "Ġ1800": 24327, "Ġpole": 13208, "Ġspann": 33360, "Ġtubing": 43349, "ce": 384, "ĠCF": 21792, "Ã´ng": 8217, "etchup": 26399, "Ġgreet": 12044, "igence": 17644, "Ġgrapp": 27165, "Ġundo": 23779, "Ġfingerna": 48880, "lish": 1933, "ĠHallo": 21242, "ìĺ¨": 28888, "Ġpods": 31925, "Ġëī´ì": 36036, "Ġstrains": 39110, "wny": 43682, "Ġjig": 43716, "å¥½åĥı": 33242, "Ġarcade": 25664, "ĠPope": 19291, "ĠBuddha": 16375, "Ġpeers": 16739, "ìĬ¹": 30426, "ĠBenim": 27051, "Ŀ¼ê³ł": 6954, "ĠdÃ¼r": 23637, "enment": 26797, "Ġconfer": 13765, "ĠGOD": 26831, "ĠSTART": 49326, "og": 664, "isc": 5606, "Ġgarbage": 14150, "ç¥": 12695, "Ġeyebr": 15713, "ĠademÃ¡s": 21251, "ĠBMW": 21355, "Ġíķł": 8981, "upun": 34572, "Ġdistributions": 37870, "è¿ĩ": 16866, "Ġcorporation": 22197, "<|12.82|>": 51005, "Ġcontext": 4319, "Ġseit": 16452, "Ġleague": 14957, "æ¯Ĵ": 46495, "Gen": 26647, "ĠØ§Ø³Øª": 44713, "íķ´ë": 14841, "Ġbig": 955, "Ġsaja": 32617, "Ġstarve": 46755, "Ġsounded": 17714, "Ġpulp": 37489, "Ġcat": 3857, "áº·": 19118, "Ġunnie": 49665, "Ġrapidly": 12910, "ĠNederland": 31888, "ĠÐºÐ»": 14815, "ĠStr": 8251, "Ġwish": 3172, "igung": 21034, "ĠMoÅ¼e": 43774, "ì§ķ": 38974, "annel": 11444, "thern": 8846, "ÑĢÐ°Ð²Ð»Ñı": 26086, "Ġhonored": 14556, "ĠNancy": 18154, "Ġapproximation": 28023, "neath": 7000, "<|15.18|>": 51123, "<|29.72|>": 51850, "Ġìĵ¸": 42776, "geon": 11641, "ĠÑĸ": 8934, "Ġvisas": 45922, "ĠIdol": 33266, "Ġis": 307, "Ġpink": 7022, "Ġscientific": 8134, "æŀľ": 9319, "à¸Ĥ": 20512, "Ġshattered": 35209, "Ġsham": 29758, "ĠìŀĲë": 15905, "ĠDP": 42796, "Ġcoordinated": 29591, "ĠSydney": 21065, "Ġinstaller": 46620, "ujemy": 21767, "etus": 40506, "><": 29986, "Ġdescribes": 15626, "ĠLob": 30719, "Ġie": 43203, "Ġele": 1118, "ĠTown": 15954, "åĲ¸": 46431, "Sn": 43690, "Ð»Ð°ÑģÑĤ": 32465, "Ġost": 32946, "Ġneither": 9662, "ĠÎĹ": 45836, "Ġequip": 5037, "ĠEarth": 4755, "aban": 18165, "ĠÐ¾Ð±ÑıÐ·Ð°ÑĤÐµÐ»ÑĮÐ½Ð¾": 35515, "ruit": 18891, "ĠChristmas": 5272, "Ġarithmetic": 42973, "Ġvelocidade": 45181, "ĵľ": 7087, "Ġchicos": 46070, "ĠQuantum": 44964, "Ġfet": 15136, "Ġattracted": 15912, "athan": 9390, "ĠRamen": 48728, "Ġbecause": 570, "Ġpencil": 10985, "Ġcollaborations": 36908, "ĠSurprise": 36701, "uly": 3540, "ĠBhar": 49104, "Ġinsecurity": 35058, "ÑĤÐ¾Ð²": 8642, "Ġcunning": 45891, "ĠÑģÐ¸ÑģÑĤÐµÐ¼": 24067, "itet": 16341, "Ġengineered": 38648, "Ģë¦¬": 34374, "Ġswims": 42357, "âĻ¥": 23371, "Ġoverd": 19853, "dessus": 42401, "ĠBad": 11523, "ĠLiv": 31738, "Ġtravel": 3147, "arto": 15864, "like": 4092, "Ġdotted": 37459, "Ġê±´ë": 39626, "Ġtout": 3486, "Ġimpos": 38396, "emic": 3438, "atte": 30466, "Ġsortie": 45662, "Ġchaos": 14158, "ÏİÎ½": 31195, "otive": 22459, "ĠMIT": 13100, "Ġyay": 23986, "Ã©rica": 32716, "Ġchodzi": 23998, "Ġneuron": 34090, "uchar": 31084, "Ġfuzzy": 34710, "ĠHapp": 7412, "Sec": 29511, "ÙĪÙĨ": 11536, "ĠEin": 6391, "mag": 37941, "years": 34569, "ĠíļĮ": 22980, "respect": 19575, "Ġrepairs": 28823, "ĠYeon": 30892, "Ġdifer": 10918, "Ġdiabetes": 13881, "Ġdenial": 28754, "ĠSales": 23467, "Ġtorment": 36662, "Ġpro": 447, "ãĥİ": 34501, "Ġë§¤": 17591, "ĠCritical": 39482, "Ġassassination": 40195, "OH": 31187, "rating": 8754, "has": 12438, "Ġaircraft": 9465, "ĠEner": 11132, "itos": 11343, "§Ħ": 30216, "idian": 34681, "Ġtournaments": 32004, "Ġapocalypse": 42600, "ÑĨÑĭ": 14180, "Ġoriginated": 31129, "ìłģìĿ¸": 17495, "OR": 2483, "anter": 39918, "ĠJosÃ©": 34342, "Ġliberation": 27736, "hetto": 40556, "<|13.40|>": 51034, "Ġexplosion": 15673, "what": 5479, "Ġwon": 1582, "Ġphrase": 9535, "Ġoutreach": 19638, "ĠRou": 28392, "Ġtogg": 26911, "Ġrecognized": 9823, "ĠRule": 27533, "que": 1077, "Ġcrypto": 17240, "Ġvap": 29393, "Ġmolar": 45712, "Ġpredictive": 35521, "<|9.24|>": 50826, "Ġchopping": 35205, "ĠFaculty": 32689, "ILL": 8621, "ĠPalestinians": 34745, "ĠProbleme": 32891, "ĠScorp": 38814, "ĠMalcolm": 34596, "clockwise": 48685, "ĠJY": 43587, "Ġinfinity": 13202, "ìĬ¤ëŁ½": 38898, "ãģ§ãģĻãģĭ": 30913, "Ġfrater": 41168, "Ġblurry": 37644, "naire": 32551, "<|14.68|>": 51098, "Ġpasse": 14530, "Ġsortir": 26906, "hanol": 35735, "Ġfore": 2091, "Ġhaircut": 30328, "Ġclosest": 13699, "Ġunusual": 10901, "Ġfeminism": 37187, "Ġfruit": 6773, "Ġziemlich": 28901, "ĠfÃŃs": 27538, "igma": 16150, "Ġpuff": 19613, "Ġ×Ķ×ĵ": 32740, "ĠÑĨÐµÐ½": 39821, "ĠÐºÐ°Ðº": 3014, "à¹Ģà¸Ķ": 42351, "Ġchilling": 31047, "ĠHani": 39731, "Ġalleen": 32259, "à¸²à¸ĩ": 26134, "Ġprotection": 6334, "Ġmentre": 49601, "link": 22473, "Ġcloses": 24157, "Ġspirituality": 30637, "ĠStudies": 17515, "ĠpÅĤ": 28695, "Ġocas": 44534, "ĠPL": 6999, "Ġwarmer": 21599, "Ġgranted": 12344, "Ġparle": 18508, "Ġreading": 3760, "Ġsoc": 13598, "odo": 17423, "<|0.20|>": 50374, "Ġplants": 5972, "Ġblacks": 30720, "uite": 21681, "ĠMarines": 39331, "ĠDefin": 46245, "Ġearly": 2440, "ĠLater": 11965, "ĠFunk": 45285, "Ġcreature": 12797, "role": 29114, "Ġinvestment": 6078, "rics": 10716, "ĠÃ¶nem": 31652, "Ġtrade": 4923, "ĠWest": 4055, "ĠMAL": 40643, "ĠBaldwin": 46050, "Ġanom": 24769, "Ġfalan": 21474, "Ġfitt": 48876, "ìļĶ": 1495, "Ġpractical": 8496, "Ġsubscribed": 16665, "ĠbÃ¼y": 19445, "ĠDol": 18786, "Ġentr": 8041, "ĠÚ©ÙĪ": 31561, "idal": 22151, "Sure": 31618, "Ġ1978": 33191, "fight": 14919, "Ġhabe": 6015, "Ġiz": 14736, "ĠÑĢÐµÐ·": 17749, "Ġrejecting": 45401, "ĠIslands": 23492, "ĠhÃ¤": 24054, "íģ¼": 27328, "Ġplaint": 39112, "Ġcontraction": 37372, "ĠOn": 1282, "ĠkardeÅŁim": 38070, "dle": 2285, "ĠGal": 7336, "Ġbegin": 1841, "ĠNiger": 21489, "ĠCongo": 42839, "Ġincent": 11903, "Ġtutte": 38632, "<|18.90|>": 51309, "nym": 12996, "ĠErica": 37429, "à®³": 10078, "Ġtud": 32602, "Ġexperts": 8572, "ĠÐ³Ð¾Ð²Ð¾ÑĢÑİ": 34931, "Ġgroundwater": 40511, "ÑĤÐ¾Ñĩ": 20483, "ĠÐ¿ÑĢÐ¾Ð´ÑĥÐº": 33873, "ĠZhang": 17729, "wor": 28321, "<|19.16|>": 51322, "Ð¼Ñĭ": 25592, "Ġcaller": 48324, "acun": 34935, "Ð°ÑĤÐµÐ»Ð¸": 43512, "ĠÏĦÎ±": 16900, "ĠRaf": 29611, "Ġnerves": 23078, "Ġdisapp": 4518, "Ġeles": 10244, "ĠCath": 8764, "ë³Ħ": 37604, "Ġscreamed": 41069, "Ġverses": 17316, "Ġstimulating": 43671, "æĢİæ¨£": 42836, "æĻļä¸Ĭ": 50157, "89": 21115, "Ġbasic": 3875, "quila": 42232, "Ġmotivate": 28497, "char": 7374, "<|3.46|>": 50537, "ĠÑĤÐµÐ»ÐµÑĦ": 33356, "Ġdaha": 10545, "Ġjed": 5232, "ogo": 23515, "Ġindepend": 4819, "ĠSek": 24285, "çıŃ": 44695, "ĠButler": 27571, "ĠDiesel": 47037, "ĠÑĢÐ°Ð±Ð¾ÑĤ": 9197, "Ġtedious": 38284, "Jake": 49501, "Ġ40": 3356, "Ð¸Ð½Ñĭ": 18835, "Î¬": 3849, "Ġsyllables": 45364, "Ġselves": 41900, "<|5.60|>": 50644, "ĠSigma": 36595, "wind": 12199, "tan": 20356, "Ġbipartisan": 31954, "æŀĹ": 32063, "Ġneuro": 16499, "ÙĩØ§": 11296, "Ġmundo": 7968, "Ġsole": 12321, "Ġrenov": 18845, "Ġupgrades": 24868, "ĠAnh": 23574, "Ġinaug": 23541, "ĠRichardson": 48492, "°ë": 2004, "ĠAthena": 36827, "Ġtrustees": 43234, "Ġcig": 13474, "ĠBasil": 43175, "ĠCant": 26697, "ĠÐ¿Ð¾Ð¶Ð°Ð»ÑĥÐ¹ÑģÑĤÐ°": 32518, "ĠDestiny": 31898, "ote": 1370, "ĠAW": 25815, "Ġvisuals": 26035, "Ġbash": 46183, "abolic": 26956, "Ġstaircase": 35359, "ULL": 42615, "estones": 34853, "ðŁİ": 28864, "nde": 16404, "Ġelectrical": 12147, "Ġcollaborative": 16555, "ĠCoalition": 40586, "Ġrebel": 28293, "éª": 49657, "ĠnÃ³": 6604, "Ġfab": 5355, "ĠjÃ¤tte": 46752, "Ġunint": 29466, "Ġlaisser": 34463, "ĠØ¥ÙĨ": 36145, "Ġchurch": 4128, "ĠWenn": 7899, "imsical": 49945, "Ġtraditional": 5164, "ĠWarning": 45140, "<|23.86|>": 51557, "ĠPro": 1705, "fruit": 33564, "<|7.70|>": 50749, "<|2.30|>": 50479, "ĠOpportun": 39441, "ìŀĸ": 9522, "Ġmile": 12620, "Ġnull": 18184, "Ġparar": 37193, "ĠGem": 22894, "ÐµÑĢÐ¼": 49483, "Ġengage": 4683, "Ġyr": 37739, "Ġquant": 4426, "<|16.00|>": 51164, "ĠEy": 23236, "ÙģØ³": 36178, "cussion": 25049, "ĠestÃł": 22093, "Ġsubway": 24953, "Ġsenhor": 46464, "Ġkonse": 47020, "ĠLeuten": 42301, "Ġautomatic": 12509, "ĠÂ»,": 34319, "Ġshaken": 40971, "Ġtok": 19164, "Ġbanda": 38727, "Ġtube": 9917, "sell": 14555, "ĠSusan": 15160, "ei": 17067, "Ġcle": 1233, "vette": 41440, "cko": 41416, "Ġmoving": 2684, "ĠWall": 9551, "Ġmir": 3149, "Ġvenge": 38008, "Ġgrocery": 14410, "Ġprefers": 44334, "Ġprotective": 16314, "alies": 48872, "ĠKon": 12718, "ĠPartnership": 49589, "éĽ¢": 32662, "Î¯Î¿": 49669, "Ġang": 2562, "Ġconsolidation": 39114, "ppers": 15226, "Ġretrou": 26311, "ĠBeauty": 21450, "anca": 40835, "ĠCu": 13205, "luded": 44412, "Ġatom": 12018, "Ġmicrowave": 19025, "Å¾": 9159, "beitet": 32401, "Ġfilament": 44280, "ÑıÑĤÐ¸": 21689, "Ġwarnings": 30009, "ÑģÐ°": 22568, "Ġê°ĲìĤ¬": 19538, "Ġincar": 23694, "Ã©m": 4011, "Ġterrified": 23051, "Ġ1600": 36885, "Ġdared": 44564, "Ġunexpected": 13106, "Ġdisappearance": 37049, "Ġì¢Ģ": 6796, "ĠÎĺ": 30128, "¸Įë": 44787, "omatic": 13143, "angled": 39101, "alled": 8907, "Ġunravel": 40507, "ĠDit": 25270, "Ġtau": 17842, "Ð·Ð°": 18598, "Ġencara": 47287, "ìĬ¤ê°Ģ": 40408, "Ġgarnish": 42430, "enh": 39123, "<|th|>": 50289, "amÄ±": 48688, "nes": 4081, "ĠÐºÑĢÑĥÑĤ": 43217, "Ġfir": 12159, "âĻ": 3268, "Ġsinner": 41293, "erton": 42112, "ĠÑģÐ»Ð¾Ð²Ð¾": 43272, "Ġpray": 3690, "idÃ©": 35146, "Ġamar": 42171, "ĠCalifornia": 5384, "Ð¸Ð´": 3586, "Ġ.....": 46915, "Ġderni": 20562, "Ġ1890": 47725, "Ġsubd": 31662, "Ġgdzie": 18922, "Ġallez": 18146, "Ġefficiently": 19621, "Ġcareless": 46187, "Ã©ro": 26913, "ĠTheatre": 27782, "dal": 36694, "ordinate": 37326, "ematically": 40197, "èĶ": 41242, "ĠAustralian": 13337, "Ġmest": 35621, "Ġmonitors": 26518, "<|20.06|>": 51367, "Ð¾ÑĩÐ½Ð¾": 47083, "Ġmash": 31344, "ool": 1092, "pruch": 45788, "Ġstellt": 38582, "Ġrelational": 38444, "ĠMcN": 48996, "Ġaktiv": 31658, "Ð¾Ð»Ð¾": 33087, "ĠCity": 4392, "ĠJason": 11181, "Ġliquid": 6553, "frames": 43277, "Ġturf": 42756, "raz": 30695, "Ġminions": 39288, "oms": 4785, "Ġconception": 30698, "ĠPublic": 9489, "ĠNeil": 18615, "<|22.42|>": 51485, "<|26.18|>": 51673, "lad": 9290, "UU": 23687, "ĠÐ´Ð²": 7196, "ĠheiÃŁ": 39124, "pir": 9501, "48": 13318, "mon": 3317, "ĠEVERY": 35163, "ouve": 8162, "ÙĤØ¯": 28543, "ĠDeuts": 10514, "Ġgamers": 26774, "ĠPalace": 19121, "Ġhour": 1773, "Ġconsiderable": 24167, "Ġforesee": 38736, "Ġexperience": 1752, "ĠGas": 24025, "ĠJerry": 17454, "Ġconsumption": 12126, "iac": 13921, "ĠAppreciate": 37601, "ommen": 5132, "×ł×Ļ×Ŀ": 44977, "......": 20111, "Ġfavorite": 2954, "Ġroute": 7955, "var": 8517, "Ġconcept": 3410, "ĠDri": 19150, "Ġguys": 1074, "Ġdram": 7538, "bsp": 22424, "Ġcambio": 28731, "Ġpolar": 12367, "Ġqualcosa": 42400, "Ġtint": 28738, "Ġbonuses": 33205, "Ġê·¸ëŁ¬ë©´": 16645, "Ð¸Ð²Ð°ÑĤÑĮ": 20566, "Ġíĺ¹": 27088, "<|11.04|>": 50916, "ĠCen": 38065, "Ġhomem": 30798, "æİī": 29327, "Ġregimes": 45738, "Ġmetrics": 16367, "Ġaxle": 31192, "ĠaynÄ±": 30281, "å·²ç»ı": 49161, "ĠCoco": 29787, "<|23.04|>": 51516, "<|1.58|>": 50443, "ĠPROFESSOR": 25794, "Ġusa": 29909, "etaan": 37128, "<|7.56|>": 50742, "Ġforgiveness": 18396, "Ġeens": 31246, "Ġtherap": 6793, "othing": 9107, "ĠVince": 34876, "ĠAustralia": 7060, "ì¤ĺ": 30117, "Ġinstance": 5197, "Ġmeasurements": 15383, "Ð²ÐµÑĢÐ¶": 42421, "Ġsuppliers": 29467, "boy": 12795, "é¦Ļ": 16017, "<|14.80|>": 51104, "ãģªãĤĵ": 11847, "Ġch": 417, "Ġschool": 1395, "Huh": 33214, "Ġkh": 7168, "Ġpound": 12013, "Ġkid": 1636, "å°ĳ": 15686, "Ġschools": 4656, "Ġcris": 4661, "Ġconversion": 14298, "eln": 9878, "ATOR": 9041, "ĠTales": 50099, "Ġmarijuana": 24956, "ĠÍ": 28451, "GE": 9177, "Ġvulnerabilities": 37633, "utral": 43574, "aly": 5222, "ĠMarshall": 17279, "Ġguit": 31108, "iÃ¨res": 39408, "Ã¡m": 19524, "Ġuhhh": 38594, "Ġprototy": 46219, "Ġextremes": 41119, "Ġcloudy": 33060, "Ġattack": 2690, "ĠSit": 14523, "Ġdaran": 24520, "Ġcleaned": 16146, "Ġfearless": 44139, "ĠPens": 45035, "Ġemphasized": 34068, "Ġpolarization": 37736, "Ġacred": 34548, "ãģĹãģ¾": 45349, "Ġterrific": 20899, "Ġphen": 7279, "Ġligne": 34207, "ĠWiÄĻ": 30127, "<|sk|>": 50298, "WW": 44048, "Ġmeus": 28033, "ĠCle": 8834, "<|su|>": 50357, "Ġsimplified": 26335, "Ġredemption": 35644, "ĠFleet": 47821, "Ġcheckout": 37153, "Ġstudy": 2979, "95": 15718, "Ġhardships": 41351, "ĠViele": 36022, "heiten": 38754, "Pods": 39720, "Ġpolite": 25171, "Ġpaljon": 34824, "Ġemergencies": 43483, "Ġfringe": 38764, "laimer": 35220, "ĠGoldman": 45378, "ĠÐ±ÑĢÐ¾Ñģ": 47718, "Ġimmens": 36893, "Ġretr": 23106, "ĠðŁİµ": 25674, "ĠCoke": 32996, "ĠDES": 27083, "é¢ĳ": 39752, "equ": 12816, "Ġfortunate": 14096, "ĠBrazil": 9435, "ĠÃ¼berhaupt": 20023, "Ġfulfillment": 32615, "Ġcorruption": 17959, "ÐĹÐ«": 24582, "Ġponer": 19149, "Thanks": 27917, "<|27.70|>": 51749, "Ġpilgr": 30760, "Ġpoisoning": 36778, "Ġprakt": 33721, "Ġprincess": 14742, "ĠMARY": 37640, "è¶£": 39835, "rÃ¥n": 43178, "æ©ĭ": 36473, "Ġfueled": 45446, "Ġpermits": 30990, "illa": 5291, "Ġnug": 30279, "Ġhitting": 8850, "Ġpolicing": 28799, "Ġ×¢×ľ": 15929, "ĠGary": 13788, "Ġpres": 1183, "Ġtonnes": 41402, "Ġsuggests": 13409, "à´": 46503, "Ġï·»": 47735, "Ġsilos": 48893, "Ġshock": 5588, "ella": 9885, "Ġsailed": 49339, "Ġketchup": 29301, "Ġ127": 47561, "ds": 16063, "Ġresin": 26365, "ĠìĿ´ê²Į": 10496, "Ġê·¸ëŀĺ": 7080, "ĠColor": 10458, "ĠTomato": 35936, "Ġargument": 6770, "Ġfunciona": 26210, "Ãło": 20807, "ĠÃ©c": 15175, "ĠBook": 9476, "Ġar": 594, "éĨ«": 48351, "Ġscope": 11923, "ĠDeb": 27347, "acakt": 40707, "Ġemerging": 14989, "abet": 9058, "ĠCapitol": 25081, "ĠZe": 4853, "Ġscores": 13444, "Ġmitt": 19130, "iembre": 49772, "Ġabol": 23183, "Ġadvantage": 5002, "Ġdiferen": 18959, "Įë": 2457, "Ġtargeting": 17918, "Ġdiploma": 35770, "Ġmixing": 11983, "Ġpsychic": 35406, "aison": 29527, "Ġwithdraw": 14999, "Ġcustomers": 4581, "ĠCambridge": 24876, "Ġbeads": 20369, "<|9.18|>": 50823, "ĠScandin": 42403, "ĠLift": 26148, "ĠÑĦÐ¸Ð»ÑĮÐ¼": 22506, "Ġchce": 28928, "Ġtearing": 29401, "ĠSenhor": 43792, "olesome": 45880, "Ġguer": 14486, "Ġleider": 29115, "Ver": 36929, "Ġrough": 5903, "Ġson": 1872, "Ġgrinding": 25300, "Ġë°¤": 38093, "Ġãģ¨": 16746, "Ġpotato": 7445, "Ġenthusiastic": 28574, "FX": 36092, "inished": 35923, "ĠKit": 23037, "esa": 13708, "ĠEc": 28993, "ĠØ§ÙĦÙĨ": 28239, "Ġgeek": 36162, "%.": 6856, "ĠQuran": 19375, "ÚĨ": 24061, "ĠBa": 6777, "Ġcalculations": 20448, "é£Ł": 25155, "Ġmesures": 42265, "Ġhasn": 6132, "Ġwelfare": 17788, "ĠBlind": 34126, "Ġcollaborated": 42463, "Ġíĳ": 41065, "Ġsigh": 29472, "Ġsteal": 11009, "å¹«": 32187, "ìĥ": 3853, "iete": 40462, "DIA": 38931, "<|22.08|>": 51468, "Ġsabe": 12275, "Ð´Ð¶": 29181, "ĠprÃ©": 11127, "32": 11440, "Ġcharisma": 45969, "itten": 2987, "ĠSent": 23652, "Ġìķłë": 42422, "Ġfakt": 21310, "verstÃ¤nd": 36068, "Ġ54": 20793, "mesi": 30314, "Ġupdating": 25113, "Ġcozy": 29414, "ĠUnivers": 14052, "ĠToo": 11395, "arem": 19183, "Ġ...\"": 39463, "iker": 17314, "ennial": 29705, "ĠbaÅŁ": 8694, "griff": 32783, "Ġblock": 3461, "hall": 43864, "ĠÐľÐ£ÐĹÐ«ÐļÐĲ": 25007, "Ð¼Ð¾ÑĤÑĢÐ¸": 44443, "Ã¡nh": 33434, "ĠÃ¶nemli": 35154, "Ġyah": 38642, "stÃ¤nd": 16913, "Ġparach": 33927, "ĠGarage": 47918, "Ġgehe": 34252, "ĠVersion": 35965, "ĠAuthority": 29824, "ĠØ¨Ø¹Ø¯": 39182, "Ġcoinc": 13001, "Ġbomb": 7851, "Ġparked": 28491, "Ġhac": 46093, "ĠEntonces": 15097, "<|6.34|>": 50681, "Ġmustard": 23659, "yi": 8461, "Ġsomet": 692, "irm": 3692, "ĠQue": 4493, "<|18.96|>": 51312, "ĠìķĪìĹĲ": 31660, "ĠKP": 41371, "Ġoceans": 25004, "ĠktoÅĽ": 32982, "iaÅĤa": 25605, "ĠCav": 28066, "ĠHolocaust": 28399, "Ġmec": 25186, "ĠØ¥": 11933, "ĠBronze": 44916, "Ġcollapses": 48765, "Ġbay": 13642, "ĠÐ²Ð°Ð¼": 10448, "<|0.32|>": 50380, "Ġpragmatic": 46904, "Ġheavens": 26011, "ĠFitz": 37815, "ĠAla": 46289, "ĠYe": 835, "ĠìĿĺ": 14389, "Ġunlimited": 21950, "çĶļéº¼": 20363, "ĠStrateg": 30064, "çĽ¸ä¿¡": 35428, "Ġsounding": 24931, "Ġtemperatura": 36903, "Ġho": 1106, "Ġeh": 7670, "Ġpoliceman": 42658, "ĠBundes": 14031, "pta": 47366, "Ġinjury": 10454, "Ġviktigt": 46150, "ĠOA": 48424, "Ġsurvived": 14433, "´ìŀ": 28364, "ĠFeng": 23715, "arkan": 45173, "è¨Ĥ": 28320, "ĠReligion": 40127, "ĠNelson": 23857, "Ġmanifestations": 46931, "Ġnada": 8096, "Ð°Ð½Ñģ": 15720, "Ġtravaill": 38222, "ê¸°ë¡ľ": 27860, "ĠGoPro": 30259, "ums": 8099, "Ġshook": 28438, "ĠÐ¿Ð¾Ð·Ð²Ð¾Ð»": 28805, "ish": 742, "uty": 6432, "Ġprot": 1742, "<|4.92|>": 50610, "<|10.18|>": 50873, "<|5.26|>": 50627, "araoh": 34788, "Ġláº¡i": 23017, "ĠÄ°ns": 45379, "ĠAqui": 23089, "Ġ100": 2319, "Ġjak": 4207, "<|17.98|>": 51263, "Ã¶l": 13072, "ĠPork": 33159, "amous": 22314, "Ġwarrant": 16354, "Ġintermittent": 44084, "Ġchia": 45793, "ĠTucson": 47417, "ĠYing": 28125, "Ġê·¸ëłĩì£ł": 34410, "æĬĢ": 32502, "Ġto": 281, "Ġsevent": 12100, "ĠGr": 2606, "Ġmodelling": 42253, "âĤ": 37781, "ĠDep": 4056, "Ġtimber": 34671, "enson": 31232, "kra": 42913, "02": 12756, "Ġstatements": 12363, "Ġdio": 31965, "ĠTED": 43036, "cksÃ¥": 13238, "ikal": 41216, "hmm": 10250, "Ġshy": 12685, "¥´ë": 22702, "ĠRuby": 19907, "Ġsao": 33108, "ftig": 34765, "âĻª": 3961, "ĠÑģÐº": 5239, "Ġfeelings": 6640, "Ġwhipping": 45476, "Ġexpressed": 12675, "Ġpoker": 36863, "Ġbadge": 25797, "Ġur": 4038, "Ã©nergie": 44154, "Ġfi": 15848, "Ġsavior": 41327, "Ġbroom": 41544, "ĠÑĢÐ°Ð±Ð¾ÑĤÐ°ÐµÑĤ": 30162, "Ġatheist": 43977, "ĠÑĤÐµÐ¿ÐµÑĢÑĮ": 16983, "Ġcoh": 21683, "itution": 6518, "ĠMy": 1222, "è": 164, "Ġchambers": 34513, "ĠproduÃ§Ã£o": 49147, "Ġproyect": 23832, "Ġresol": 7923, "<|4.04|>": 50566, "Ġlibert": 18058, "Ġ140": 21548, "Ġseparating": 29279, "Ġvariety": 5673, "à®¨": 16547, "ĠDuty": 33045, "ĠWorld": 3937, "ese": 1130, "æĬĵ": 43069, "Ġstumble": 41302, "Ġcrisp": 22952, "ĠDave": 11017, "è´": 18464, "Ġprotr": 45468, "Ø´Ø±": 46309, "ĠTo": 1407, "Ġklass": 42917, "éĤ£å°±": 46887, "Ġsocieties": 19329, "utos": 34640, "Ġcombined": 9354, "Ġrelates": 16155, "ĠBOY": 34909, "Ġsoutheast": 39014, "ĠktÃ³": 4695, "<|10.44|>": 50886, "rast": 4148, "pen": 5200, "Ġcommercials": 33666, "Ġgradually": 13145, "bar": 5356, "ĠRaw": 23732, "isÃ©s": 47151, "<|3.98|>": 50563, "cer": 1776, "Ġspreadshe": 23651, "enschaft": 20996, "Ġwandering": 26396, "Ġsib": 35505, "Ġcapaz": 35453, "Ġstationed": 46228, "âĢ": 913, "Ġcentury": 4901, "kes": 5993, "Ġmention": 2152, "Ġvol": 1996, "ekk": 29010, "Ġcombien": 48975, "Ġcompartil": 40204, "AKE": 15030, "ĠæīĢä»¥": 45168, "okay": 26061, "ĠFY": 42730, "Ġmessages": 7897, "ĠLic": 40627, "ĠRhodes": 45973, "<|12.14|>": 50971, "Ġmph": 46351, "ĠPend": 38048, "Ġtours": 22911, "ĠDAR": 49274, "Euro": 30056, "ĠManual": 46173, "Ġbun": 6702, "Ġra": 3342, "ĠStand": 9133, "Never": 37857, "ÑĸÑĶ": 46592, "æ¬¸": 18387, "Ġoptics": 42599, "ĠÐ¼Ð¾Ð´": 24104, "ometry": 34730, "Ġcomponent": 6542, "akra": 34401, "alar": 12031, "Ġprojection": 22743, "çŃīçŃī": 36000, "rez": 17693, "onne": 22419, "Ġtortilla": 48857, "Tu": 41405, "IV": 10375, "CU": 25864, "Ġmue": 49532, "åħĦ": 24982, "ĠIranian": 24934, "Ġdashboard": 18342, "ĠURLs": 43267, "ST": 6840, "fect": 1836, "ĠXu": 23082, "matic": 25915, "Ġcualquier": 21004, "ed": 292, "åĨįè§ģ": 44176, "ÐµÐ»Ð¸": 8334, "ĠAnim": 21691, "ee": 1653, "Ġchoice": 3922, "ĠJake": 15822, "ĠmÃ©g": 43510, "Ġwages": 20097, "Ġseaweed": 29449, "ĠJae": 20916, "ĠMolly": 26665, "Ġitaliano": 48486, "<|18.06|>": 51267, "ete": 3498, "hovah": 48755, "ÐµÐ½Ð¸Ñı": 5332, "Ġtheft": 28508, "Ġefficacy": 33492, "Ġhorm": 11876, "Ġquelle": 29237, "utan": 30624, "Ġutilise": 39475, "ACH": 19972, "Ġvale": 15474, "off": 4506, "ĠDefinitely": 12151, "ĠrÃ´le": 41681, "Ġpint": 23924, "JIN": 38475, "<|28.56|>": 51792, "Ġuncon": 35847, "Ġtrio": 37274, "Ð¸Ð»ÑĮ": 7094, "<|12.24|>": 50976, "ĠTall": 42633, "ĠLeban": 23530, "Ġaltura": 39398, "Ġsavoir": 19345, "Ġdurum": 35218, "Ġintensity": 13749, "æ²ĴéĹľä¿Ĥ": 37816, "ir": 347, "Ġsolche": 29813, "<|12.04|>": 50966, "ĠSeries": 13934, "Ġcouple": 1916, "ĠBrexit": 24480, "process": 41075, "åı¯æĦĽ": 34193, "ĠKorea": 6307, "oke": 2949, "ĠTools": 30302, "ĠBrid": 30552, "vo": 3080, "bor": 3918, "ĠÐºÐ¾ÑĤÐ¾ÑĢÐ¾Ðµ": 32000, "Ġbers": 32147, "ugh": 1984, "ĠÃ©normÃ©ment": 41595, "Ġsupervisors": 42218, "eyed": 37860, "ãģ£ãģ¨": 13137, "Ġlimp": 33174, "rence": 10760, "Ġdispersed": 48059, "ĠGy": 25911, "Ġwipe": 14082, "Ġavant": 13439, "Ġfre": 2130, "Ġhers": 6820, "ouse": 1316, "Ġplayer": 4256, "ĠBlues": 44979, "Ġquella": 32234, "<|26.08|>": 51668, "Ġannounce": 7478, "ĠNaru": 42518, "Ġautres": 17093, "ĠÐ¿ÑĢÐ¾Ð¸Ð·Ð²Ð¾Ð´": 28685, "Ġstems": 27600, "atore": 43148, "ĠBart": 22338, "Ġbeliever": 23892, "Ġviaje": 48932, "Ġshaking": 15415, "BERT": 22184, "Ġ2005": 14394, "Ġmothers": 17941, "ëĿ¼ê³ł": 45060, "ĠÃ¡gua": 23824, "ien": 1053, "Ġì½Ķë¡ľëĤĺ": 31490, "Ja": 19111, "woÅĽÄĩ": 48847, "Ġsight": 7860, "ĠHills": 25663, "ĠÐĿÑĥ": 7571, "æĹ©": 21176, "Ġshade": 11466, "Ġsupporting": 7231, "Ġwicht": 26244, "ì¡°": 18934, "Ġë®": 45388, "rolog": 20978, "à¸«à¸Ļ": 33329, "Ġtransplant": 20662, "ngulo": 37308, "ĠthÃłnh": 39953, "Ġnghi": 46889, "Ġsemanas": 42507, "conds": 28750, "Ġmicrobi": 33234, "Audience": 19213, "Ġgrenade": 31527, "Ġlapse": 49757, "Ġproblemas": 20720, "ĠXV": 44707, "Ġinternally": 19501, "ISTIN": 40346, "dot": 43494, "ĠWe": 492, "Ġenergies": 25737, "Ġagre": 4554, "urn": 925, "Ġdrums": 20420, "icism": 26356, "Ġreach": 2524, "éĻ³": 45769, "Ġinc": 834, "ĠLogan": 22689, "Ø": 148, "Ġcrown": 11841, "Ġintroductions": 48032, "ĠFine": 12024, "ĠfÃ¶rs": 30864, "Ġrisks": 10888, "iders": 6936, "Ġrelentless": 46136, "ĠÃ¤": 3078, "LES": 29517, "ĲĺëĬĶ": 43653, "ĠHom": 20903, "Ġgedaan": 44419, "ĠmÃ¡qu": 39701, "Ġcourage": 9892, "ĠGoodnight": 45889, "Ġlyrics": 12189, "ciÃ³n": 5687, "Ġhardened": 42605, "aÃ±": 23217, "<|6.36|>": 50682, "Ġdiagn": 7234, "ĠCly": 44752, "Ġsecretary": 15691, "Ġclassification": 21538, "Ġsach": 42510, "ĠBryan": 23730, "æĬ": 7235, "<|29.18|>": 51823, "<|1.54|>": 50441, "Ġcaptivity": 48607, "ĠEarnest": 28214, "sy": 3187, "lles": 19126, "Ġfingerprints": 42170, "Ġchatter": 26929, "?]": 7507, "ĠTurning": 39660, "plet": 14657, "<|29.78|>": 51853, "Ġrounded": 23382, "Ġbedtime": 45850, "LR": 31722, "Ġplanting": 20585, "Â²": 27643, "Ġbord": 25872, "Ġvisibility": 19883, "Ġvin": 27037, "Ġcomunidad": 35695, "ounds": 4432, "Ġequivalent": 10344, "\"": 1, "aching": 2834, "ĠlÃ¦": 44584, "ĠRemo": 46445, "Ġcontrollers": 26903, "ìĹ": 1170, "Ġmicrof": 42763, "ĠÏĥ": 5532, "Ã¶llig": 34528, "ĠÐ¿ÑĢÐ¸Ð½Ð¸Ð¼": 44396, "ĠÐ¿Ð¾ÑĪ": 27148, "PR": 15958, "aros": 48970, "ĠGlenn": 30119, "Ġconn": 46264, "Ġnichts": 13004, "Ãµ": 5536, "aro": 9708, "ê¸": 1600, "Ġresemble": 36870, "viet": 10878, "Ġverte": 16167, "LAUGH": 6664, "azu": 8813, "rement": 37934, "ĠcomeÃ§o": 48958, "Ġavatar": 36205, "ĠcÃ¡mara": 44273, "Ġsponsor": 16198, "mam": 23678, "Ġfizer": 46627, "á»ĩ": 8471, "Ġsquid": 28015, "Ġecht": 13972, "ãĤ¡": 36151, "Ġbulun": 48419, "ĠElection": 45074, "Ġpassengers": 18436, "oue": 41785, "Ġkeynote": 33896, "Ġìĸ´ëĸ¡": 39593, "ĠFarm": 19991, "ĠÙħÛĮ": 48478, "ìĽĶ": 17295, "ĠAbby": 27726, "Ġlands": 5949, "Ġwhiskey": 34648, "à¯į.": 14969, "stra": 19639, "ìĪĻ": 47522, "Ġwarehouse": 22244, "Ġgoggles": 39808, "Ġexpired": 36587, "ĠApr": 6305, "Ġboa": 22422, "Ġdistinction": 16844, "Ġastero": 24711, "ĠDuck": 29266, "Ġexponentially": 37330, "emas": 26062, "Ġdrill": 11392, "idÃ©e": 34281, "ĠgeÃ§": 13110, "ä½İ": 41377, "Ġãģ¡": 44692, "Ġcondensed": 36398, "ulu": 12845, "Ġbegan": 4283, "Ġdetto": 41031, "Ġì½Ķë": 31512, "Ġhatte": 13299, "olina": 39750, "??": 4246, "ĠJENN": 35635, "ĠÐ²Ð¸Ð´": 6504, "Ġconceive": 48605, "men": 2558, "olon": 38780, "Ġtestament": 35499, "ĠÐ²ÑĭÐ´": 47535, "eau": 22290, "Ġvoix": 37188, "ĠNext": 3087, "chied": 11805, "Ġfinden": 20734, "Ġcharity": 16863, "Ġintriguing": 32503, "rades": 34668, "Ġdestro": 15311, "Ġpreliminary": 28817, "ĠPf": 17331, "Ġble": 5408, "atics": 30292, "ĠPlay": 5506, "mÃ¤ÃŁig": 43132, "viewer": 13457, "that": 6780, "Ġcler": 25902, "Ġacet": 37848, "ĠHz": 39747, "ĠSUR": 37269, "ĠSnake": 33885, "Ġmath": 5221, "Ġbiased": 28035, "ĠLeb": 19437, "å·¥ä½ľ": 41315, "ĠAT": 8872, "ļĶ": 1206, "Ġmarrying": 36376, "Ġvoices": 9802, "ition": 849, "Ġdol": 17858, "Ġmillenn": 21362, "Ġregiment": 47888, "ĠSarah": 9519, "aris": 27489, "Ġrepeats": 35038, "izzard": 31062, "ix": 970, "ý": 185, "Ġavo": 3641, "è¦ģ": 4275, "ĠTempl": 39563, "ĠenergÃŃa": 34315, "yn": 2534, "ĠElle": 16227, "answer": 43904, "mate": 13963, "ãģ¿": 11362, "ventions": 15051, "Ġinvites": 35719, "Ġcritique": 25673, "Ġimmun": 13154, "37": 12851, "ĠAcho": 40731, "ĠíĬĢ": 49470, "ĠmÃ©": 13191, "Ġtuvo": 43718, "Ġig": 8508, "Ġtwisting": 34491, "Ġ1970": 14577, "iday": 4708, "Ġliterally": 3736, "Ġë¶Ī": 16285, "Ġmix": 2890, "ĠBird": 15931, "Ġmike": 43357, "ĠLog": 10824, "istics": 6006, "Ġtalented": 13467, "Ġcouldn": 2809, "Ġvoyez": 31503, "ĠKÃ¶": 43197, "ĠVa": 16822, "associ": 49146, "spr": 18193, "Ġhosp": 3872, "ioÃ¨": 35983, "ĠÑįÑĤÐ¾Ð¼": 10755, "ĠYuri": 33901, "Ġnaw": 18969, "Ġalleviate": 42701, "Ġartificial": 11677, "></": 48986, "Ġiron": 6497, "Ġì°": 5122, "ĠFREE": 48511, "sst": 20407, "<|11.60|>": 50944, "Ġalluded": 33919, "Ġmerger": 48002, "Ġmuá»ĳn": 42453, "Ġsistema": 13245, "glass": 28851, "ï¸ı": 32306, "Mm": 47598, "venir": 21955, "zÃ¤h": 23242, "Ġstagger": 29656, "tes": 7269, "Ġë¬¸ìłľ": 24290, "Ġ×ĺ×ķ×ĳ": 48606, "×¨×ª": 40831, "ĠWed": 9589, "ĠParte": 47689, "Ġessere": 19799, "ĠIsraelis": 45086, "Ð»Ð¸ÑĩÐ½Ð¾": 40955, "ĠAlright": 2798, "ĠÄĳang": 30723, "ĠPharaoh": 43444, "éĤĦ": 7824, "ĠAmerican": 2665, "Ġgry": 41974, "Ġassuming": 11926, "ĠPM": 12499, "ĠSEE": 44712, "rÄħ": 32881, "ĠRow": 20309, "ĠHorror": 42993, "ĠÐ´Ð¾Ð±": 16991, "Ð¾Ð½ÐµÑĨ": 38944, "shit": 19186, "ĠWhole": 30336, "ĠprÃ³p": 21431, "Ġexpend": 24439, "Ń": 255, "Ġcompat": 13147, "ushima": 49754, "ĠMys": 37795, "ł¹": 25565, "Ġlips": 10118, "ĠGirl": 8502, "å¦Ĥæŀľä½ł": 45669, "ľł": 27144, "?âĢĭ": 20096, "Ġarms": 5812, "ãģ¯": 3065, "Ġconverge": 41881, "ĠCorner": 42391, "Ġrozp": 47576, "à¹Ĭ": 43375, "Ġsilver": 8753, "<|sn|>": 50324, "Ġpage": 3028, "Ð¾ÑĢÐµ": 38939, "ç´Ģ": 42184, "Ġranges": 22526, "Ġorganizing": 17608, "Ġcolumns": 13766, "ìħĶ": 19072, "<|2.56|>": 50492, "Ġmarks": 10640, "Ġcatast": 19754, "gil": 29965, "Ġbru": 25267, "Ġcity": 2307, "ĠFinal": 13443, "Ġfren": 33596, "ãģĹãģ¦": 8822, "Ġinsufficient": 41709, "ĠSau": 22557, "<|2.82|>": 50505, "Ġinvestors": 11519, "ĠVerd": 41257, "ĠNE": 12384, "Ġlounge": 33408, "Ġaprend": 21003, "ĠHER": 29060, "Ġyoutube": 12487, "íĺĢ": 23683, "Ġrecently": 3938, "ĠCAD": 41143, "Ġaccountable": 18024, "ĠKoch": 40401, "Ø¹Ùħ": 25957, "nty": 21772, "Ġpair": 6119, "lijk": 12416, "ĠServ": 6213, "rawdÄĻ": 20098, "Ġparticipation": 13487, "Ġeurop": 22139, "ĠcoÅĽ": 19241, "Ġproductos": 46363, "<|24.68|>": 51598, "Ġpublishers": 30421, "ĠArmenia": 45925, "spring": 30757, "ÎŃÏģ": 40810, "Ġpurs": 7088, "×¨×ĺ": 46323, "ĠAllÄģh": 41778, "Ġdelivers": 24860, "ĠBÃ¤": 47571, "Ġils": 9047, "Ġvillage": 7288, "Ġnurture": 41451, "Ġquest": 866, "Ġexch": 6210, "unku": 49910, "Ġremembered": 13745, "ĠVanessa": 27928, "Ġaverage": 4274, "ligt": 16770, "Ġrecovery": 8597, "ĠSUBSCRIBE": 33817, "Ġìŀħ": 10051, "ĠÐºÐ»ÑİÑĩ": 43398, "Ġclosure": 24653, "niejsze": 44258, "Ġroz": 9544, "Ġfiction": 13266, "Ġveramente": 50079, "ĠEmil": 36983, "Ġproph": 17051, "yty": 41944, "Ġtoxic": 12786, "æĭį": 31113, "RNA": 37377, "WA": 21449, "ŀĲë": 45863, "ĠGeez": 43836, "Ġproxy": 29690, "ĠANDREW": 34504, "<|27.64|>": 51746, "ĠExchange": 31169, "Ġsessions": 11081, "abl": 32212, "ĠIncor": 39120, "Ġplays": 5749, "ĠRÃ©p": 41587, "Ġwarned": 21284, "Ġhabt": 23660, "Ġaudit": 17748, "Ġgute": 21476, "ĠWatson": 25640, "POS": 41916, "Ġran": 5872, "ìļ©": 8761, "ĠSup": 9141, "ĠWWE": 15110, "hip": 1210, "à®£": 15297, "Ġfatal": 24069, "į¼": 21709, "ardÄ±": 47676, "ÑĢÐ°Ñħ": 25689, "Ġstabilization": 35476, "ĠCoconut": 45875, "ny": 1634, "Ġcarrier": 17574, "Ġì»¤ë": 39573, "Ġrasp": 49399, "owi": 24503, "Ġgob": 20489, "Ġadvertis": 18427, "Ġporch": 35513, "ĠÐ½Ð°ÑģÑĤÐ¾Ð»ÑĮÐºÐ¾": 47779, "ĠSearch": 17180, "liches": 45502, "aug": 20056, "ENE": 35190, "prowad": 35019, "ĠVitamin": 33515, "ĠÐ±Ð¾Ð»ÑĮ": 7351, "ĠChill": 41368, "ĠNobel": 24611, "ĠÐ¶Ð¸ÑĤÑĮ": 40124, "Ġeccentric": 42629, "Ġdemanded": 28276, "Ġmerged": 36427, "Ġdisplaced": 33692, "ĠColonel": 28478, "Ġdrained": 37018, "Ġtended": 34732, "Ġtrabaj": 9618, "ĠìĤ¬ìļ©": 14422, "Ġcongratulate": 24353, "veis": 22479, "ĠTV": 3558, "ĠCSS": 24387, "ĠÃĩ": 6256, "ĠScr": 34944, "ĠSF": 31095, "Ġgets": 2170, "ĠprÃ©cis": 49436, "49": 14938, "ĠFebru": 8534, "oking": 5953, "×Ļ×§": 20530, "retch": 5427, "astes": 40246, "epend": 4217, "ĠÐ¿Ð¾Ð´ÑĤ": 46103, "Ġscholarships": 28474, "Ġquindi": 15727, "Ġknife": 7976, "ĠNatasha": 40624, "Ġcoined": 45222, "ĠNormally": 17424, "ĠPrep": 21684, "ĠLif": 31946, "Ġhopeless": 27317, "ĠZwe": 32475, "Ġcrushing": 31317, "Ġoptic": 48269, "ĠJonah": 42353, "KNOWN": 44505, "ĠSister": 14145, "Ġmoje": 36383, "Ġcondemned": 36472, "ĠRaj": 16745, "mar": 6209, "ĠVenice": 32707, "ĠMog": 34327, "âĢĳ": 27392, "ĠÐ¿Ð¾Ñħ": 23052, "Ġequality": 14949, "ÏĥÎµ": 25573, "Ġnoss": 24970, "ĠëķĮ": 7765, "ĠCAR": 15939, "Ġdez": 45057, "Ġcena": 41777, "ĠLena": 41549, "Ġdepend": 5672, "Ð±Ð°": 29788, "Ġdesigns": 11347, "Ġtrapped": 14994, "Ġartwork": 15829, "Ġrescued": 31757, "Ġhover": 20076, "Ġidi": 18014, "Ġlong": 938, "<|7.48|>": 50738, "ě": 215, "Play": 24262, "Ġnegative": 3671, "Ġjoue": 46209, "ĠSesame": 47686, "Ġtimest": 49108, "ìĻ": 5485, "Ġdopamine": 37219, "Ġbulb": 21122, "×©×Ļ×Ŀ": 34643, "Ġdrilling": 26290, "Ġgreatest": 6636, "Ġgaan": 14118, "Ġà®İ": 12814, "Ġboys": 6347, "Ġsev": 15340, "mal": 5579, "ĠbÃ¤ttre": 44842, "Ġregulator": 36250, "Ġwastewater": 46418, "ĠÐ¿ÐµÑĢÐ¸": 45602, "rising": 42125, "Ġconstitutes": 44204, "Ġíķ¨ê»ĺ": 21469, "ĠLadies": 17084, "<|9.96|>": 50862, "Back": 28404, "ł¤ìĦľ": 40673, "kap": 34334, "ĠObama": 9560, "Ġwre": 46674, "ĠEye": 21603, "ĠLau": 47979, "ĠKar": 8009, "ĠGraham": 22691, "Mon": 32498, "<|2.54|>": 50491, "Ġexpectancy": 42574, "æĳ": 34783, "inki": 41917, "Ġinventor": 41593, "ĠDAVID": 16764, "Talk": 33210, "Ġabst": 10823, "Ġmathematical": 18894, "<|13.20|>": 51024, "Ùİ": 6808, "<|24.30|>": 51579, "ĠìŀĪìľ¼ë©´": 35783, "ĠYep": 7010, "<|4.24|>": 50576, "hill": 17000, "ĠBeen": 32839, "Ġacceptable": 15513, "ĠDenmark": 28065, "Ġdecentral": 26515, "Ġtack": 9426, "Ġ....": 13368, "anship": 27140, "Ġcinq": 43335, "Ġotra": 13623, "Ġyok": 9229, "Ġalgorith": 7028, "ĠëĲĺì§Ģ": 43463, "ĠParty": 8552, "odies": 6087, "Ġthen": 550, "Ġclosed": 5395, "Ġaccelerating": 34391, "ĠAnal": 16128, "ĠMeth": 48602, "Ġfeat": 15425, "Ġpartis": 44634, "Ġcontinuer": 35660, "ĠÐ¿ÑĭÑĤ": 28806, "Î¯Î¶": 43805, "ĠJean": 13854, "lower": 34598, "<|en|>": 50259, "Ġnovel": 7613, "<|12.00|>": 50964, "Ġacompa": 39226, "×Ļ": 1380, "oro": 10780, "Ġleisten": 47013, "Ġepisod": 39200, "ahaha": 15380, "Ġworth": 3163, "Ġtender": 15036, "ä¸ĭä¸Ģ": 45271, "Ġ48": 11174, "lectric": 38421, "åĲĮ": 13089, "Ġne": 408, "Ġlado": 11631, "ĠAnnie": 26781, "ĠJahre": 15557, "Ġinfluential": 22215, "Ġrpm": 47071, "ĠKill": 17526, "Ġbalance": 4772, "Ġdop": 21900, "æľĿ": 46610, "Ġmot": 2184, "ĠrÃ³Å¼": 19637, "ĠìķĦíĮĮ": 46438, "Ã©cole": 42415, "Ġamongst": 12918, "mad": 16413, "éħį": 38846, "ÐľÑĭ": 49064, "ĠItaly": 10705, "Ġprosecution": 37106, "ĠÂ»": 8793, "<|6.48|>": 50688, "Ġeveryday": 7429, "ĠÑģÐµÐ³Ð¾Ð´Ð½Ñı": 17413, "reich": 12594, "Ġstupid": 6631, "Ġcompact": 14679, "<|21.36|>": 51432, "Ð¾ÑģÐ¾Ð±": 21393, "igraph": 42034, "<|bg|>": 50292, "oco": 11198, "onsense": 13039, "Ã¼r": 1655, "ĠquÃ©": 8057, "Ð»ÑĥÑĪ": 25372, "old": 2641, "<|10.28|>": 50878, "à¸¹": 13687, "radas": 48906, "ĠìĻ¸": 27357, "è¬": 4802, "ĠSept": 6978, "Ġinfection": 11764, "ĠOutside": 28218, "åĳĬè¯ī": 44816, "ĠOb": 4075, "<|2.60|>": 50494, "<|20.26|>": 51377, "Ġdimensional": 18795, "ĠKommentare": 46203, "å¼·": 22752, "Ġprendre": 16566, "Ðĺ": 10276, "ĠMUELLER": 42573, "ĠPang": 49499, "ë¦¬": 18735, "Ġkidding": 9287, "Ġbait": 16865, "Ð°Ð½Ð¸Ð·": 27068, "EER": 25056, "Ġadjective": 44129, "ÐĶ": 8442, "Ä±ndan": 16293, "ishops": 48056, "Ġgarments": 44881, "Ġmaneuver": 25976, "ili": 2312, "ankind": 40588, "Ã¡t": 7656, "33": 10191, "<|3.96|>": 50562, "<|26.86|>": 51707, "Ġflu": 5029, "Ġintermitt": 38548, "Ġstimulate": 31269, "rek": 20012, "zenie": 16778, "Ġrom": 7438, "Ġgenes": 14424, "Ġwhales": 32403, "Ġcats": 11111, "ĠìĪł": 41986, "ĠTanner": 47253, "ĠGuess": 17795, "Ġplantation": 45328, "Ġdown": 760, "asures": 20044, "Ġìħ": 23567, "cert": 48999, "Ġcertificate": 15953, "Ġnursing": 15423, "Ġmemes": 29730, "Ġhumbled": 46199, "Ġfier": 16334, "Ġthri": 23949, "Ġsooner": 15324, "Ġanniversary": 12962, "ĠDah": 36977, "<|18.24|>": 51276, "Ġimmensely": 38674, "screen": 12439, "Ġanges": 31138, "<|3.14|>": 50521, "Ġgeg": 23982, "Ġchoose": 2826, "ĠGent": 33070, "ME": 15454, "ĠYemen": 30784, "ĠEas": 46879, "Ġobsolete": 46333, "ĠÐ´Ð°Ð½": 19582, "ĠReports": 45910, "Ġnuances": 38775, "Ġnoticing": 21814, "´ìĭ¬": 28569, "Ġaway": 1314, "Ġä»ĸ": 35414, "ä¸ĸ": 17484, "ucht": 10084, "Ġbigger": 3801, "ĠÐ¿ÑĢÐ°Ð²": 10615, "ĠStelle": 26629, "Äį": 10236, "Ġaccelerator": 39889, "Ġpeer": 15108, "Ġhar": 2233, "æ¯į": 35744, "Ġtras": 22507, "Ġrecursos": 30409, "ĠPie": 22914, "ĠDra": 15971, "Ġfonction": 20172, "ĠÐ»ÐµÑģ": 42548, "ĠÑģÐµÑĢ": 14490, "Ġfaculty": 6389, "ĠSpect": 27078, "Ġbaby": 3186, "kam": 39917, "ÐĹÐ´": 43310, "uu": 9750, "arÃ¡": 21534, "Ġsun": 3295, "<|15.88|>": 51158, "ĠTravel": 20610, "ÑĨÐµ": 15524, "Ġbladder": 37032, "Ġ2012": 9125, "Ġdetta": 48888, "Ġ18": 2443, "ĠÑħÐ¾Ð´": 23571, "df": 45953, "Ġarchae": 21894, "ĠMacBook": 31737, "Ġrep": 1085, "ĠÙĨ": 8717, "Ġann": 2324, "ĠcÃ³mo": 12826, "Ġtrouve": 19359, "atives": 4884, "ĠcanciÃ³n": 41897, "Ġcapturing": 23384, "Ġpowers": 8674, "ented": 6003, "environ": 46848, "Ġpreviously": 8046, "ĠAuth": 40231, "Ġdeste": 38738, "ĠHarlem": 44196, "ĠBaron": 30978, "ĠPeterson": 36943, "ĠAww": 22007, "<|2.50|>": 50489, "ĠÎ¼Î¿Ïħ": 23449, "Ġpredictions": 21264, "ĠWel": 3778, "Ġfled": 24114, "é©¬": 49970, "ben": 1799, "icles": 5350, "Ġslop": 21254, "Ġquesti": 29729, "ĠÑĩÐµÐ»Ð¾Ð²": 10347, "Ġbankruptcy": 33457, "ĠTyl": 49286, "Ġdevenir": 41271, "æĪĳåľ¨": 40528, "Ġtamb": 3629, "ĠFra": 5849, "Ġcomposition": 12686, "outine": 45075, "force": 5156, "Ġq": 9505, "çŃī": 10187, "Ġoffended": 26776, "ĠSauce": 36720, "íŀĪ": 5905, "Ġrisen": 28614, "bilir": 30959, "Ð¸ÑĩÐµÑģÐºÐ¸Ðµ": 38578, "Ġquir": 35645, "Î¯": 3721, "<|25.34|>": 51631, "ignty": 26919, "Ġquantity": 11275, "Ġgenerous": 14537, "<|12.32|>": 50980, "Ġcream": 4689, "Ð½Ð¾Ð³Ð¾": 4699, "Ġalta": 26495, "çĴ": 40063, "Ġmeaningless": 33232, "Ġminder": 44146, "Ġmah": 29926, "Something": 45431, "ç·ļ": 31699, "Ġonto": 3911, "ìĤ¬ë¥¼": 27811, "amo": 10502, "ĠÑĹÑħ": 49084, "Ġbearing": 17350, "Ġparab": 45729, "Ġcheckpoint": 42269, "ĠOre": 31405, "Ġci": 6983, "Ġrubbish": 29978, "ĠMarie": 15130, "Ġbypass": 24996, "Ġtoget": 1213, "Ġblessings": 19296, "ĠUnf": 8170, "Ð¾Ñī": 19937, "Ġwaving": 35347, "è¨ĺå¾Ĺ": 30872, "ĠÐ·Ð°Ð³": 25770, "Ġmai": 12698, "ĠUsually": 11419, "Ġrequire": 3651, "Ġinfinite": 13785, "Ġvic": 26031, "Ġfond": 9557, "ucks": 15493, "Ġfunny": 4074, "Ġearbuds": 40441, "Ġsediment": 32362, "Ġseek": 8075, "ĠWanna": 24336, "CAR": 35270, "ä¸įè¦ģ": 11962, "Ġcla": 3583, "Ġofficers": 9199, "ê¸Ģ": 28311, "Ġcompressed": 30353, "ĠnhÆ°": 16228, "ĠpÃ³Åºniej": 36968, "Ġharvested": 40994, "Ġëĭ¬ë": 20738, "ĠÐ½ÐµÐ²": 21224, "ĠARE": 22515, "ĠOmar": 33784, "<|20.40|>": 51384, "ĠgÃ¼Ã§": 48015, "ĠRÃ¼ck": 35001, "ĠOdyssey": 38385, "Ġcoexist": 48086, "Ġphilos": 7012, "Ġë¨¹ëĬĶ": 30616, "ä¸ĢåĢĭ": 8990, "Ġteams": 5491, "burger": 41787, "ĠØŃ": 11331, "Ġmaneira": 30255, "ustered": 38624, "Ġand": 293, "Ġparall": 8069, "Ġhandles": 18722, "mayÄ±n": 32541, "Ġout": 484, "uttering": 32224, "uins": 44790, "ber": 607, "Ġdiscord": 32989, "Ġbrethren": 47854, "Ġíķĺë©´": 17422, "à®µà®°": 36001, "Ä±yorlar": 35974, "Ġ3": 805, "Ġcutter": 25531, "Ġremoval": 17933, "Ð¸ÑĤÐµ": 5878, "ĠíķĺëĤĺ": 12261, "Ġcolors": 4577, "ĠRunner": 50105, "inct": 5460, "Ġobey": 19297, "unken": 39071, "Ġworm": 23835, "ĠDemokrat": 27802, "<|6.58|>": 50693, "meter": 33058, "ĠTrade": 23923, "Ġfeeding": 12919, "Ġincreasingly": 12980, "Ġdiyorum": 37190, "ĠSans": 21504, "Ġmarried": 5259, "Ġpa": 2502, "ĠÑħÐ¾ÑĤ": 11515, "owser": 30947, "Ġhorr": 17582, "Ġexisted": 13135, "<|8.04|>": 50766, "Ġsushi": 23022, "ĠprÃ³pria": 39608, "ĠTat": 19645, "aide": 41980, "æŁ": 17238, "Ġabla": 43899, "Ġquarant": 41240, "ĠSolo": 26452, "luding": 20626, "Ġdistinguished": 21702, "Ġdemonst": 5516, "éĨ": 21038, "Ġda": 1120, "Ġposing": 40378, "ä»Ģéº¼": 7598, "Ġnorthwest": 36930, "ĠIdi": 40187, "ĠKoll": 11621, "è±": 19517, "Ġìĥģ": 8563, "Ġparliament": 19520, "Ġsost": 41585, "ĠNGOs": 46454, "Ġrealized": 5334, "ĠFoundation": 10335, "æ®µ": 28427, "Ġprag": 33394, "ĠWestminster": 49714, "ĠDim": 20975, "ĠCraft": 29991, "ĠsituaÃ§Ã£o": 36768, "ÑĪÐµ": 5246, "Ġore": 20865, "Ġecho": 14300, "ĠëıĮ": 20555, "Ġvalleys": 45614, "Ma": 30290, "ì¹ĺê°Ģ": 49334, "Ġslaughter": 26609, "Äĥ": 4089, "ĠBeet": 28798, "73": 33396, "Ġfamiliar": 4963, "ĠKirby": 37423, "Ġschema": 34078, "phr": 44598, "ÙĮ": 47416, "ĠÑģÐ²": 4155, "é¦Ļæ¸¯": 27141, "Ġpeac": 43370, "Ġdoivent": 44341, "ilib": 12722, "Ġmov": 2402, "ĠÎ»": 15015, "ĠLes": 6965, "liÅĽmy": 38452, "ÑĢÐ°ÑģÑĤ": 46300, "ĠJoshua": 24005, "Ġmote": 49071, "Ġcube": 13728, "indust": 29850, "ĠtodavÃŃa": 28388, "ĠGRE": 20830, "Ġentrance": 12014, "ĠLamborg": 48389, "give": 25850, "Ġtallest": 42075, "ä½Ĩæĺ¯": 11189, "Ġfolded": 23940, "Ð¾Ð´Ð½Ð¾": 44356, "allen": 31181, "ame": 529, "Ã³r": 15614, "Ġpassion": 5418, "Ġpuedo": 21612, "Ġtighter": 30443, "ĠClaire": 22605, "ĠCorey": 39136, "Ġrouting": 32722, "ãĢĤãĢį": 35704, "Ġbottle": 7817, "ĠMerkel": 38356, "ĠAirl": 34421, "ĠAfter": 2381, "Ġsoda": 17192, "Ġabsent": 25185, "ĠwÃ¤re": 14558, "engage": 45949, "Ġtulee": 40038, "ĠAffordable": 41337, "meden": 43883, "Ġtomatoes": 15135, "éĤ£ä¸ª": 43083, "Ġê±°ìĺĪìļĶ": 14050, "ĠBesides": 13212, "Ġentrev": 39095, "prochen": 23902, "arch": 1178, "Ġczasie": 42667, "Ġë§Īë¬´ë": 43797, "Ġwrist": 15043, "ĠChrist": 2040, "!!!!!": 28493, "Ġcircumstances": 9121, "ĠFury": 40327, "Ġpossibly": 6264, "ss": 3810, "Ġabsolute": 8236, "Ġfaut": 8487, "¸Ķ": 48411, "<|26.16|>": 51672, "ĠkonuÅŁ": 17311, "ĠAlong": 17457, "Ġguide": 5934, "Ġdoomed": 33847, "atorio": 48028, "Ġformed": 8693, "ĠcaÅĤy": 35226, "<|17.76|>": 51252, "live": 45273, "Ġtunnel": 13186, "Ġservir": 29463, "à®Ļ": 17167, "oin": 14312, "motion": 44968, "ivent": 38683, "ãģķãģĦ": 19557, "enty": 4179, "Ġcontinually": 22277, "Ġpavement": 38305, "ĠÐļÐ¾Ð½": 23827, "Ġgroundbreaking": 42491, "Ġdedicated": 8374, "ĠrÃª": 38240, "Ã§ons": 40946, "ĠHessen": 24951, "Ġ2": 568, "Ġseguridad": 35415, "ĠWood": 11558, "Ġhung": 5753, "Ġvita": 32712, "Ġelaborate": 20945, "íĨµ": 15261, "Ġ35": 6976, "Can": 11531, "Ġvomit": 42374, "Ġperceptions": 35258, "Ã³c": 40993, "Ġtrades": 21287, "Ð¼ÐµÐ½": 17859, "Ġdiskut": 36760, "mart": 18696, "Ġdetained": 41452, "Ġtema": 15854, "Ġdeles": 30789, "ĠShaw": 27132, "Ä±lan": 50095, "Ġutterly": 30251, "Ġpytanie": 36610, "Ġpractitioner": 32125, "ãĤ¿ãĥ¼": 30736, "Ġdishon": 37127, "Ġaparecer": 43336, "Ġobjections": 44649, "emics": 38014, "ĠEntÃ£o": 6469, "ashi": 15612, "ĠMust": 13252, "Ġà®Ĩ": 33586, "?!?!": 44587, "Ġexotic": 27063, "ĠISS": 48534, "Ġab": 410, "Ð°Ð¹ÑĤ": 23055, "Ġironically": 41082, "ĠSurface": 36052, "Ġgramm": 17570, "ĠÐ¼Ð¾Ð³": 9962, "å¤ª": 9455, "Ġskiing": 32326, "Ġcurls": 36950, "bl": 5199, "Pr": 30519, "ĠLY": 42154, "ĠPrincipal": 38575, "Ġtraps": 24173, "Ġsimpler": 18587, "Ġbehaving": 35263, "Ġsufficiently": 31868, "ĠArduino": 39539, "Ġenemies": 7805, "ÐµÐº": 2872, "ĠWhoa": 7521, "ramos": 30227, "ĠLegisl": 33074, "ĠìķĦë": 9200, "kle": 14677, "ëĬ": 1052, "Ġwhispering": 42445, "Ġconsolidated": 49008, "Ġcauliflower": 43125, "Ġoverload": 28777, "´ìłĦ": 47595, "<|24.70|>": 51599, ".-": 20375, "ĠØ«": 38637, "ĠStÃ¼ck": 31146, "ĠIvy": 38592, "ãĥ¼ãĥ": 15266, "Ġinbox": 35067, "ĠSenin": 36134, "iÄĻdzy": 49485, "Ġaccumulated": 31346, "Ġnoget": 34574, "ĠfrÃ¼h": 45029, "ĠÐ½Ð¸Ðº": 11295, "Ġsoil": 6704, "Ġfails": 18199, "<|23.74|>": 51551, "<|17.58|>": 51243, "ĠÐ¿Ð¾ÑģÑĤÑĥÐ¿": 43829, "Ġmascul": 19255, "Ġsanit": 24533, "NET": 35554, "å®īåħ¨": 45466, "aza": 12257, "Ġproceeds": 32280, "ÑĨÐ¸Ñİ": 24718, "ĠÐ½Ð°ÑĤ": 48290, "Ġbackup": 14807, "<|3.20|>": 50524, "Ġsensors": 14840, "ĠsociÃ©tÃ©": 32120, "isis": 28436, "ĠìķĦëĭĪë": 14279, "comed": 22726, "Ġgolden": 9729, "ĠLA": 9855, "ì¹ĺ": 8464, "ĠInvestment": 43427, "æ¬¢": 28566, "Î¸Îµ": 32815, "ĠThere": 821, "ĠspÃ¤ter": 24196, "Ġfout": 41907, "Ġenrichment": 49900, "ĠCela": 37348, "ĠAx": 20118, "ĠLara": 33935, "ĠClan": 45117, "Ġhesit": 28336, "Ġpaintings": 14880, "´ëį°": 16775, "ĠÛģÛĮÚº": 38904, "Ġhaird": 41954, "Ġstreets": 8481, "Ġtransformer": 31782, "kas": 32876, "ĠKomb": 34678, "Ġjot": 27873, "<|8.14|>": 50771, "Ġcross": 3278, ".:": 23495, "orders": 10400, "ĠAr": 1587, "Ùĩ": 3224, "Ġnicest": 45516, "ĠTurbo": 35848, "Ġpog": 32037, "Ġty": 1104, "Ġempower": 11071, "ÄŁimiz": 31930, "ĠSchools": 26997, "ĠSadly": 29628, "viol": 23566, "Ġclergy": 45995, "ientÃ´t": 33844, "Ġreckon": 29548, "inst": 13911, "Ġvariation": 12990, "Ġsongs": 5781, "ĠEig": 40561, "feed": 37036, "ĠLocal": 22755, "<|7.20|>": 50724, "Ġrecre": 14261, "ä»ĸçļĦ": 31309, "plicity": 24428, "istan": 7559, "ĠÙĩÙĨØ§": 34105, "Ð°ÑİÑī": 18718, "ĠÐ±Ð¾ÑĢ": 30101, "Ġzaczy": 43811, "Ġprophetic": 46174, "ĠGreens": 39314, "Ġtreated": 8668, "ĠMin": 2829, "Ġë½": 28744, "ckets": 11984, "ëħĦ": 12092, "ĠMaster": 6140, "Ġcorporate": 10896, "dec": 42821, "ĠÑĥÐ¼": 17497, "ublic": 3865, "King": 39239, "Ġë¬¸ìłľê°Ģ": 48748, "ĠÐºÑĤÐ¾": 12278, "Ð»ÑĮ": 6762, "ĠGh": 20321, "Ġbells": 25474, "Ġargu": 10171, "Ġler": 32068, "ì¸": 18388, "ĠÐŁÐ¾ÑĩÐµÐ¼Ñĥ": 32823, "Ġbag": 3411, "Ġdepiction": 47740, "ĠìĹ¬ê¸°ìĦľ": 25404, "aspberry": 26240, "ĠGand": 23962, "ĠÄĥn": 28657, "Ġsector": 6977, "ĠBock": 47672, "ĠBle": 30721, "ĠÐ¾ÑĤÐ¼ÐµÑĤ": 47318, "ĠKentucky": 22369, "uted": 4866, "Ġsket": 32804, "Ġfus": 34326, "ĠYellow": 17550, "Ġideological": 35341, "Ġseeks": 28840, "Ġsymmetrical": 40360, "alk": 667, "Ð½Ð¸ÐºÐ¾Ð¼": 43882, "Ġeliminate": 13819, "ĠFrederick": 35617, "Only": 35773, "Ġlecture": 7991, "kers": 24259, "ĠJoel": 21522, "çĶ°": 24727, "Ġsaute": 41223, "asil": 13353, "kids": 35015, "Ġaku": 21093, "è¼ķ": 34801, "tÄ±r": 20637, "ĠTanz": 42420, ")!": 36380, "mund": 35578, "Ġconveyed": 49340, "<|15.14|>": 51121, "Ġscary": 6958, "ĠDownt": 44386, "Ġgewoon": 19751, "ĠDinge": 25102, "edel": 39246, "Ġihr": 5553, "ÄŁl": 14142, "Ġcord": 12250, "ĠWA": 26915, "Ġdifficulty": 10360, "onents": 40496, "èŃ°": 24686, "beiten": 16779, "Ġbursts": 41663, "Ġì°į": 17285, "ĠRE": 10869, "ogenic": 25473, "Ġsynt": 23980, "Ġreinvent": 33477, "×ķ×Ł": 14838, "ĠUsed": 43237, "ĠGrade": 44452, "standen": 33946, "Ġturkey": 21551, "Ġfist": 21849, "Ã©st": 49180, "Ġbede": 22466, "Ġpushes": 21020, "ĠEM": 16237, "ĠHaut": 49668, "fr": 5779, "ĠBard": 26841, "ampf": 30157, "ìŀĲë": 11945, "Ġëģ¼": 46809, "Ġfinalmente": 35577, "ç©": 13740, "ĠÐ¾Ð´Ð½Ð¾Ð³Ð¾": 33828, "ĠJUDY": 23820, "Ġjest": 3492, "ĠShanghai": 26135, "å¸Ī": 29186, "Ġdetal": 33185, "Ġneeds": 2203, "elsius": 20301, "ĠAri": 9433, "Ġbeaucoup": 8796, "anÃ§": 12368, "Ġê³¡": 34895, "ĠÑĦÑĥÐ½Ðº": 39484, "Ġground": 2727, "moil": 43683, "ìĬ¤íĬ¸": 29271, "Ġdeber": 29671, "Ġeuh": 32678, "Ġobserving": 22107, "ĠWr": 10159, "Eh": 42810, "Ġbul": 6493, "Ġbuzz": 13036, "ĠHDR": 29650, "oben": 46213, "arlo": 19457, "Ġfreel": 27931, "Ð°ÑĤÐ¸Ð²": 30875, "ê¸´": 17381, "Ġaccessibility": 15002, "ĠAra": 18601, "ĠRs": 21643, "irler": 38608, "ĠPraise": 34576, "êµ¬": 7675, "ydia": 37622, "owego": 26576, "Ġautomat": 28034, "Ġpassed": 4678, "worth": 13136, "ĠHol": 11086, "ĠSand": 7985, "Ġcapability": 13759, "BER": 11074, "You": 3223, "Ġwedding": 8523, "lon": 14864, "ĠíĶ¼ë¶Ģ": 30192, "<|3.28|>": 50528, "Ġíķłê²ĮìļĶ": 43258, "ĠMethod": 25285, "Ð¾Ð»ÑĮÑĪ": 24110, "Ġpreserved": 22242, "urally": 6512, "ĠÐ¿ÑĢÐ¸Ð²": 13398, "ãĥ¼ãĥ¼": 24291, "ĠÐ¿Ð¾Ð¼Ð¾Ð³": 27097, "ĠCub": 21300, "Ġsalsa": 32428, "keln": 32099, "Ġsame": 912, "Ġairplanes": 32947, "Ġuploading": 27301, "Ġcogn": 11786, "Ġpastry": 29198, "Ġworksheet": 49890, "Ġlumps": 44948, "UT": 8709, "ì³": 20688, "ook": 1212, "åģľ": 36135, "jach": 45059, "Ġstole": 16326, "çļĦè©±": 21358, "blade": 41825, "unintelligible": 31460, "Ġê°ĻìķĦìļĶ": 12196, "ê°ĢìļĶ": 28517, "ĠWant": 11773, "icop": 14149, "Ġdramatically": 17548, "Donald": 15111, "Ġsujet": 23634, "hd": 20272, "Ġround": 3098, "ĠMyan": 42297, "ĠTah": 31027, "Ġrevers": 14582, "Ġbij": 10317, "Ġtask": 5633, "<|24.20|>": 51574, "Ġcreek": 41868, "ammers": 48414, "ĠÑĥÐ²ÐµÑĢ": 32838, "Ġbasket": 8390, "Ġmouths": 33171, "Ġtongue": 10601, "Ġë¯¸": 10795, "Ġtio": 44735, "Ġgrandes": 16640, "Ġconcrete": 9859, "erapeut": 24046, "Ġexecutives": 28485, "Ġinvest": 1963, "Ã¡veis": 42530, "olics": 33763, "ØĮ": 12399, "Ġgraduate": 8080, "Ġwides": 21516, "Ġì¸¡": 41696, "oc": 905, "ĠReact": 30644, "÷": 179, "Ġcompanion": 22363, "Ġclothing": 11502, "ĠCon": 2656, "Ġbem": 7577, "iously": 8994, "[": 58, "Ġgrey": 16578, "Ġsensation": 20069, "Sa": 45393, "ĠVancouver": 26563, "Ġperiods": 13804, "ĠAlone": 42056, "Ġinner": 7284, "ĠKur": 16481, "Ġimmort": 44817, "ĮĢ": 3638, "ĠÑģÐ¾Ðº": 38419, "ĠReason": 39693, "Ġlent": 23556, "ĠBurke": 37396, "Ġrag": 17539, "Ġdeception": 40451, "Ġaw": 1714, "Ġunaware": 32065, "Ġgenres": 30057, "ĠPhilos": 31182, "Ġdocumented": 23007, "Ġaesthetic": 20092, "Ġnarrative": 9977, "jamin": 21241, "ĠBrilliant": 34007, "Ġpatient": 4537, "Ġogl": 49424, "Ð½Ð¸Ð¼": 8444, "Ġunlike": 8343, "Ġmaniac": 47193, "Ġhypoth": 24371, "Î¼Îµ": 9104, "Ġneighbor": 5987, "kee": 21687, "<|17.38|>": 51233, "ĠãģĿ": 18421, "town": 30401, "ĠAls": 12948, "Ġcela": 15437, "Ġmett": 27812, "lor": 6746, "Ġjet": 14452, "Ġspecialist": 17008, "ienna": 26143, "isto": 9334, "Ġextermin": 48628, "Ġdaher": 36971, "ĠHÃ¶": 30824, "à¸§à¸ģ": 44619, "Ġfactions": 41252, "Ġflower": 8617, "bras": 38182, "Ġwebpage": 37852, "Ġcapacitance": 50241, "Ġsimmer": 29835, "ĠTough": 48568, "ropic": 39173, "ĠSet": 8928, "Ġhears": 25688, "ĠíĶĦë": 32051, "Äĥng": 34705, "Ġmillimeters": 24388, "Ġflood": 10481, "Ľi": 8971, "Ġtasks": 9608, "Ġk": 350, "Ġcontrol": 1969, "sorry": 47545, "<|28.36|>": 51782, "Ġterminals": 38579, "ander": 4483, "ĠController": 44969, "Ġconsideration": 12381, "Ġadverse": 27590, "Ġobsc": 22082, "Ġfastest": 14573, "ĠWhatever": 8541, "ĠMint": 36188, "Ġproposal": 11494, "ided": 2112, "Ġãħİãħİ": 45824, "Ġunten": 25693, "Ġstandard": 3832, "Ġmedal": 21364, "illos": 47476, "ĠAUDIENCE": 8155, "ĠÐ²Ð°Ð¶": 19491, "ĠSafety": 21340, "ĠVisit": 24548, "ĠLia": 47844, "íķ´ì£¼": 25424, "cri": 1142, "Ð°Ð¹ÑĤÐµ": 10330, "Ø±Ùĥ": 31747, "Ġundert": 15564, "ĠHE": 11827, "Ġastrology": 44385, "kaha": 36572, "ĠÑĢÑĭÐ½": 37314, "ĠTrinity": 33121, "Ġparticles": 10007, "Ġpenn": 34911, "Ġothers": 2357, "Ġturtles": 32422, "Ġblue": 3344, "ilen": 17471, "Ġrehears": 17052, "ĠVold": 48791, "iding": 2819, "ĠML": 21601, "ereal": 46036, "irit": 2911, "á»±": 14522, "Ġtrace": 13508, "ensa": 23364, "ĠEntwicklung": 39654, "Ġtransaction": 14425, "Ġhelp": 854, "culus": 36002, "ĠPlanning": 29308, "Ġunderm": 24188, "Ä±yla": 25077, "Ġsections": 10863, "ĠëĤ¨ìŀĲ": 35266, "ĠMaur": 26133, "oe": 7921, "CL": 22458, "ĠCivil": 13405, "ĠLI": 7169, "å±±": 24113, "Ġpalms": 30819, "æĵļ": 36841, "alten": 23276, "loe": 22349, "Ġidentific": 49456, "Ġgovernor": 12965, "Ġdeclare": 19710, "Ġsons": 13476, "ĠSomething": 6595, "Ġspraying": 36658, "Ġingen": 21600, "ÑģÑĤÑĥÐ¿": 14474, "ĠLoch": 49912, "ê¸°": 2401, "<|15.10|>": 51119, "site": 30417, "<|28.00|>": 51764, "<|am|>": 50334, "á»ĥn": 38197, "Ġnouveaux": 44952, "ĠfÃ¶rst": 32864, "ĠØ§ÙĦ": 2423, "ĠCareer": 31690, "Ġserve": 4596, "chos": 27251, "Ġfruits": 12148, "Ġrecibir": 49703, "Ġcitizens": 7180, "ĠìĦłìĥĿ": 33600, "ritt": 18579, "ĠKath": 20067, "Ġforty": 15815, "160": 44158, "Ġpatiently": 49001, "Ð¸ÑĦ": 30307, "ðĿĺ": 15574, "Ġkein": 13424, "imir": 26935, "Ġresumes": 48068, "ĠLanding": 49458, "erella": 42842, "utter": 9947, "Ġarchives": 25607, "Ð¾ÑĩÑĮ": 27497, "Ġerased": 38359, "ĠsÃ¶yleye": 35881, "ĠÐºÐ¾Ð¼Ð¼ÐµÐ½ÑĤ": 32469, "inku": 48669, "iku": 24320, "ĠdiffÃ©rence": 45952, "Ġminim": 4464, "ĠMyster": 38175, "Ġcoverage": 9645, "Ġdane": 49206, "REW": 26543, "Ġpresidential": 16902, "Ġeffectively": 8659, "Ġdivergence": 47387, "Ġkos": 19532, "Î¿Î¹": 19264, "Ġdisruption": 28751, "bla": 36138, "<|27.22|>": 51725, "ĠmoÅ¼li": 30854, "Ġbald": 21096, "<|11.86|>": 50957, "ĠContract": 44659, "MER": 42620, "ying": 1840, "Ġchaque": 18920, "ĠêµĲ": 24915, "Ġantib": 11533, "BO": 15893, "Ġ1972": 32952, "suite": 33136, "ĠëĲĺê²Į": 14860, "ĠCAM": 27040, "Ġlimitation": 27432, "<|af|>": 50327, "ĠDOWN": 48897, "Ġminimal": 13206, "Ġuhm": 35007, "aye": 33449, "ĠErgebnis": 46229, "ĠÑĤÐµÑĢ": 21168, "ĠTsch": 44461, "Jen": 30555, "Ġaudience": 4034, "Ġintact": 23493, "roffen": 30594, "ĠkÃ¶nnt": 22541, "Ġlicence": 49047, "Ġplain": 11121, "Ķë¡ľ": 18839, "Ġdishes": 10814, "ICEOVER": 31992, "Ġstudios": 24593, "Ġchampagne": 33336, "åŁİ": 45277, "Ġcit": 4814, "ĠNSA": 47299, "Ġgradu": 4138, "ĠIce": 15332, "ĠmÃ¶chten": 49699, "Male": 30171, "ets": 1385, "Ġmatin": 33389, "ĠMistress": 48509, "ĠmitÃ¤": 30451, "¡°": 6010, "ĠDOM": 35727, "allahi": 24079, "ĠmÃ£": 22410, "ê³¼ë": 39106, "Ġcorrection": 19984, "Ġreactive": 28897, "rank": 20479, "Ġschneller": 43865, "ĠPlayer": 24920, "<|29.24|>": 51826, "alom": 40780, "ĠZeus": 35003, "raft": 4469, "Ġdeity": 37939, "Ã¶ll": 27765, "ĠOil": 23545, "etz": 10074, "Ġunderwear": 24941, "ĠAv": 11667, "Ġlargest": 6443, "ĠJA": 26401, "Ġunseen": 40608, "ĠBand": 15462, "Ġcalcul": 4322, "Ġstero": 36407, "ĠArkansas": 31386, "Ġradically": 35508, "ĠVe": 9706, "Ġjuntos": 33868, "Ð¿Ð°": 40024, "Ġtower": 10567, "ĠÐºÐ°Ð¿": 31507, "Ġnumbers": 3547, "ĠÐ¼ÐµÐ½ÐµÐµ": 38264, "ĠHebrew": 17895, "ĠNathan": 20634, "çħ": 17867, "Ġtiles": 21982, "Ġì»¬ëŁ¬": 26691, "Ġwaiver": 42143, "Ġofficial": 4783, "Ġpensa": 46909, "Ġindependent": 6695, "ĠNi": 12370, "ĠJr": 17261, "Ġsemua": 28195, "ĠInfinite": 43368, "ę": 213, "Ġczasu": 40860, "ied": 1091, "ÑĥÑĪ": 8288, "Ġ1957": 46256, "Ġ×ľ×Ĺ": 42485, "new": 7686, "ĠsÃ³": 6238, "Ġconductor": 29957, "Äģm": 43642, "ĠDepot": 45445, "ĠÐ±Ð¾Ð»ÑĮÑĪ": 12457, "Ġrework": 48376, "ìłĦìĹĲ": 41169, "Ġhealthy": 4627, "rawn": 29603, "Ġcasting": 17301, "Ġdisposal": 26400, "ĠteÅŁekkÃ¼r": 44002, "aben": 25071, "Ġspac": 39404, "ĠgÃ¶rÃ¼n": 49676, "Ġlarg": 11034, "Ġëĵľ": 35561, "appe": 46408, "raid": 4531, "Ġheroin": 35551, "Ġtogether": 1214, "cuts": 26158, "ĠfÃ¥r": 14865, "½": 121, "Ġestran": 49461, "Ü": 152, "Ġwidespread": 22679, "IB": 39081, "ØŁ": 22807, "Ġimmunity": 22701, "Ġvengeance": 43818, "Ġqua": 24159, "Ġgad": 21318, "çĶ¢": 33299, "ished": 4729, "Ġë°ĽìķĦ": 41561, "éĹľ": 14899, "cked": 44118, "Ġtreadmill": 46374, "kov": 33516, "ĠWhy": 1545, "ĠunterstÃ¼tzen": 43081, "ĠÐ¼Ð¾": 9971, "ĠWohn": 22741, "ilated": 45678, "ĠHarvey": 28796, "Ġmocking": 49792, "ĠarkadaÅŁ": 19153, "Ġwithhold": 48867, "Ġê°Ļ": 4385, "ĠOnly": 5686, "ĠValentine": 24359, "ĠDogs": 35504, "Ġê°ĻìĿĢ": 10005, "Ġintegrate": 13365, "Ġ1943": 40402, "Ġrequis": 49878, "Ġrefr": 13334, "<|15.40|>": 51134, "ĠSundays": 44857, "Ġtraum": 16790, "ĠÐ³Ð¾ÑĤÐ¾Ð²": 17137, "iances": 21518, "Ġpunishment": 14133, "Ġmorph": 25778, "fashioned": 37998, "Ġindicate": 13330, "Ġsure": 988, "sterreich": 34111, "Ġkeh": 39616, "Ġconseguir": 21229, "Ġjeszcze": 14168, "Ð¾ÑģÑĤÐ¾": 6378, "actions": 12299, "Ġìī¬": 37687, "irts": 9899, "Ġpoco": 10639, "Ġ!!": 15138, "Ġelectrodes": 47824, "ĠBen": 3964, "Ġíļ": 14794, "9": 24, "Ġdecipher": 49859, "ìľ¼ë¡ľ": 4130, "cito": 32030, "Ġ00": 7143, "arf": 30224, "Ġexile": 37984, "ikt": 9874, "EM": 6683, "ĠìĹŃ": 19427, "ÙĪØ¨": 37746, "ä¸ĢçĽ´": 34448, "æĬ½": 46022, "Ġgoverned": 35529, "Ã¢ncia": 25677, "ĠGon": 47403, "Ġdiarr": 37565, "cheerful": 45685, "íĸĪ": 7077, "Ġsarc": 36836, "rite": 35002, "Ġdiscs": 37525, "ulating": 12162, "ies": 530, "ĠSU": 9872, "ĠJones": 10512, "oulder": 28792, "ĠGimme": 48047, "Ġrainy": 27181, "Ġaccompany": 21627, "ĠBU": 31142, "Ġcreo": 14336, "ÑĢÐ¾Ð½": 23753, "¯¼": 9609, "ĠTucker": 35581, "Oh": 3756, "Ġunsure": 32486, "orge": 4685, "Ġextension": 10320, "ĠÐ²ÑĢÐµÐ¼Ñı": 12039, "Ġtemporary": 13413, "Ġhobby": 18240, "ĠImma": 50089, "ĠenseÃ±": 31275, "Ø±ÙĪ": 32887, "key": 4119, "Ġfamil": 4085, "ĠWindows": 8591, "ç¦": 18614, "á»Ļc": 34259, "ĠÙģÙĬ": 8978, "Ġeas": 1195, "eed": 5033, "Ġjamais": 14540, "ĠList": 17668, "Ġëĭ¹ìĭł": 45594, "Ġpodob": 43024, "ĠÐ²ÑĭÐ¿Ð¾Ð»": 34771, "Ġguideline": 41653, "à¹ģà¸¥": 22214, "ÒĽ": 49964, "Ġprodu": 1082, "ĠRin": 33170, "Ġproprietary": 38992, "ĠduÅ¼": 21783, "Ð¸Ð»Ð¾": 22201, "Ġtam": 7677, "Ġcrochets": 27115, "celand": 27673, "Ġcommunicating": 17559, "Ġcauses": 7700, "Ġfists": 49384, "Ġãģ¾": 20979, "ĠBaÅŁ": 28942, "ĠBIG": 39761, "ĠRogers": 29877, "ĠÎ": 1158, "utz": 12950, "Ġsettings": 6257, "Ġcurves": 19490, "FBE": 26468, "Ġhorizontal": 12750, "ì¹ĺëĬĶ": 47255, "Ġtransferred": 15809, "Ġevacuate": 48570, "DP": 11373, "Ð¸ÑĤÐµÐ»Ñı": 36491, "Ġsoaked": 27368, "ĠìĦ¸ë": 32143, "ãĤĪãĤįãģĹãģı": 37457, "Ð°Ð½Ð¸ÐµÐ¼": 32861, "Ġenormous": 11322, "Ġtheater": 10612, "udos": 35063, "BB": 30366, "imming": 40471, "ĠZu": 23164, "ĠmÃ¬nh": 14526, "Ġsheriff": 37103, "Ã¶rper": 25533, "Ġbubb": 13045, "uding": 33703, "Ġpasa": 20260, "otz": 18530, "Ġmiserable": 22321, "Ġespecialmente": 41546, "ĠCanvas": 25725, "Ġwhole": 1379, "Ġusing": 1228, "Y": 56, "Ľ": 249, "ç¬¬ä¸ĢåĢĭ": 40760, "ĠGhost": 16323, "Ġcros": 28108, "Sta": 43546, "ãģĮ": 5142, "ĠBOB": 43765, "<|1.00|>": 50414, "Ġessay": 16238, "Ġent": 948, "Ġensl": 30434, "ĠPride": 30319, "Ġpolls": 24264, "78": 30693, "kung": 40100, "Ġg": 290, "Ġhorsepower": 25250, "bbe": 39042, "Ġstrum": 47338, "Ġspell": 9827, "Ġsoak": 22769, "fficient": 7816, "ĠVog": 46359, "Ġfollowed": 6263, "Ġcolleges": 15272, "×Ľ": 7460, "cess": 780, "Ġexam": 1139, "ĠvÃ¡rias": 30235, "ç¨±": 49606, "endi": 13021, "leans": 24008, "nelle": 37365, "Ġdiscomfort": 28552, "ĠACC": 42251, "Ġì¶": 7458, "Ġbackyard": 20036, "isson": 30472, "!ãĢį": 28534, "ĠÐ½Ð¾Ð²ÑĭÐ¹": 38121, "ĠSure": 4894, "ĠGH": 40690, "ĠÐ½Ð°ÑģÑĤ": 35397, "Ġwrong": 2085, "Ġbest": 1151, "bral": 32728, "World": 37881, "Ġcondition": 4188, "éĢĻ": 2664, "Ġlash": 35275, "Ġì¢ĭëĭ¤": 44891, "à¤": 3941, "Ġadvertisement": 31370, "ÑıÐ´": 12825, "Ġundergraduate": 19113, "Ġdiapers": 48496, "ĠKivolowitz": 27507, "Ġweeds": 26370, "Ġplein": 21088, "ĠGU": 17917, "Judge": 46717, "ĠÐŀÐº": 48984, "ĠÐ¿Ð¾Ð»ÑĥÑĩÐ¸Ð»Ð¾ÑģÑĮ": 44405, "ĠÐ¿Ð°Ð¿": 39322, "Ġacadem": 19267, "Ġsau": 17828, "Ġfale": 26772, "Ġdepths": 28439, "Ġgl": 1563, "å½¢": 30900, "Ġrefreshed": 46330, "grÃ©": 36341, "Ġruined": 17013, "Ġdurante": 14427, "yond": 4063, "Ġcinematic": 32250, "ĠÑįÐºÑĢÐ°Ð½": 41643, "à¯ĭ": 18169, "Ð¸ÑģÐ»": 47105, "Ġpes": 9262, "ahren": 7079, "ĠUnlike": 17657, "ĠAnnouncer": 36640, "<|6.70|>": 50699, "ĠWu": 17287, "ĠÐ¿ÑĢÐ¾ÑĨ": 20640, "Ġsurrend": 36862, "Ġver": 1306, "Ġslots": 24266, "åİ²å®³": 20939, "Ġdefend": 8602, "ĠJed": 27076, "cych": 31306, "ĠRudolph": 47292, "ĠMona": 43731, "Ġgewesen": 27653, "lier": 2753, "Ġimpres": 35672, "ciones": 23469, "Ġprecautions": 34684, "ä»½": 36266, "Pad": 50112, "Ġinfrared": 30361, "Ġhidden": 7633, "ĠEisen": 35619, "Ð¸ÑģÑĤ": 9330, "Î»Î¬": 30717, "ĠBagh": 45487, "¤í": 4644, "Ġaudiobook": 40031, "70": 5867, "Ġëĸłë": 48158, "Ġexpenditure": 40377, "Ġtoxicity": 45866, "Ġweirdest": 44807, "ĠëĶ±": 16681, "ambling": 19391, "party": 23409, "Ġbrilliant": 10248, "Ġmarrow": 47739, "ĠÑįÑĤÐ¸Ð¼": 23094, "Ġferry": 32967, "leased": 41087, "Ġresponsibilities": 16190, "Ġunable": 11299, "Ġhighlighter": 40455, "ĠGermany": 7244, "Ġwing": 11162, "ĠÑģÑĤÐ°ÑĤÑĮ": 36415, "Ð°ÑģÑĮ": 10285, "Ġrepar": 33291, "è¿ĻéĩĮ": 35102, "warm": 49240, "Spe": 19588, "ĠNik": 13969, "Ġmica": 32483, "Ġwalls": 7920, "Ġaffinity": 39703, "ĠmÃ¶chte": 14570, "Ġimprisoned": 35332, "LA": 11435, "Mania": 45637, "Ġfinishing": 12693, "uce": 4176, "çĤºä»Ģéº¼": 18987, "otherap": 20194, "wave": 35461, "AUDIO": 29937, "ĠÐ·Ð°Ð¹": 40133, "<|ml|>": 50296, "actic": 19892, "Ġoptimism": 31074, "Ġantis": 44474, "Ġbelievers": 23125, "Ġdisabilities": 13367, "uggling": 29921, "ĠGracias": 26909, "Ġepo": 30992, "Ġannex": 41012, "rators": 34886, "ĠDIE": 32188, "Ġpike": 36242, "ĠForum": 29704, "Ġagrees": 26383, "Ġdevice": 4302, "Ġett": 5431, "noon": 6376, "yba": 28375, "SQL": 39934, "Ġeating": 3936, "Ġìĺ¤ë": 10258, "ĠÐ¼Ð°ÑĢ": 31609, "<|7.44|>": 50736, "alth": 1302, "Ġlost": 2731, "Ġcam": 1945, "ĠAudrey": 31808, "<|13.16|>": 51022, "aimer": 43378, "Ġexca": 24933, "Ġmenu": 6510, "ynn": 48959, "Ġinterpreting": 37395, "Ġcolleg": 13300, "<|16.16|>": 51172, "ĠContinuing": 47585, "Ġsurely": 11468, "ued": 5827, "Ġ32": 8858, "Ġzap": 14223, "atamente": 25354, "ĠYJ": 49535, "vre": 34869, "Ġslips": 44690, "airs": 4094, "uras": 12907, "essen": 12431, "ĠRoberts": 20919, "âĢ¦.": 14921, "Ġtrivia": 48770, "Ġir": 3418, "lively": 37553, "ĠBRIAN": 31434, "bourne": 24905, "ĠVirginia": 10956, "ĠNe": 1734, "Æ": 130, "Ġtablespoon": 22398, "Ġinability": 33162, "Ġceremonies": 36176, "long": 13025, "ĠHet": 12045, "ĠìĦľ": 17397, "leri": 11478, "wohl": 33849, "ours": 5067, "Ġlied": 20101, "ÃŃtulo": 30389, "ĠShiva": 34729, "hguru": 37014, "Ġpunk": 25188, "Ġwrestler": 47557, "Ġeins": 21889, "ĠStars": 20957, "Ð³Ð¾ÑĤÐ¾Ð²": 25965, "Ġwsp": 17757, "Ġcom": 395, "Ã©ta": 17902, "ĠOrganization": 23979, "Ł¼": 15375, "ĠAust": 4126, "ieg": 20408, "ĠEll": 8353, "Ġhina": 41844, "ĠBJ": 37830, "gart": 49330, "ĠAtÃ©": 31793, "Ġevol": 7117, "Ġfitness": 15303, "Ġgrappling": 50086, "æĭľæĭľ": 35105, "Ġresigned": 41180, "Ġqualifying": 41793, "ĠÙĥØ§ÙĨ": 25961, "ĠìĹ°": 11839, "Ġcatal": 13192, "Ġsupper": 44185, "OTHER": 48467, "Ġtake": 747, ",-": 44013, "ĠpÃºblica": 38905, "ĠDD": 30778, "Ġrisky": 21137, "ĠBarb": 14876, "ĠHenri": 45365, "pection": 19997, "Ġtren": 23136, "Ġstap": 27284, "Ġcanceled": 24839, "Ġpsych": 4681, "ĠTom": 5041, "ĠfÃ¥tt": 43651, "Ġpearls": 35111, "Ġacquire": 20001, "ĠDong": 13609, "Ð°ÑĨÐ¸Ñİ": 28254, "Ð»Ð¸Ð·": 41610, "Ġsmashing": 43316, "ietnam": 10507, "Ġblame": 10127, "Ġperse": 20607, "ĠVia": 49232, "Ġoraz": 28905, "Ġabuses": 47681, "Ġort": 23564, "Ġcara": 10962, "Ġcapacit": 38961, "Ġê³łìĸĳ": 48105, "Ġdesarrollo": 38295, "Ġzak": 23810, "iau": 45274, "kre": 27885, "Ġplac": 20831, "Ġstem": 12312, "ĠWir": 4347, "Ġglacier": 48021, "Ġìļ°": 14995, "ĠAmerika": 42345, "Ġtrust": 3361, "Ġgadgets": 37635, "Ġmusicians": 16916, "ĠFleisch": 44911, "Ġminded": 36707, "kok": 33754, "wheel": 22830, "oine": 44454, "arr": 2284, "Ġpack": 2844, "ĠÑģÑĢÐ°Ð·Ñĥ": 22014, "ç¹": 23141, "Ġìĭ": 2811, "ĠMillionen": 26096, "tuber": 34645, "Ġëĳ": 8108, "Ġtaxation": 47072, "CO": 12322, "ĠFIL": 48563, "Be": 6524, "At": 18684, "ìŀĲë¥¼": 38134, "Ġboil": 13329, "ĠÐ¿Ð¾ÑıÐ²": 20011, "Ġsober": 26212, "á»Ļ": 8047, "ĠAntonio": 22527, "Ġobservations": 18163, "<|12.80|>": 51004, "ĠEnergy": 14939, "Ġrequests": 12475, "Ġwar": 1516, "dz": 28168, "fulness": 26872, "åİ»": 6734, "pak": 45944, "ĠSAR": 18748, "Ð¸Ð¼Ð¾": 14365, "Ġties": 14039, "Ġjuice": 8544, "åħī": 20690, "ĠpowiedzieÄĩ": 27886, "ĠChun": 32527, "okrat": 19795, "Ġmanages": 22489, "Ġheps": 38341, "defense": 49268, "Ġfuerte": 37129, "Ġë¹Ħë": 24241, "Ġbrightness": 21367, "Ã¨s": 3645, "ĠÛģÛĴ": 23905, "ĠÑĢÐ°Ð±Ð¾ÑĤÑĥ": 39382, "Ġ×ľ×ķ": 47669, "inely": 33592, "geht": 46227, "ookie": 39611, "Ġediyor": 30761, "ĠEthereum": 26894, "éģķãģĨ": 49806, "<|lb|>": 50345, "Ġdeparted": 47018, "Rem": 39170, "<|4.12|>": 50570, "å°ıæĻĤ": 46997, "Ġdestructive": 26960, "ners": 2999, "Ġbeam": 14269, "kur": 33503, "ĠëłĪ": 28156, "Ġdumb": 10316, "View": 30203, "Ġray": 18592, "Ġautonom": 18203, "Ġbrewing": 39019, "Ġsubset": 25993, "Ġmejorar": 48858, "Ġdefining": 17827, "Ġremem": 20648, "Ġrate": 3314, "fil": 19776, "ĠJorge": 36875, "ciÄŁim": 47726, "Or": 21520, "Ġtease": 30444, "ĠPastor": 34289, "Power": 46057, "ĠoluÅŁ": 49849, "akte": 48036, "ĠíĻķì§Ħ": 45061, "Ġtools": 3873, "Ġhen": 22253, "ĠÑģÑĤÐ°Ð½Ð¾Ð²Ð¸ÑĤÑģÑı": 44799, "Ġmauvais": 50018, "ĠLil": 23454, "Ġimpeachment": 33663, "dest": 23748, "Ġdisorder": 13399, "Ġtrails": 23024, "lingen": 39900, "Ġutilize": 16117, "Ġrelies": 30910, "Ġmortality": 23330, "Ġimm": 3397, "oxide": 46053, "Ġrival": 16286, "fill": 31072, "ĠDemocrats": 12217, "ĠpersÃ¶nlich": 42699, "ires": 3145, "isf": 4937, "iggle": 19694, "text": 25111, "ĠSmash": 25768, "ĠGlass": 23752, "ĠBlood": 17428, "voice": 42268, "å®ĮäºĨ": 41665, "Ġaddicted": 24629, "Ġmicros": 15547, "Ġvirtue": 20816, "Ġ135": 42652, "ĠFill": 25315, "ĠÑįÐ½": 31037, "enga": 31494, "tu": 9179, "Ġfurn": 11433, "order": 4687, "olic": 7940, "Ñĳ": 2882, "Ġadher": 30106, "iende": 45816, "anÄ±z": 36079, "ĠGesetz": 20685, "ĠBri": 32851, "Ġendorsed": 50094, "Ġunseren": 25305, "³´ë©´": 47601, "Ġridic": 9276, "eted": 10993, "Õ¡": 19091, "quest": 20343, "Ġolika": 26025, "abel": 18657, "Ġmayonnaise": 34406, "Ġsuccessor": 31864, "ilation": 16067, "Ġresid": 13141, "Ġrepertoire": 49604, "ĠDamon": 47197, "nga": 23165, "ĠEcuador": 41558, "Ġediyorum": 39203, "Ġcosting": 37917, "ĠXiao": 13134, "×ľ×Ļ×Ŀ": 44668, "Æ°": 4228, "Ġbackground": 3678, "ĠWaters": 46743, "Ġnouvelles": 37172, "Ġcurrently": 4362, "ĠClerk": 45175, "ĠCeline": 42704, "Ġrehabilitation": 33700, "iada": 39018, "ìħ¨ìĸ´ìļĶ": 40095, "niÄĻ": 35938, "ĠShort": 16881, "Ġterribly": 22903, "Ġpick": 1888, "Ġdisciples": 17209, "<|3.16|>": 50522, "Ġconquest": 43241, "ablo": 21991, "mor": 40220, "Ġmusste": 34497, "omas": 7092, "gin": 1494, "ĦëıĦ": 24798, "Ġrounds": 13757, "Ġpayments": 14348, "ĠÐ½Ð°Ð¼": 11401, "Ġrecount": 43997, "Ġ2010": 9657, "Ġliquor": 29162, "ê·¸ëłĩ": 40650, "Ð¾ÐºÐ¾Ð¹": 29667, "ĠChamp": 9863, "ÅĽli": 15350, "adaÅŁ": 16363, "ĠMiles": 27384, "Ġaleg": 44491, "ennen": 16043, "åķ¦": 9724, "unal": 33304, "Ġorch": 34850, "ĠHyung": 36917, "uff": 1245, "ĠÑĩÐ°ÑģÑĤÐ¾": 26549, "Ġhike": 23282, "°ľ": 17248, "á»Ĺi": 49572, "ĠGeoff": 26119, "ĠSolid": 26664, "ĠKanye": 37654, "ðĿ": 10933, "apan": 3140, "Ġcritical": 4924, "Ġvino": 48841, "Ġrituals": 29082, "unde": 13271, "Ġplanning": 5038, "Ġfaktiskt": 35988, "miÅŁ": 10510, "Ġsuspicious": 17931, "ĠLikewise": 30269, "kÅĤad": 15317, "Ġgebru": 33857, "Ġpetty": 39334, "Ġactive": 4967, "Ġscissors": 16066, "Ġflavours": 49450, "atile": 17445, "Ġentit": 14789, "Ġachter": 35557, "ster": 3120, "ording": 3357, "ãĤĵãģª": 16548, "Ġremarkably": 37381, "<|4.90|>": 50609, "<|9.00|>": 50814, "<|29.04|>": 51816, "Ġdistur": 10242, "Ġpumpkins": 49053, "ĠkhÃ´ng": 11415, "Ġdoorway": 41992, "Ġample": 42857, "TI": 5422, "Ġaggreg": 16743, "Ġcompt": 15660, "adan": 11338, "Ġaccents": 35012, "Ġpaw": 38959, "Ġcrank": 21263, "Ġenorme": 33648, "ĠPart": 4100, "alah": 16434, "Ġcentrif": 44828, "Ġdec": 979, "Ð°Ð»ÑĮÐ½ÑĭÑħ": 30834, "ĠÎ·": 18231, "Ġsailors": 42036, "ĠMaryland": 19939, "han": 3451, "ëĤ": 8580, "ĠPoly": 18553, "<|5.48|>": 50638, "LI": 48718, "Ġê¹Į": 49124, "<|17.92|>": 51260, "ĠìĻĢ": 12500, "Ġreminders": 43458, "lab": 44990, "ĠMÃªme": 42027, "ĠMohammed": 41910, "Ġwalking": 4494, "Ġantenna": 24573, "itting": 2414, "ati": 6908, "éĩĳ": 19117, "ĠNaw": 40315, "Ġdenen": 19998, "Save": 46899, "ĠJU": 38852, "Ġë§Įëĵł": 40628, "Ġspeed": 3073, "ĠErde": 43720, "ãħĭ": 5333, "igation": 21494, "Ã§on": 17134, "Ġicing": 30086, "Ġuser": 4195, "ä½łè¦ģ": 32085, "Ġìĺ¤ëĬĺ": 8880, "à®¤": 4742, "exc": 27855, "ĠTitle": 26768, "ased": 1937, "\";": 37707, "Ġdiscern": 30868, "Ġkor": 14784, "lÄ±k": 22359, "emitism": 49208, "ĠCitizens": 44120, "cially": 1909, "<|10.82|>": 50905, "ìłľë": 33893, "amin": 7428, "!\"": 2963, "Ġanarch": 41957, "Ġpipelines": 40168, "Ġklim": 36816, "Ġfantas": 31255, "Ġloc": 1628, "Ġnuanced": 45115, "Ġbrow": 19299, "Ġsmells": 10036, "acon": 18181, "Ġinterpreter": 34132, "Ġvai": 4405, "Ġspeak": 1710, "Ġwith": 365, "Ray": 35737, "Ġelas": 23003, "ager": 3557, "Ġqualitative": 31312, "ĠWebs": 45347, "çµ": 6948, "Ġpanda": 46685, "ĠBro": 5425, "Ġtones": 19995, "è¨Ģ": 12009, "ĠëĤ´ìĿ¼": 42831, "ĠBrent": 31665, "Ġlige": 35450, "isters": 7423, "ĠIm": 4331, "à¸¹à¹Ī": 37805, "ÑĢÐ¾Ð´Ðµ": 35381, "ĠTY": 36187, "ĠAven": 13573, "Ġenca": 28934, "ĠUndert": 48649, "ĠÐ½Ð¸ÐºÐ°Ðº": 23127, "Ġprotagonist": 24506, "Ġstraightforward": 15325, "Ġlyn": 46137, "Ġwashed": 16300, "Ã§Ã£o": 2917, "Ð¸ÐºÑĥ": 35353, "Ð°Ð½Ð¸Ñĩ": 44819, "Ġdiligent": 50251, "Ġyer": 12954, "ìĥģìĿĦ": 46032, "Ġreversed": 30563, "Ġcommend": 35987, "ĠLightning": 28848, "trans": 24999, "avi": 18442, "usst": 26340, "Ġrestart": 21022, "Ġworkers": 5600, "De": 11089, "ernen": 25657, "Ġìĸ": 2417, "Ġrouge": 40605, "Ġintroduces": 31472, "Ġattaches": 49404, "ĠEaster": 9403, "show": 34436, "Ġconcentrated": 21321, "liamo": 49926, "<|21.42|>": 51435, "ĠWrap": 41291, "Ġbicycles": 47913, "ãģłãģĳ": 36215, "Ġ:": 1982, "Ġvir": 4107, "Star": 24659, "ĠRo": 3101, "Ġwig": 24094, "Ġconfidence": 6687, "çĽ¸": 15106, "Ġorigins": 22721, "ìļ´ëį°": 28981, "Ġtava": 26777, "Ġjeopard": 44295, "ÃŃo": 20492, "ĠpelÃŃcul": 31810, "ĠÑĥÐºÑĢÐ°ÑĹÐ½": 49454, "Ð¸Ð²Ð°ÐµÑĤÑģÑı": 39864, "sec": 8159, "Ġmultim": 32972, "Ð¾Ð±Ñī": 32977, "ĠUr": 9533, "Ġalready": 1217, "ĠÄĳá»Ļ": 29075, "ĠCelebr": 30413, "Ġpept": 41781, "Ġreplaces": 46734, "Ġmemories": 8495, "Ġgran": 9370, "ĠOkay": 1033, "Ġiceberg": 38880, "Ġvuelta": 41542, "Ġmuseums": 23248, "itt": 593, "ĠDanielle": 21182, "Ġhours": 2496, "Ġstating": 26688, "ision": 1991, "Ġfehlt": 47994, "Ġcoupe": 45136, "ĠCheng": 24363, "Ġstartup": 18578, "Ġdistricts": 16815, "ujourd": 32202, "amental": 44538, "ĠLOT": 42930, "anu": 48136, "ĠRosen": 33630, "ĠÏĢÎ¿Î»": 30403, "ikka": 31688, "<|7.32|>": 50730, "sek": 26141, "Ġhostile": 27312, "Ġprocesso": 27939, "ĠÐ½ÐµÐ¿": 17005, "ciendo": 16830, "Ġamazing": 2243, "hair": 46135, "<|da|>": 50285, "Ġminer": 18746, "ĠnumÃ©ro": 49525, "nicos": 48674, "income": 30673, "Ġdescob": 31700, "Ġproprio": 28203, "Ġozone": 46769, "ĠStunde": 42781, "ì°½": 36935, "jis": 40371, "ĠPocket": 44594, "Ġnature": 3687, "Ġlipstick": 22543, "ĠÐ·Ð´Ð¾ÑĢÐ¾Ð²": 29638, "Ġignition": 37031, "Ġwerden": 4604, "stellen": 17538, "Ġbrat": 47869, "Ġgouvern": 24894, "dÄ±r": 23091, "ĠPhiladelphia": 21205, "AUL": 22624, "Ġ73": 28387, "ĠInt": 5681, "ĠMosc": 17213, "pound": 44806, "ĠMedicaid": 24779, "ĠSanta": 9933, "Ġstrangely": 39851, "Ġprosec": 22382, "Yes": 6054, "idente": 40114, "ĠAtlanta": 20225, "Moon": 46015, "Ġpai": 32227, "Ġapresent": 36181, "ande": 11123, "odore": 34239, "ìķł": 28408, "ĠZo": 10337, "Ġhoney": 8330, "ĠsÄ±": 30201, "Ġ×ķ×Ĳ×": 40298, "Home": 47974, "Ġturb": 18252, "ĠMittel": 35079, "ĠDass": 22306, "Ġzombie": 20310, "acements": 41140, "pus": 31624, "<|21.44|>": 51436, "Ġculturally": 28879, "Ġcrackers": 41407, "ered": 4073, "ĠNavy": 15659, "ĠSaud": 15717, "Ġorganisation": 18641, "Ġherzlich": 45919, "ĠNove": 7539, "Ġentreprises": 41657, "Ġteil": 33200, "Ġairlines": 37147, "host": 6037, "Ġdriveway": 38276, "ĠÑģÐ¾": 7425, "pler": 22732, "Ġendanger": 31975, "ĠCounty": 6658, "ĠHas": 8646, "Ġqueens": 42017, "<|18.76|>": 51302, "ones": 2213, "Ĳëį°": 43429, "ĠJie": 41731, "Ġrainfall": 29382, "ìŀĪëĬĶ": 33670, "åĳĬè¨´": 31080, "Ġwaterfall": 27848, "ĠÑ": 1015, "ĠÐ¸Ñģ": 12410, "Ġtreasury": 47213, "Ġdevelopers": 8849, "ĠANNOUNCER": 35629, "ĠelÃ©t": 36920, "Ġwas": 390, "Ġassure": 20968, "Ġtacos": 34776, "ÑģÑĤÐ°Ð²Ð»Ñı": 17560, "<|4.88|>": 50608, "ĠDutch": 15719, "×Ļ×ļ": 25988, "Ġvertex": 28162, "Ġsuivre": 43404, "ication": 8758, "Ġfirm": 6174, "ĠÐºÐ¾Ñģ": 31839, "Ġft": 31842, "Ġpermet": 20696, "åł±å°İ": 36235, "uch": 625, "Ġë³´ìĦ¸ìļĶ": 49790, "Ġcalmly": 39740, "=\"#": 34106, "Ġsinging": 6726, "ĠSHE": 44179, "ĠYok": 18480, "quoi": 14461, "compl": 43856, "á»ĭch": 46829, "ĠSetting": 21063, "Ġíķľ": 4815, "ÑĨÑĥ": 22542, "ĠDiscover": 40386, "ups": 7528, "Ð£": 11887, "holders": 12916, "!âĢĭ": 15267, "ĠZeit": 9394, "Ġbegr": 38972, "Ġanalog": 16660, "ĠHack": 35170, "<|20.64|>": 51396, "ĠÑģÐ¾Ð±ÑģÑĤÐ²ÐµÐ½Ð½Ð¾": 49863, "ropol": 24832, "Ð¿Ð¾Ð»Ð½Ðµ": 43968, "Ġcommanded": 34359, "Ġterrorism": 23917, "ĠToday": 2692, "ĠdziÄĻki": 45003, "Ġnenhum": 32584, "Ġêµ¬ë": 17386, "gentle": 17458, "Ġquand": 6932, "ĠdiÄŁer": 44525, "Ġexhibition": 14414, "ĠSha": 14944, "Sarah": 48878, "ĠtambiÃ©n": 6407, "May": 19533, "è¡¨ç¤º": 40053, "Ġåľ¨": 37286, "rÃ¤ge": 40917, "Ġdelayed": 20268, "lime": 40941, "Ġsquares": 19368, "ĠAbout": 7769, "Ġembraced": 28673, "<|tg|>": 50331, "ĠHond": 45260, "<|5.46|>": 50637, "æ¼Ķ": 31382, "<|17.16|>": 51222, "Ġdisclosure": 30392, "IND": 18323, ".\\": 36350, "hus": 10846, "comings": 49886, "Ġconcentrations": 33512, "Ġide": 1153, "Ã¼rlich": 7963, "Ġtransp": 7132, "Ġvegetables": 9320, "Ġjudge": 6995, "ĠÐ·Ð°ÑıÐ²": 38158, "Ġsixt": 13074, "ĠdÃ©cidÃ©": 43206, "Ġshipment": 49991, "Ġfits": 9001, "Ġthesis": 22288, "Ġnett": 42084, "Ġev": 1073, "Ġpendulum": 44103, "Ġnewspaper": 13669, "çĽ´æİ¥": 43297, "ĠÐ±ÐµÐ·Ð¾Ð¿Ð°Ñģ": 45015, "ĠZombie": 48952, "affles": 40349, "Ġcud": 40287, "Ġblessed": 12351, "<|13.04|>": 51016, "ĠCommonwealth": 35295, "ÐµÐ½Ð½Ð¾Ð³Ð¾": 44620, "ĠFre": 6142, "Ġë§Ŀ": 46490, "zuge": 46285, "Ġíģ´ë": 30464, "ĠOmega": 27645, "ĠCommerce": 34493, "ĠKe": 3189, "aking": 2456, "Ġnarration": 43299, "éĹ": 8259, "Ġpresentation": 5860, "á»Ľ": 27260, "Ġan": 364, "ĠPool": 46188, "ator": 1639, "Ġmutation": 27960, "Ġmelodies": 47085, "Ġruler": 19661, "Ġcab": 5487, "uko": 39476, "ĠìŀĪìĹĪ": 15972, "ĠHayÄ±r": 30102, "ìľ¼": 10307, "à¸±à¹Ī": 48849, "<|16.80|>": 51204, "Mus": 22088, "Ġlibrary": 6405, "<|bs|>": 50315, "ĠUpon": 25184, "Ġfalei": 29800, "ĠPois": 48274, "page": 15161, "Ġseasoning": 23421, "è¡Ģ": 44110, "ĠAthlet": 34318, "ì¼": 12397, "Ġcade": 37571, "ÑĸÐ´": 9554, "Ġìķŀ": 13727, "ĠADA": 39354, "When": 11645, "came": 3005, "aime": 24461, "EP": 8929, "ĠZum": 23906, "ĠQian": 32461, "ĠÑĤÐ¾Ð»": 36038, "Ġconvection": 49080, "charge": 13604, "Ġfent": 39395, "ĠArabs": 39770, "dim": 13595, "Ġglor": 26623, "Ġdeutlich": 24344, "Ġcosmetic": 35828, "Ġskinny": 25193, "ĠâĪĴ": 48554, "ĠTA": 20094, "áº¿n": 16240, "Ġencaps": 38745, "ĠZhi": 43835, "Ġchamado": 43475, "Ġtapi": 23901, "ĠyapmÄ±ÅŁ": 47527, "iero": 12030, "ellschaft": 22055, "Ġmie": 12597, "ĠColomb": 18514, "Ġê¹Ģ": 17376, "ecd": 26565, "Ġsingers": 24275, "oris": 46198, "Ġyani": 11654, "ì¶Ķ": 25023, "ĠCand": 20466, "Ġornament": 35689, "Ġactivates": 43869, "Ġkittens": 47363, "Ġdiye": 12968, "<|15.70|>": 51149, "iamente": 16855, "ä¼": 7384, "Ġlogar": 41473, "à¹ĥà¸Ĭ": 43880, "ä¸ľ": 38409, "Ġsty": 7952, "Ġrelied": 35463, "Ġcreatively": 43750, "ĠÐ¿Ð¾Ð»": 4692, "ĠBelo": 49244, "shaw": 49813, "æģŃ": 38954, "ĠCas": 16100, "uta": 12093, "Ġpatt": 49916, "ĠÏĥÏĦÎ·": 23502, "eff": 30774, "ĠExerc": 37502, "Ġprevention": 14630, "ĠÐ¾Ð±ÑıÐ·": 27945, "ĠMmmm": 42992, "Ġarticulated": 43322, "fin": 5194, "ĠÑĢÐ°Ð·Ð´ÐµÐ»": 45414, "thms": 42945, "Ġudah": 25231, "Ġgrin": 49179, "ĠHU": 26887, "rin": 12629, "Ġdang": 21892, "ìĿ´": 1129, "Ġlien": 32553, "Ġbubbles": 16295, "Ġceux": 21314, "Ġnavig": 7407, "ĠEric": 9336, "ĠÐ½Ð¾Ð¶": 46718, "Ġä¸Ģ": 26923, "ĠÐ¡Ð¾Ð²": 45680, "ements": 6400, "ĠMC": 8797, "ĠÐĶÐ°Ð¶Ðµ": 42900, "Ġerg": 26585, "ÖĤ": 38565, "Ġdevotion": 30671, "Ġuncom": 8585, "Ġnorth": 6830, "ob": 996, "ä¸ŃåĽ½": 38165, "Ġrasa": 41493, "Mike": 25519, "lymp": 9793, "ĠplutÃ´t": 20856, "ĠSind": 35405, "Ġinterrupting": 49455, "Ġheav": 3577, "ĠCanon": 27666, "Ġblocking": 17776, "Ġformations": 39652, "Ġinheritance": 32122, "hhh": 12614, "ctic": 15518, "ĠìķĦëĭĪê³ł": 32510, "Ġpathways": 22988, "ambled": 43390, "Ġscandal": 27922, "ĠDe": 1346, "ĠNaj": 31576, "gangen": 47152, "acies": 20330, "Ø±Ø¬": 47341, "fahren": 34394, "ĠAndy": 13285, "ĠrÃ³Å¼nych": 42602, "Ġtext": 2487, "Ġgoods": 10179, "ĠRisk": 45892, "aji": 29319, "Ġrelatable": 42355, "exhales": 47782, "Ġmajority": 6286, "Ġshr": 9884, "ĠRecomm": 49545, "Ġfundraising": 32643, "ãģ§ãģĻãģŃ": 14277, "hte": 23904, "gging": 10877, "Ġemails": 12524, "Ġsuitable": 12873, "ĠCaroline": 30245, "ĠEat": 14429, "ĠÅĵ": 48360, "ĠCreation": 42874, "Ġlights": 5811, "ĠDrum": 40320, "ãģĤãģĤ": 18430, "ĠwaÅ¼": 27777, "ĠÐ»Ð°Ð´Ð½Ð¾": 44107, "Ã¢ce": 27988, "Ġsano": 46942, "ĠMuy": 39586, "Ġjustement": 27807, "ĠCustom": 16649, "Ġextraordinary": 10581, "ĠCrisis": 42846, "Ġathlete": 18002, "zyÄĩ": 27150, "ç·´": 47027, "gang": 19619, "Ġglaube": 13756, "Ġsturdy": 31506, "Ġcradle": 48081, "Ġalte": 38973, "ĠJK": 35973, "Ġassigning": 49602, "Ġíķ": 1362, "ìĨį": 11194, "<|12.50|>": 50989, "arten": 11719, "kell": 43723, "lieÃŁen": 38665, "Ġresur": 16042, "Ġuit": 12528, "Nico": 35137, "ĠArmy": 9583, "ĠÐľÐ¸Ñħ": 50150, "Ġfriendly": 9208, "ë³": 10708, "Ġthankfully": 27352, "æĺ¨": 47404, "Ġíĺĳ": 46977, "Ġreturned": 8752, "ĠPA": 17718, "Ġarising": 44900, "Ġlay": 2360, "ppt": 42562, "ÑĸÐ¹": 16471, "ĠBe": 879, "ĠMarilyn": 48340, "Ġavete": 48201, "Ġloin": 25048, "ĠMerci": 19856, "ch": 339, "oriented": 27414, "crire": 39572, "Ø³Øª": 14851, "Ġgenauso": 37694, "Ġacademy": 25525, "Ã©lÃ©": 19559, "ĠCJ": 42285, "formed": 22892, "Ġslide": 4137, "Ġaudi": 27435, "bleep": 14639, "Ġhoodie": 41191, "ĠÐ²ÑĭÑģÐ¾Ðº": 35998, "Ġlessons": 8820, "Ġenc": 2058, "Ġsomeone": 1580, "54": 19563, "×ķ×ł×Ķ": 37978, "Ġprompts": 41095, "Ġved": 14267, "Ġbrutally": 48476, "Ġkolej": 23749, "Ġpermitted": 28658, "è§ī": 24447, "Ġcuarto": 48368, "Ð¾Ð¶Ñĥ": 45621, "Ġpharmacy": 30639, "ĠÐ¼Ð°Ð³Ð°Ð·": 39771, "Ġlogged": 27231, "Ang": 23156, "Ġvors": 48432, "ĠMcCarthy": 44085, "umber": 4182, "Ġ1991": 24097, "hesion": 38571, "Ġï·º": 41122, "ithmetic": 41179, "ãģªãĤĵãģĭ": 27646, "ific": 1089, "Ġstruck": 13159, "ĠnÃ©cessaire": 46396, "Ġacc": 1317, "Ġfounders": 25608, "Ġhind": 20138, "ĠBooks": 33843, "ĠNetwork": 12640, "Ġdecis": 18206, "ĠìĪĺê°Ģ": 27345, "Ġonions": 13146, "Ġpug": 47900, "Ġìĭľê°Ħ": 16648, "Ġreuse": 26225, "elcome": 29504, "ytes": 43673, "rock": 17799, "ĠFeuer": 39972, "ĠOracle": 25654, "Ġlevant": 30612, "ĠFact": 33375, "Ġinjections": 47178, "ronting": 45507, "any": 1325, "Vi": 41093, "Ġpouv": 29663, "Ġembod": 28935, "Ġranch": 22883, "zte": 45127, "ĠSettings": 27286, "quent": 28842, "ĠJUN": 45801, "ĠSiri": 33682, "Ġdispute": 25379, "her": 511, "ĠRu": 15702, "ĠÐ¾Ñģ": 8940, "ĠOui": 14005, "ĠBruno": 23046, "Ġmigrant": 38547, "ĠÑģÐ»Ð¾Ð¶Ð½Ð¾": 41016, "Ġmonkeys": 29534, "ĠStory": 14484, "Ġelementos": 35797, "æ©Ł": 17543, "Ġsomewhat": 8344, "Ġ71": 30942, "cil": 3208, "ĠGIR": 44027, "ĠIz": 30296, "Ġbedrooms": 39955, "rene": 32252, "ĠaixÃ²": 16312, "Ġpersonne": 17219, "can": 7035, "Ġlure": 32350, "è¾¦æ³ķ": 40072, "Ġtherapists": 36509, "Ġphysically": 9762, "<|24.90|>": 51609, "à¯į": 2133, "Ġpotentially": 7263, "acre": 27540, "éĿĴ": 37462, "Ġgenerously": 48983, "Ġteammate": 25467, "Ġ×Ķ×Ŀ": 44775, "Ġnouveau": 23326, "Ġwelding": 25393, "Ġress": 24689, "Ġbrunch": 49761, "Ġinteract": 4648, "Ġconstruction": 6435, "Sha": 23429, "ĠTR": 15176, "uss": 2023, "Ġnoir": 39359, "ĠManager": 13821, "Ġhunters": 29509, "Ġbrigade": 47501, "Ã¢t": 29190, "Ġscrews": 13050, "ulture": 8389, "Ġretired": 16776, "ibel": 44685, "attend": 49548, "ĠPhase": 24432, "ĠAnswer": 24545, "Ġgene": 12186, "ĠCorinthians": 34778, "Ġao": 8130, "ĠPa": 3426, "0": 15, "Ġjurisdiction": 27285, "Ġmodulus": 42287, "itchen": 5825, "ĠFP": 36655, "ĠNu": 13612, "Ġglasses": 10812, "ĠPsal": 26150, "walker": 38980, "Ġconclude": 16886, "Ġconsiders": 33095, "Ġengaged": 8237, "ĠÑĢÐ°Ð¹": 37590, "Ġtriang": 19335, "ÐµÑĢÐ²": 36441, "zeni": 42124, "Ġhalves": 38490, "osity": 20373, "Ġenriched": 48624, "ckt": 19951, "ãĥ": 1047, "Ġhine": 47551, "obile": 13632, "ĠJeÅ¼eli": 35090, "Ġwedge": 34530, "áº¥u": 44732, "oscope": 41659, "ĠLindsay": 35017, "Ġsurvive": 7867, "ĠMhm": 26272, "Ġdeadline": 20615, "ĠTop": 8840, "Ġenfor": 25495, "Ġabruptly": 49642, "Ġubiqu": 43868, "<|22.66|>": 51497, "Ġexperienced": 6751, "Ġturbulence": 48612, "é¨": 38168, "Ġvoice": 3177, "Ġdroite": 37321, "ĠÐ½Ð°Ð·Ð²": 27161, "ĠåĪĨ": 45903, "Ġsimilarly": 14138, "ĠEls": 33437, "ľëıĻ": 38667, "ceks": 26428, "Ġfranc": 30514, "ĠbehÃ¶": 26187, "Ġtide": 24662, "Ġtied": 9601, "Ġangel": 14250, "ĠTie": 36804, "zk": 30154, "ĠJoo": 35169, "<|1.38|>": 50433, "Ġmerchandise": 34485, "Ġdost": 20568, "Ġ36": 8652, "Ã¢": 3201, "Ġmagnific": 21623, "Ġzrobi": 24483, "Ġrappers": 45025, "ĠBron": 19544, "ographic": 12295, "é¡Ĩ": 43954, "ric": 1341, "Ġeconomic": 4836, "Ġseiner": 23114, "Ġforgetting": 25428, "ĠÎ¾": 33179, "anguard": 36259, "Ġviu": 28383, "Ġforeign": 5329, "900": 23943, "Ġ×¨": 12926, "Ġesper": 10045, "Ġunsuccess": 40501, "Ġinvestir": 49646, "Ġail": 48283, "<|25.54|>": 51641, "Ġehrlich": 40872, "Ġê°Ģìł¸": 36434, "ĠAlbert": 20812, "royable": 45976, "fend": 18676, "Ġdiffic": 2204, "²Ħ": 17910, "Ġpist": 12273, "Ġforgotten": 11832, "ĠbÃ¼tÃ¼n": 27977, "ĠCristo": 36524, "orton": 36184, "ĠpiÃ¹": 10589, "Ġfabric": 7253, "Ġicons": 23308, "Ð½ÑĥÑĤÑĮÑģÑı": 49826, "Ġsolids": 38536, "ayo": 48947, "<|27.76|>": 51752, "Bye": 32825, "Ġmorality": 29106, "Ġmomentum": 11244, "Ġcuk": 37485, "ura": 2991, "ĠÐºÐ°Ð½Ð°Ð»Ðµ": 47677, "SU": 20214, "Ð¾Ð·": 3434, "ĠYaz": 44962, "Ġceramic": 29996, "éĤ£åĢĭ": 20754, "è¿": 3316, "É": 133, "ĠÑĥÐ²Ð¸Ð´ÐµÑĤÑĮ": 46095, "Ġip": 28501, "antis": 37952, "ble": 638, "empt": 4543, "Ġnaval": 33050, "ĠCarroll": 48456, "Ġboosting": 43117, "Ġjard": 46153, "ĠUkrainian": 24682, "Ġ×ª": 13965, "Ġcough": 22777, "ĠWomen": 11065, "Ġzn": 15397, "Ð°ÑĢÐ¸Ñī": 43028, "id": 327, "ĠSpec": 20484, "Ġtailored": 34858, "----------------": 44100, "åķĬ": 4905, "ĠÐ½Ðµ": 1725, "Ġ13": 3705, "Ġconform": 18975, "ĠAngeles": 12292, "ouched": 36740, "ÑĥÐ±Ð»Ð¸": 37412, "ĠFÃ¶r": 20665, "Ġenorm": 8473, "åĳ³": 17268, "Ġwalks": 12896, "Ġneeded": 2978, "Ð¸Ð¸": 7347, "ĠSafari": 43820, "ì¡´": 46808, "Ġìłķ": 4980, "Ġbackward": 23897, "ĠÐĿÐ°Ð¼": 46147, "ĠArms": 42561, "achine": 34922, "Ġposer": 39355, "ĠLake": 10582, "Ġclouds": 12193, "/": 14, "azon": 6317, "Ġpitches": 43110, "Ġdiscount": 11635, "Ġinequalities": 41874, "nez": 28018, "ĠMerry": 26572, "Ġimmune": 11992, "ĠTaco": 37992, "Ġbeh": 1540, "Ġwanted": 1415, "ĠÐ²Ð·ÑıÑĤÑĮ": 44101, "Ġconducting": 21749, "Ġtrolls": 47749, "xico": 24829, "Ġsegue": 33850, "written": 26859, "Ġstern": 38312, "ophone": 32561, "Ġrage": 20133, "Ġtrips": 16051, "å¸Į": 26496, "Ġlifted": 17854, "Ġmalware": 40747, "Ġsacar": 43823, "ĠDance": 16114, "ĠMarket": 15596, "ĠIncluding": 27137, "Ġpermett": 21540, "Ġretali": 37924, "Ġfarewell": 35442, "ĠdÃ©p": 27998, "ĠNej": 33840, "ĠÑħÐ¾ÑĤÑĮ": 39605, "Ġempresa": 22682, "£¼": 11372, "ushing": 5371, "ĠgroÃŁe": 19691, "Ġolives": 46746, "Ġutility": 14877, "ĠJavaScript": 15778, "Ġtiss": 10080, "ì": 168, "usive": 23053, "Ġwatering": 33028, "ĠìĿ´ìł": 41049, "Ġdun": 10234, "Ġwerd": 37258, "iÄĻcy": 47303, "ìķ¼ì§Ģ": 38623, "annÃ©e": 36533, "ĠìĹĦì²Ń": 18070, "fern": 28958, "<|1.12|>": 50420, "Ġprosperous": 38928, "Ġportfolio": 12583, "Ġirgendwas": 47090, "Ġwhilst": 18534, "ĠSpecifically": 26058, "Ġlaten": 36335, "Ð°ÐºÐ¸": 48877, "Ġëªĩ": 23628, "ê°ķ": 24888, "Ġcrosses": 28467, "icated": 3587, "ec": 3045, "Ġ#": 3536, "Ġprice": 3218, "Ġridiculously": 41358, "ji": 4013, "Ġsteer": 30814, "<|21.14|>": 51421, "å®Įåħ¨": 37100, "Ġentity": 13977, "Ġknocked": 16914, "Ġwest": 7009, "Ġexempel": 34999, "last": 15459, "bum": 5559, "ĠRose": 12765, "Ġactivities": 5354, "ĠLeave": 9825, "ĠÐļÐ°Ðº": 11011, "Ã¿": 18798, "uish": 33786, "Ġcoping": 32893, "Ġensemble": 19492, "Ġbuckets": 32191, "elyn": 49449, "ĠRecent": 17553, "Ġsteamed": 32375, "oooo": 12506, "çļĦäºº": 29979, "ĠDAM": 48093, "Ġfertilizer": 31549, "Ġhora": 15098, "pat": 11584, "jsk": 32625, "Ġenter": 3242, "inated": 5410, "ĠAN": 5252, "ĠCinc": 44142, "Ġcomum": 44324, "Ġsamp": 34098, "ÐµÐ½Ð´": 23769, "Ġproteg": 49157, "amic": 20726, "Ġgamma": 15546, "´ìĭ¬íŀĪ": 30879, "ĠLeft": 16405, "Ġappreciated": 17169, "Ġnote": 3637, "LP": 45196, "å¹²": 26111, "Ġpolynom": 22560, "ygen": 8647, "<|14.38|>": 51083, "Ġdisgu": 23333, "Ġ1994": 22736, "Ġinnocent": 13171, "ìĿ´ëŀĳ": 21949, "ĠChina": 3533, "%": 4, "Ġarena": 18451, "Ġreferencing": 40582, "iban": 23586, "kÄĻ": 15724, "Ġorganizer": 41363, "Ġlegs": 5668, "Ġexperiment": 5120, "Ġordered": 8866, "Ġbanco": 45498, "Ġyoung": 2037, "ĠRoh": 27490, "ĠFS": 41138, "Ġequival": 9052, "ĠProp": 21944, "ëĦ¤ìļĶ": 35969, "Ġdestiny": 17893, "ucc": 39407, "Ð°ÑĢÑĭ": 48632, "å¤±": 28564, "ĠEddie": 23911, "Ġjacket": 11781, "Ġcancel": 10373, "Ġchloride": 35434, "Ġtwent": 34041, "Ġorientation": 14764, "ä½łåĢĳ": 19891, "write": 21561, "Å³": 28102, "ĠAlliance": 21859, "Ġanomaly": 42737, "Ġbulk": 16139, "ĠnÃło": 29069, "Ġhablar": 21014, "ively": 3413, "Ġbug": 7426, "Ġpada": 26069, "Ġastronomy": 37844, "Ġfew": 1326, "à¸Ńà¸°": 36419, "ĠBaby": 9425, "Ġtor": 3930, "Ġsupplemental": 48604, "ĠÐ½ÐµÐ±": 22783, "cen": 13037, "Ġetcetera": 22066, "ĠìĿ¸íĦ°ë": 47491, "leh": 14557, "oglo": 45841, "Ġmauv": 49631, "ĠGREEN": 47262, "Ġtortured": 36166, "Ġcurse": 17139, "Ġburning": 9488, "Ġincr": 42211, "Ġexecuting": 32368, "Ġrico": 41529, "Ġdebris": 21942, "ĠDoy": 40059, "Ġlifestyle": 11716, "Ġfiner": 39130, "ĠTheory": 29009, "ĠRegion": 25121, "vacc": 48976, "âĻªâĻª": 26130, "Ġgathering": 13519, "íĻĶë": 23419, "Ġbounced": 46482, "Ġcurious": 6369, "ĠReport": 16057, "nings": 24451, "Step": 23624, "Ð¸ÑģÑĮ": 10363, "MA": 9998, "<|4.56|>": 50592, "Ġsympathetic": 36032, "Ġmeant": 4140, "intÃ©rieur": 39166, "Ġsheep": 14213, "æĤ": 14696, "ĠìŀĪëĬĶ": 7153, "Ġhelemaal": 33595, "ĠÑģÐ°Ð¼ÑĭÐ¹": 30688, "ĠPik": 26544, "çİ°": 20204, "ĠNotice": 13428, "igos": 13348, "ĠHor": 10691, "Ġ65": 11624, "Ġaccuse": 43610, "aja": 12908, "Ġlikely": 3700, "Ġcrushed": 19889, "rail": 44765, "ĠClub": 11288, "ĠOpp": 15666, "Ð¼ÐµÑĢÐ¸Ðº": 27502, "Ġdatasets": 42856, "ĠFuk": 33043, "Ã¤Ã¤n": 11718, "ĠSabb": 34003, "ãģłãģĭãĤī": 33183, "ĠProjekt": 34804, "įëĭĪëĭ¤": 27169, "Ġretaining": 34936, "Ġnewcom": 40014, "stell": 17816, "ĠÅĽwie": 40078, "ĠSonra": 41379, "ĠÑĤÑıÐ¶": 34641, "Ġpuerta": 48597, "ĠÐĳÑĭ": 44804, "USIC": 5791, "lection": 5450, "zep": 46342, "ĠTomb": 37150, "ĠTap": 13445, "ĠìĿ´ìķ¼": 20510, "Ġoscillator": 43859, "ĠìķĬê³ł": 31157, "Ġpore": 41459, "irs": 12983, "doc": 39966, "¥¼": 2429, "Ġunlikely": 17518, "ur": 374, "ĠMush": 38188, "é«ĺ": 12979, "Ġfidelity": 46404, "Ġhuis": 46526, "Ġartist": 5748, "Ġmold": 11102, "ĠLaunch": 28119, "Ġshooting": 5942, "Ġlandfill": 47031, "ategory": 48701, "Ġjourney": 4671, "Ġcontact": 3385, "Ġhomeless": 12294, "'...": 37474, "remo": 44172, "Ġhu": 2137, "ĠGulf": 23033, "Ã¼yor": 18644, "ĠAdapt": 49643, "Ġsven": 48208, "phony": 28616, "Ġkit": 8260, "iod": 2695, "íĻĶ": 11604, "ìĿ¸": 4215, "Ġgeography": 26695, "Ġë§ĲìĶĢëĵľë": 45345, "<|22.30|>": 51479, "åĲĦ": 17516, "Ġbitch": 11960, "¶Ģë": 17981, "ĠEdinburgh": 41215, "ĠëĲĺë©´": 35664, "Ġquirky": 49515, "ubscribe": 9493, "gend": 9395, "Grand": 45076, "Ġpresses": 40892, "ãģªãģ®ãģ§": 47275, "ressing": 18605, "Ġopioid": 32837, "iping": 46440, "ĠÑĥÑĪ": 38521, "Ġlane": 12705, "ĠConference": 22131, "ĠRAMSAY": 42487, "Sam": 28743, "Ġgiant": 7410, "Ġdeaf": 15559, "Ã©k": 44879, "irable": 21493, "Cal": 31279, "olen": 11940, "ĠFamilie": 26021, "Ġplais": 29286, "Ġfim": 31603, "Ġlawyers": 16219, "Ġdenominator": 20687, "Ġfactual": 48029, "×Ł": 14388, "<|0.82|>": 50405, "Ġtriple": 15508, "ienda": 30498, "Ġgrandma": 15766, "rap": 4007, "Ġemblem": 35949, "Ġprocrast": 39306, "Ġrh": 33418, "ÑĥÐ¿": 6907, "Ġfulfill": 13875, "Ŀ¼ëĬĶ": 13182, "Ġtheoretically": 29400, "ĠmÃŃ": 14692, "Ġcuer": 18363, "Ġdamals": 26067, "Ġfriction": 17710, "ĠcÃ´tÃ©": 18437, "Bir": 41786, "Ġquestionable": 37158, "ĠÎ¿": 11383, "ski": 18020, "craft": 5611, "ĠBrush": 33142, "ktop": 13031, "ĠMystery": 41660, "IGHT": 21926, "eko": 34241, "Ġcoughing": 39375, "ĠWesley": 43908, "fre": 19325, "æĺ¯ä»Ģéº¼": 35851, "TM": 42023, "Ġblind": 6865, "eday": 16826, "ĠFilip": 28241, "Ġdiligence": 40046, "ĠQuel": 43521, "Ġbadass": 33907, "Ġì¹´": 41703, "gue": 11929, "Ġworked": 2732, "è¡Į": 8082, "Ġrisk": 3148, "éĢĻä¸Ģ": 32260, "ĠEli": 16943, "ICO": 36568, "Ġhardly": 13572, "uks": 27999, "Ġstool": 35086, "Ġdije": 39414, "Ġdedans": 48680, "ĠÃ§Ä±kar": 41097, "ĠUm": 3301, "Ġnerd": 23229, "inizi": 46222, "Ġmeta": 19616, "ern": 1248, "Ã§a": 5297, "ĠâĻ«": 3846, "Ġintox": 40809, "Ġ(*": 29669, "Ġtrainees": 41316, "Ġtycker": 31053, "ikel": 41486, "ĠSlowly": 29674, "Ġbuena": 25710, "ĠHind": 15307, "ÑģÑĤÐ²ÐµÐ½Ð½ÑĭÐ¹": 39343, "Ġmax": 11469, "ĠÐ½Ð°Ð²": 14192, "Ġsolution": 3827, "¶Ī": 20026, "ĠÑģÐ¾Ð¶Ð°Ð»ÐµÐ½Ð¸Ñİ": 48018, "Ġfalar": 13536, "çĽ®åīį": 39004, "ĠalguÃ©m": 27052, "eur": 13629, "Ùģ": 5172, "30": 3446, "Ã©tica": 37272, "ĠGirls": 16245, "ĠAside": 33726, "Ġjuego": 21344, "ĠmÃŃn": 33656, "×ŀ×": 9202, "Ġunsuccessful": 46258, "ĠBert": 29594, "Ġplots": 28609, "ĠAuf": 9462, "ĠVelvet": 47086, "Out": 28353, "Ġgrande": 8883, "Ġital": 22366, "Ġcultura": 30576, "Ġtransfers": 29137, "Ġresident": 10832, "Ġbones": 10491, "cos": 6877, "ĠWAT": 36086, "ĠInfrast": 38425, "west": 8750, "Ġgrade": 7204, "Ġlys": 48670, "estro": 32389, "Cr": 38750, "Ġë§Ľ": 9508, "Ġnutshell": 37711, "Ġfiling": 26854, "Sim": 39392, "ĠCouple": 38266, "Ð¸Ð¼Ð¸": 11426, "Ã¤chen": 45118, "risk": 33263, "Ġinsp": 3741, "STALK": 39557, "Ġsubscribe": 3022, "ĠNorthern": 14335, "Ġaggrav": 47339, "jm": 35195, "iffer": 12612, "<|16.94|>": 51211, "Ġpeso": 28149, "ĠZus": 18742, "ieÃŁen": 40687, "Ġexercise": 5380, "Ġstretching": 19632, "Brid": 47738, "Ġdegradation": 40519, "Ġhyped": 43172, "abilir": 21711, "ĠVamos": 10894, "ĠHers": 41222, "Ġcondiciones": 45960, "ĠMonica": 25363, "VIS": 11345, "Ġ(\"": 15618, "Ġreflections": 30679, "ijke": 33611, "onton": 45529, "ÐµÑĤ": 1094, "ĠAcademy": 11735, "ĠKang": 20360, "Gary": 31798, "Ġnaszym": 48094, "Beifall": 14551, "Ya": 26795, "ourage": 44720, "Ġdeton": 39920, "inet": 21370, "Ġsending": 7750, "Ġfriendship": 13216, "ĠHide": 35118, "Ġwatches": 17062, "ÑĭÐ²Ð°ÑĤÑĮ": 25265, "Ġcrimin": 19044, "ĠJob": 18602, "Ġirrig": 26129, "ÐµÐ»ÐµÐ½": 21180, "Ġbeings": 8958, "Ġfortunately": 25511, "Ġshe": 750, "ĠPutting": 31367, "Cloud": 32787, "Ġnorthern": 14197, "ĠÑİ": 29488, "Ġpayoff": 46547, "Ġgranny": 44797, "Īë¬¸": 35604, "Ġtruth": 3494, "Ġquatre": 31334, "ĠWILL": 18194, "Ġê·¸ëŁ¬": 14019, "ĠcaracterÃŃst": 34297, "ock": 1560, "Ġilluminated": 48577, "ĠÐ²Ð½Ð¸Ð¼Ð°Ð½Ð¸Ðµ": 33267, "Ġsealed": 21514, "ĠOFF": 24115, "Ġflap": 30781, "Ġinside": 1854, "ĠÑģÑĤÐ¾Ð»": 24053, "Ġrecoll": 39495, "Ġretour": 28873, "çħ§": 32150, "Ġå°įä¸įå°į": 35164, "Ġlit": 7997, "Ġmassively": 29379, "Ġìĺ·": 30880, "<|13.56|>": 51042, "ĠThings": 9514, "Ġsequential": 42881, "ties": 6097, "isten": 4821, "Mic": 48831, "cribe": 8056, "ĠÐ¼Ð°Ñģ": 21466, "ĠBÃ¶yle": 30734, "ĠEph": 35445, "Ġreceptive": 45838, "ĠÐ¾Ð±": 3348, "ĠRobinson": 25105, "ĠÐ¿ÐµÑĢÑģÐ¾Ð½Ð°Ð¶": 38063, "Ġspr": 6103, "ĠAllies": 44949, "Ġchairs": 18299, "Ġganze": 18898, "lere": 29904, "nej": 11794, "ä¸įåĲĮ": 47123, "Ġflats": 43075, "Ġpow": 3388, "íĺ": 5262, "Ġconsult": 7189, "<|11.26|>": 50927, "cemos": 38173, "Ġnut": 5393, "Ġmop": 48106, "ĠAnalysis": 38172, "anium": 21528, "Ġseparate": 4994, "Ġfix": 3191, "Ġabstract": 12649, "Ġrugged": 42662, "Ġwalnut": 50136, "urf": 21844, "ÏĦÎ¿Ïį": 47249, "¶ģ": 18879, "Ġsaved": 6624, "Ġwtedy": 26959, "Ġë°±ìĭł": 31551, "uck": 1134, "Ġdiam": 7484, "Ġbackstage": 31764, "ĠVict": 8676, "ĠSher": 11789, "ĠÑģÑĤÑĢÐ°Ñħ": 50190, "ĠYes": 1079, "ĠSouthern": 13724, "Ġmanners": 34672, "Ã¬n": 41320, "Ġconfronting": 47449, "Ġdrawn": 10117, "Ġestimates": 20561, "Ġpowerful": 4005, "æĺ¯ä¸įæĺ¯": 23034, "Ġchunks": 24004, "Ġmiteinander": 43127, "Ġaccommodations": 38907, "Ġoffenses": 49765, "Ġë§Īë": 25847, "anto": 5857, "Ġratchet": 45885, "Ġfertile": 43509, "ĠÐ¿ÑĢÐ¸Ð·": 26724, "lly": 13020, "Ġtank": 5466, "ospace": 35682, "ĠdonnÃ©": 31165, "Ġlibr": 4939, "Ġeasier": 3571, "Ġ16": 3165, ".''": 34928, "ĠRenee": 47790, "uesto": 22057, "Ġrevised": 35228, "ĠÐľÐ¾Ñģ": 32327, "×Ļ×ł": 14946, "ĠÙĪØª": 34683, "Ã¼her": 27775, "le": 306, "Ġprotector": 34986, "Ġgladly": 47307, "Ġuseful": 4420, "ĠChicago": 9525, "Ġsym": 6697, "Ġconverting": 29942, "ç»ĵ": 45641, "Ġeasily": 3612, "Ġpremium": 12049, "Ġdescript": 31280, "ìĦł": 12421, "Ġchill": 11355, "acion": 18803, "ĠÑģÐµÐ¹ÑĩÐ°Ñģ": 10241, "Ġreadily": 26336, "ĠÐºÐ°ÐºÐ¾Ðµ": 37932, "Ġshading": 30556, "<|19.92|>": 51360, "Ã¶n": 3239, "Ġmee": 24442, "ĠÑĩ": 1358, "Ġleg": 1676, "ç¬ĳ": 11600, "Ġrestraint": 49281, "Ġ×Ļ×ķ×ĵ×¢": 45764, "Ġprototypes": 42197, "Ġsniper": 32441, "Ġsomm": 41854, "ĠMcG": 21865, "Ġshirts": 20832, "naden": 45578, "Ġgrosse": 40009, "æĢ§": 21686, "ĠìĺĪë»Ĳ": 45527, "Ġpolitically": 21154, "Ġprat": 28844, "Thr": 47256, "oh": 1445, "Ġpermission": 11226, "Ġtax": 3366, "Ġconverts": 38874, "íĽĪ": 35715, "ĠSurv": 40716, "Ġchanger": 22822, "igent": 25002, "ĠNope": 12172, "à¸Ĭ": 17080, "Ġshed": 14951, "ÑĸÐ½": 17113, "ĠNed": 31355, "ÙħÙĨ": 27842, "chem": 17345, "ĠApplication": 39512, "Ġcassette": 40514, "ĠBig": 5429, "Ġinteressant": 37748, "ãģ§ãģĻ": 4767, "Ð·Ñı": 29471, "×ŀ×ķ": 34183, "Ġrelief": 10915, "Ġcollection": 5765, "bro": 9120, "ĠìĤ¬ëŀĮëĵ¤": 39570, "Ġvaries": 21716, "ĠÐ½ÑĢÐ°Ð²": 27564, "ĠolmasÄ±": 47528, "Ġalthough": 4878, "ik": 1035, "ĠE": 462, "Ġleaders": 3523, "<|20.00|>": 51364, "ãģĳãĤĮ": 39256, "Per": 23232, "vem": 31651, "Ġiy": 29861, "Ġcarry": 3985, "gged": 12244, "<|ln|>": 50353, "Ġformidable": 41246, "BT": 33853, "Ġcalam": 43936, "ĠLawrence": 22787, "Ġintel": 24777, "Ð°Ð»ÑĮÐ½Ð°Ñı": 32016, "ĠRepresentative": 33421, "Ġund": 674, "ĠÃ¶ld": 35419, "gender": 22174, "Ġcall": 818, "Ġtrous": 34156, "Ġcarrot": 22767, "Ġëĵ¤ìĸ´ê°Ģ": 20794, "Ġrecordings": 25162, "ĠBoh": 32484, "Ġteas": 11488, "è¯": 5233, "ĠAustral": 5273, "ĠTuc": 42272, "à¹ĥà¸«": 29878, "ĠSimon": 13193, "Ġpuree": 49407, "ĠWÃ¼r": 43846, "Ġacademic": 7778, "<|0.68|>": 50398, "ĠÑģÐ¸ÑģÑĤ": 21351, "<|29.54|>": 51841, "Ġmosquitoes": 39394, "ĠEspero": 41831, "Ġå°±": 32609, "aber": 23298, "Ġcrashed": 24190, "erus": 37287, "Ġtreaties": 48552, "Ġzeker": 43844, "Ġborrowing": 35024, "Ġneighb": 7888, "Ġvaccines": 12164, "Ġconcealer": 30672, "´Ĳ": 16808, "osexual": 22255, "Ġbraces": 41537, "AAAAAAAA": 32729, "Books": 48386, "ĠCe": 8257, "ĠÃĩÃ¼nkÃ¼": 26763, "Ġapert": 22939, "ĠSal": 5996, "Ġpleas": 35122, "gn": 4568, "ugg": 3562, "Ġc": 269, "Moo": 47695, "Ġpous": 39140, "Ġheadlights": 38487, "Ġsaves": 19155, "<|1.52|>": 50440, "¹": 117, "Ġmand": 7411, "ĠSke": 32344, "Ġlebih": 20451, "Ð¾ÐºÐ¸": 48110, "Ġdemonstrates": 31034, "Ġà¤": 8485, "Ġì£½": 22303, "emark": 26721, "ĠRED": 39346, "ìķĺëĬĶëį°": 48213, "ĠCHA": 35732, "ĠCAL": 50188, "ĠTrib": 23304, "zony": 44479, "Ġpuzzles": 24138, "ŀĸ": 47812, "ĠSavannah": 47902, "Ġunderestimate": 35826, "grown": 38413, "Ġperde": 44182, "ĠìĻĦìĦ±": 41867, "Ġconsolid": 19045, "ĠÑģÑĤÐ¾Ð»ÑĮÐºÐ¾": 50156, "ĠÑħ": 3490, "ĠSentinel": 49498, "Ġdeviation": 25163, "Ġexcellence": 21268, "Ġsollte": 18042, "ĠÑĤÐ¸Ð¿Ð°": 35443, "dullah": 42324, "ĠAustralians": 38108, "ĠHalo": 29795, "Ġsoften": 31356, "ĠVanguard": 46648, "æ¬¡": 9487, "Ġjum": 29067, "anse": 47661, "Ġweil": 7689, "Ġentrepreneur": 14307, "ĠÃ³t": 44490, "Ġspaced": 43766, "è³½": 45668, "Ġletzte": 35236, "Ġbuff": 9204, "fer": 612, "Ġcentralized": 32395, "ĠEH": 39416, "Ġcoco": 21611, "denly": 18185, "Ġsupp": 1003, "ĠMexico": 8612, "ĠJapon": 47594, "Ġsusp": 6535, "Ġdesk": 10026, "vial": 22640, "Ġkommen": 11729, "Ġrequ": 1724, "Ġchampionships": 41433, "Ġlod": 33311, "had": 26326, "auto": 41988, "ĠnhÃ¢n": 47931, "Ġtight": 4524, "his": 18300, "forward": 13305, "á»¯a": 26606, "Ġinn": 7714, "ĠChang": 17179, "Ġsanction": 39830, "Ġclearly": 4448, "ĠAntes": 39325, "Ġgenetic": 12462, "Air": 46016, "Øµ": 9381, "ĠPrinceton": 36592, "ĠGovernment": 7321, "Ġgrund": 30886, "erin": 31602, "Ġtus": 20647, "Ã¨re": 4212, "ĠDeal": 27227, "Ġdescub": 32592, "Ġapron": 46742, "Ġanche": 11585, "Ġalgum": 15468, "ELI": 12349, "school": 22779, "ĠBrill": 30132, "Ġabus": 48819, "ĠÐ½ÑĥÐ¶": 9353, "ĠHertz": 46910, "Ġfluffy": 22778, "wal": 29530, "<|8.44|>": 50786, "ĠThr": 41645, "habt": 35641, "ĠÑģÐµ": 27383, "Ġdado": 29568, "AC": 4378, "ites": 3324, "ĠÐ¶ÐµÐ»": 21788, "ouses": 18562, "Ø±Ø§": 23557, "ĠÏĢÎ¬": 31967, "jin": 13970, "ĠJohns": 37016, "ĠÐ»ÑİÐ±": 9875, "Ġpense": 11209, "è®Ĭ": 26327, "Ġ115": 39436, "ĠVish": 36752, "ĠSomeone": 8734, "Ġgrab": 4444, "ĠGuard": 11549, "Ġpropose": 17421, "ĠDoo": 46612, "Ġstrongly": 10613, "ĠOpening": 41137, "vent": 2475, "isel": 39711, "ĠFairy": 37631, "ĠproblÃ¨me": 21111, "Ġestat": 30883, "ĠÐºÐ°Ð¶Ð´": 15698, "Ġmicroorgan": 49129, "Ġsupremacy": 35572, "uve": 31564, "Ġconfinement": 41064, "ĠczÅĤ": 31083, "Ġverloren": 44884, "ĠIR": 16486, "ĠÎ¤Î¿": 44524, "Ġdov": 30870, "ĠSOL": 36011, "à¸£à¸°": 47376, "ima": 4775, "toi": 49222, "åı¯ä»¥": 6723, "<|15.94|>": 51161, "er": 260, "Ġdocs": 45623, "ziest": 37567, "ĠPara": 11107, "ÑĨÐ¸Ð¸": 12502, "Ġsperm": 32899, "ëĵ¤ìĿ´": 27641, "ereye": 41333, "75": 11901, "Ġgece": 48173, "Ġwells": 30984, "imi": 10121, "Ġtidy": 34646, "å¾ħãģ£ãģ¦": 33393, "Ġtocar": 35631, "ĠÐ²ÑģÑİ": 32341, "Ġcentre": 10093, "ĠComplex": 41184, "ÐµÑĢÑĥ": 29894, "ĠHole": 47635, "Ġwashing": 13836, "dade": 45894, "regation": 20167, "Ġcancelled": 25103, "Ġrecur": 18680, "¥´ì": 41390, "ĠKant": 40927, "aron": 6372, "Ġez": 25220, "Ġoutfits": 22331, "ĠAs": 1018, "Ġplugged": 25679, "Ġinternet": 4705, "Ġdont": 9400, "Ġzul": 43238, "ĠFelix": 30169, "Ġescapes": 43769, "Ġsah": 19292, "ĠTa": 6551, "Ġturbo": 20902, "ĠValerie": 46656, "ĠUS": 2546, "ĠHawaiian": 36581, "<|17.68|>": 51248, "Ð»ÐµÐ½Ð¸Ðµ": 17943, "<|29.22|>": 51825, "ĠRemove": 18831, "åĨµ": 43943, "ĠTodos": 35447, "Ġtan": 7603, "ç¾İåĳ³": 45511, "<|19.08|>": 51318, "ìĽĥ": 30668, "Ġfilme": 26488, "rat": 4481, "Ġions": 27362, "Ġprocessing": 9007, "<|3.68|>": 50548, "ĠAB": 13838, "Ġcrew": 7260, "ãĤ¹": 9550, "Ã©n": 3516, "ç²ī": 32993, "yard": 13862, "Ġrained": 47533, "Ġwer": 2612, "ĠkÃ¤yt": 49313, "Ġ***": 32315, "phone": 4977, "ĠBoeing": 30831, "azar": 22795, "ãģ§": 2474, "Ġlud": 15946, "ĠHaupt": 30573, "Ġvoters": 14073, "ĠLabour": 23361, "Ġapologise": 50128, "ĠJeÅĽli": 37086, "Ġabuse": 9852, "cej": 20811, "Ġê²½ìļ°": 20591, "growth": 49747, "ÑĦÐ¾ÑĢÐ¼": 18190, "Ġestem": 50185, "Ġsele": 23264, "ĠSantiago": 37621, "Ġirritation": 50031, "hta": 39903, "ĠGmail": 36732, "Ġgoo": 33192, "ĠëĳĲ": 11915, "Ġpoke": 19712, "ĠHARRIS": 47714, "Ġfilthy": 40384, "æĻ¯": 50218, "ĠEntertainment": 25758, "Ġngh": 29338, "Ġteenage": 26866, "mot": 29778, "ĠVIP": 29732, "ĠGallery": 29733, "ĠVA": 18527, "ĠSche": 25321, "Ġcases": 3331, "ĠHBO": 37409, "Kevin": 45146, "Ġdeveloper": 10754, "Ġrozm": 35234, "Ġreconoc": 43838, "Ġgeneration": 5125, "ela": 4053, "ĲĲ": 35606, "<|15.56|>": 51142, "04": 14565, "ĠLondon": 7042, "Ġstrive": 23829, "Ġhai": 21822, "ĠHess": 35960, "Ġdepri": 27095, "Ġparsley": 33632, "Ġotras": 20244, "<|24.62|>": 51595, "Ġprincip": 6959, "ĠDoesn": 12955, "Ġveure": 26060, "Ġlive": 1621, "Ġclimb": 10724, "ĠEntwick": 29397, "Ġê±": 4925, "Ġdonner": 20882, "ÑģÑĤÐ°ÑĤÐ¾ÑĩÐ½Ð¾": 25273, "Ð¼Ð¾Ð²": 43632, "Ð¡Ð¿": 47306, "Ġdecades": 7878, "Ġgol": 9988, "Ġracing": 12553, "termin": 29725, "ĠAge": 16280, "Ġscrewdriver": 27282, "Ġbrains": 15442, "<|4.98|>": 50613, "Ġweb": 3670, "Ġrebound": 31850, "ĠgÃ¼zel": 14746, "Ġencima": 40265, "Ġrecovering": 29180, "Ġequ": 1267, "Ġaddictive": 36486, "Ġpornography": 49936, "ĠCara": 33006, "Ġdetectors": 46866, "Please": 16216, "<|7.14|>": 50721, "Ġaxe": 30195, "Ġdessas": 40083, "ĠLiquid": 38943, "Ġsean": 37670, "Ġlearner": 33347, "Ġpolicy": 3897, "Ġnoun": 23307, "ĵľë¦´": 29512, "×ķ×": 1683, "Ð±": 1552, "ĠBorn": 29808, "ĠpowiedziaÅĤ": 48539, "inent": 11058, "ÐĿÐµ": 32297, "Ġì²«": 22707, "ĠEdin": 39697, "ĠPG": 40975, "ĠAdam": 7938, "rency": 10457, "AP": 4715, "ĠZheng": 31408, "ĠÙĦ": 5296, "Ġnectar": 49943, "ÐµÑĨ": 10935, "Ġgalera": 31912, "ye": 1200, "Ġsecured": 22905, "Ġê¿": 28529, "thinking": 39873, "ĠWire": 32598, "own": 648, "Ġtension": 8980, "Ġdeer": 17120, "Ġconsequ": 7242, "ĠYork": 3609, "iscal": 14616, "Ð½Ð¾Ð¶": 27143, "æŃ¦": 38194, "unts": 21253, "ochond": 40172, "Ġtattoo": 15080, "Ġalarms": 45039, "Ġbooking": 34424, "ĠPorsche": 31044, "Ġcada": 8411, "arded": 22803, "Ð¾Ð»Ð½": 20470, "Ġ4": 1017, "Ġbáº¡n": 14647, "utet": 20364, "Ġgram": 21353, "Ġplugs": 33899, "Ġclinician": 45962, "reci": 3326, "ĠGard": 12882, "Ġ550": 42514, "ĠXX": 27050, "<|14.64|>": 51096, "oger": 42719, "RI": 5577, "ĠFin": 3773, "inguÃ©m": 25985, "ipper": 15124, "Ġfilmmaker": 34700, "×¡": 11996, "ĠìļĶ": 10161, "Ġsprawd": 46192, "æĽ¸": 29801, "ĠSeal": 46207, "ĠHarsh": 48914, "Ġdolls": 29134, "ocur": 20885, "Ġremarkable": 12802, "ĠBenny": 44531, "ĠÐ¼Ð°Ð¹": 41860, "Ġtegen": 30945, "Ġprawda": 43607, "Ġmotive": 28827, "ĠÐ¿ÐµÑĢÐµ": 29641, "Ä±yoruz": 24459, "bracht": 23404, "Ġestas": 13897, "Ġucz": 35403, "iversary": 12078, "36": 11309, "Î": 138, "ĠOG": 32477, "Brad": 44435, "ĠÎļ": 19233, "nesota": 13689, "ĠHaz": 15852, "Ġotherwise": 5911, "ĠLucky": 26639, "Ġincorrect": 18424, "ĠKim": 5652, "broken": 37947, "æĿ±": 18413, "heet": 38164, "Ġbracelet": 23021, "Ġeru": 20999, "Ġ2001": 16382, "ãĤ´": 39780, "amped": 36970, "impression": 36107, "Ġjoyful": 33090, "Ġwork": 589, "Ġplugin": 23407, "ugs": 14950, "Ġsew": 15472, "ĠPresiding": 47365, "Ġfate": 12738, "PM": 18819, "abilities": 6167, "Ġkomb": 42925, "è§ģ": 23813, "wives": 48882, "Ġgat": 44092, "ĠYug": 41949, "ĠColumbia": 17339, "ĠUSC": 44066, "rol": 6623, "ell": 898, "<|8.92|>": 50810, "Ġambos": 41425, "Ġpoz": 21281, "Ġventil": 27498, "ANS": 25711, "Ġaquell": 33635, "ĠEva": 29377, "<|28.26|>": 51777, "ĠReaper": 49956, "ÑĥÐµÑĤÑģÑı": 37479, "utive": 17254, "Ġpourquoi": 19934, "ĠMultiple": 40056, "Ġsurface": 3753, "Ġshel": 9180, "Ġhadn": 8782, "ÑĤ": 403, "Ġcarts": 48128, "OST": 28067, "leben": 41467, "Ġappreciate": 4449, "Ġdizer": 17159, "æĺ": 1431, "ĠforcÃ©ment": 31358, "Ġyear": 1064, "IDE": 29283, "Ġblends": 37619, "ĠCreating": 40002, "ĠTheresa": 42595, "ĠGIS": 47860, "year": 5294, "ziaÅĤ": 43070, "`": 63, "Ġsotto": 43754, "Ġfuerza": 39730, "Ġlui": 8783, "ĠÐ¾ÑģÐ¾Ð±ÐµÐ½Ð½Ð¾": 35817, "ĠChen": 13682, "Ġgame": 1216, "ĠYoshi": 45676, "Ġspeaks": 10789, "ĠsiÃ¨": 31302, "Ġlet": 718, "brahim": 38837, "Ø¹": 3615, "ĠÐ¿Ð¾ÑĤÑĢ": 26146, "2": 17, "piano": 39892, "Ġgev": 47103, "iami": 15568, "Ġnoted": 12964, "inum": 26731, "ĠìĿ": 1191, "Î¸Î·": 40939, "Ġmerchants": 36253, "ĠnÃ£o": 2431, "Ð²Ð¾": 12707, "ĠSchÃ¼ler": 39776, "ivities": 43539, "Ġcolder": 31020, "ãĤļ": 26706, "lat": 14087, "Ã¤ttre": 44225, "ous": 563, "ĠìĤ¼": 32391, "ĠAntwort": 34693, "Ġunplug": 39456, "ÙĨØª": 29399, "Ġcad": 12209, "aces": 2116, "ĠHolz": 45455, "Ġdocumentaries": 41630, "<|13.68|>": 51048, "Ġconnected": 4582, "ĠÃ´": 24107, "§ģ": 25787, "ÑĩÑĤÐ¾": 45984, "ĠBS": 27253, "unch": 1680, "Ġslit": 43182, "Ġê°ĳìŀĲê¸°": 31307, "Ġeconomics": 14564, "Ġë³Ħë¡ľ": 45513, "±": 109, "ä¸Ģ": 2257, "Ġparad": 13480, "Ġworldview": 41141, "ÐµÑĦ": 23854, "Ġcringe": 47081, "Ġshopping": 8688, "Ġloyalty": 22831, "×ł": 5997, "Ġrarely": 13752, "ĠjÃ³": 31390, "Ġgele": 20234, "Ġbat": 7362, "Ġsimplement": 24208, "Ġembassy": 38012, "Ġagreements": 21422, "ĠLas": 10663, "Ġvrai": 17815, "Ġcr": 941, "ulk": 16875, "ĠBeij": 18995, "Ġintend": 19759, "Pat": 29331, "ÙĪÙħ": 20498, "ĠFeel": 14113, "Ġteens": 24849, "Ġart": 1523, "ĠMATT": 6291, "ÑıÐ»Ð¸": 24559, "Ġst": 342, "Ġvere": 16443, "ĠìĿ´ê±¸": 27107, "Ġblog": 6968, "Ġrevival": 33207, "ĠOri": 23621, "Ġorgas": 44834, "ĠÐ°Ð±ÑģÐ¾Ð»ÑİÑĤÐ½Ð¾": 35060, "ĠÑģÐ¸Ð¼": 38994, "ĠSouls": 30258, "ĠLuego": 45665, "Ġdiagon": 17405, "Î½Î¿": 17444, "ãĥıãĥı": 29790, "ĠhyvÃ¤": 38526, "Ġhostage": 38434, "Ġminds": 9634, "Ġinfected": 15414, "Ġrearrange": 39568, "ĠBild": 15746, "grunts": 37727, "Ġdecay": 21039, "Ã©qu": 20183, "awia": 34953, "Ġteor": 40238, "Ġsuperb": 36617, "Ġdoable": 41183, "issements": 44928, "Ġinspector": 34564, "Ġletzten": 18226, "Ã§e": 32115, "Ġstiff": 15451, "ĠnÃ¥": 11594, "ĠtÃ¶": 37064, "Ġefect": 22565, "ĠìĿ´": 2620, "unt": 2760, "ĠAward": 13894, "<|2.84|>": 50506, "iovascular": 30313, "atorium": 41679, "arium": 19612, "Ġmite": 36190, "ĠTaste": 33770, "ĠrÃ©v": 38357, "film": 37023, "Ġresolve": 14151, "ĠAuckland": 33976, "Ġbulky": 42986, "four": 23251, "Ġsta": 11135, "ĠTheo": 42519, "ild": 793, "Ġprivate": 4551, "Ġtecn": 20105, "Ġchosen": 8614, "85": 19287, "Ġterug": 35020, "ĠniÃ±os": 30712, "ĠDaniel": 8033, "mitt": 15548, "Ġcushion": 21908, "Ġ194": 9754, "Ġparticipant": 24950, "ĠOsc": 17406, "Ġjul": 30764, "é»ĥ": 39214, "Ġmetaph": 30946, "uine": 15516, "æĶ¯æĮģ": 35488, "Ġpremiers": 45166, "£": 96, "gu": 2794, "Ġtradition": 6994, "´ëıĻ": 30580, "ĠbakalÄ±m": 28812, "kek": 41888, "Ġspotted": 21010, "Ġprecision": 18356, "ĠÐĹ": 5841, "ĠLOVE": 31351, "<|28.34|>": 51781, "ĠATP": 39202, "ĠRong": 43383, "ìĶ¬": 39825, "Ġpredicted": 19147, "Ġwindy": 30330, "ĠAirPods": 43247, "othermal": 47280, "è«ĭ": 16302, "Ã¸": 6715, "ĵ¤ìĿĺ": 29990, "love": 28459, "ĠIndia": 5282, "Ġstuffed": 24092, "Ġutiliser": 34535, "Ġbackside": 35370, "Ġthief": 23176, "Ġawfully": 47976, "keepers": 43153, "ĠDoncs": 38641, "POSING": 46724, "Ġexec": 4454, "Ġfac": 1915, "/.": 48550, ",.": 40698, "Ġprofits": 17982, "<|5.84|>": 50656, "Ġintentionally": 22062, "viv": 27810, "ĠÐºÐ¾ÑĢÐ¿": 45284, "ĠUNC": 44886, "Ġtrucks": 16156, "Ġwelded": 49227, "Ġcual": 10911, "heus": 42209, "Ġtherapist": 19830, "powered": 27178, "Ġburden": 12578, "Ġnoite": 34429, "Ù¹": 37130, "Ð³Ð¸": 15599, "ĠAsh": 10279, "opers": 33338, "step": 16792, "<|8.16|>": 50772, "á¹ĩa": 31283, "Fire": 45651, "ĠGrammy": 47332, "Ġacquis": 17883, "ĠIdea": 47245, "Ġli": 375, "Î¹ÎºÎ®": 35490, "Ġthese": 613, "Ġjeune": 35610, "Ġprovocative": 47663, "Ġclarity": 16992, "Ġtragic": 20385, "Ġexpon": 12680, "´ìłģ": 38430, "Ġsymb": 43700, "Ġmuse": 39138, "Ġindem": 37185, "EERING": 27607, "Ġfoil": 22444, "Ġcourse": 1164, "Ġsund": 33047, "ĠAbe": 38472, "ĠRonnie": 46131, "Ġbereit": 38758, "ĠRush": 28389, "ä¸Ńåħ±": 25093, "æĢİä¹Ī": 15282, "Ġtranscend": 28535, "Ġernst": 43412, "Ġoils": 22177, "Ġgovernments": 11280, "frei": 42072, "Ġjab": 33475, "Ġpassive": 14975, "?,": 22753, "ĠÑĩÐµÑĢÐµÐ·": 17341, "Ġtorto": 50159, "Ġshear": 24082, "ÐµÐ³Ð´Ð°": 17540,
[...]
